/**
  ******************************************************************************
  * @file    speech_data_params.c
  * @author  AST Embedded Analytics Research Platform
  * @date    Wed Dec 27 17:57:29 2023
  * @brief   AI Tool Automatic Code Generator for Embedded NN computing
  ******************************************************************************
  * Copyright (c) 2023 STMicroelectronics.
  * All rights reserved.
  *
  * This software is licensed under terms that can be found in the LICENSE file
  * in the root directory of this software component.
  * If no LICENSE file comes with this software, it is provided AS-IS.
  ******************************************************************************
  */

#include "speech_data_params.h"


/**  Activations Section  ****************************************************/
ai_handle g_speech_activations_table[1 + 2] = {
  AI_HANDLE_PTR(AI_MAGIC_MARKER),
  AI_HANDLE_PTR(NULL),
  AI_HANDLE_PTR(AI_MAGIC_MARKER),
};




/**  Weights Section  ********************************************************/
AI_ALIGNED(32)
const ai_u64 s_speech_weights_array_u64[13298] = {
  0x3e2d0d57be3a7193U, 0x3e98603a3e661b2eU, 0xbd5ece66bbd8b023U, 0xbea8f8f5be743c78U,
  0x3daa2b7cbe966f36U, 0xbe1955b23d922adeU, 0x3ed77325bdb2ec72U, 0x3e9e80ab3f10d701U,
  0x3ec01acc3c8f520aU, 0xbe765dd33e983231U, 0xbf4ae473bf381ff8U, 0xbe43e430bf207941U,
  0x3f178b7f3e95eeb3U, 0x3f57daa13f117f37U, 0x3e7804163f0ab35dU, 0xbf658b73bede276fU,
  0xbf0b5e22bf46aeb5U, 0xbdd28af5bebb65bfU, 0x3f15bf9e3e0b3c44U, 0x3f8d41e93f82e422U,
  0xbec0ad253ead6d33U, 0xbf187ed8bf3ff1d8U, 0xbf6b63f5bf23f4e0U, 0x3e705ef0bf13a7cbU,
  0x3f9659343f87af56U, 0x3f49b9473f8eb0f3U, 0xbf4d65b8bde2745dU, 0xbf8c0dc3bf9a5224U,
  0xbe5fc0eebf491ec2U, 0x3f5052033e9595dfU, 0x3f8821ab3f763f81U, 0x3d874f753f57442cU,
  0xbf8acb15bf1e914fU, 0xbf16efa8bf827d9bU, 0xbb5c91aebe42a80aU, 0x3f2c43523e9577f8U,
  0x3f379a6f3f560f89U, 0xbed7a4153df61b1bU, 0xbef35a3cbf410635U, 0x3e7d9914bd4854cfU,
  0x3eb30af63f161217U, 0xbd720402bcef0bf8U, 0xbd8678c43bfbf559U, 0xbea5a196be85b075U,
  0xbd9abcd9bea42a68U, 0xbdc672eabb9e31d2U, 0x3e948b393e16aae6U, 0xbd8012b63e1d9c82U,
  0xbb8e5f7fbe3a3f30U, 0xbe90242abc8984d8U, 0xbe6763dcbe49d565U, 0x3e0dbe1ebe2a474bU,
  0x3e75c1543e974a27U, 0x3ec4f4a83e889221U, 0x3d22d3103e7c452bU, 0xbdc6febbbdaaf871U,
  0x3e198a143d2830beU, 0x3e5a2a5bbb1bcb4fU, 0x3eed8f973f15064eU, 0xbee70cfd3ae25694U,
  0xbf38e68ebf13c7a8U, 0xbf173ed9bf4ee1cdU, 0x3e36935fbe55f4bbU, 0x3eeaa63d3f0a395fU,
  0x3e399cc63e78d514U, 0xbe9c19f3bca34932U, 0xbece8451bef615bcU, 0xbbbf20debe9efeb4U,
  0x3e8bc1083e4e36c3U, 0x3e48803f3eba8642U, 0xbe121f16bd68bfacU, 0x3e82412fbdb448f2U,
  0x3e5448493e7fa881U, 0xbde955fe3e2e2dbbU, 0xbe8765abbe5497f0U, 0xbe3e08b9beb08390U,
  0xbdaba799be2e3196U, 0x3e76f2ffbd494b88U, 0x3ecc29863eda5be6U, 0x3db6c29e3ebdc8a3U,
  0xbe56870bbe973d20U, 0x3da3981abd3db6c6U, 0x3ee216c33df80727U, 0x3ea2aff13ed3b403U,
  0x3d9ca4d13eba496cU, 0xbe50e0f3bcc13096U, 0xbf1ae307bece20f3U, 0xbf1bdba7bf34329bU,
  0xbea3d8b1bebd6961U, 0x3d7ef049beb105aeU, 0x3f03e4ec3ea88d38U, 0x3f1f8ed03f128decU,
  0x3f62efd43f50d9efU, 0x3ec0d3fa3f178543U, 0xbe8db0253d6bddf8U, 0xbf3f6c09bec14b53U,
  0xbf6d54edbf5cd1f4U, 0xbf00ba1abf5db44aU, 0x3d98ac80be3ea2b1U, 0x3ebb427a3e07f805U,
  0x3f18fb4c3ef988e9U, 0x3ec239cb3ef76d72U, 0x3eb7e83f3f000da1U, 0x3ea4e21f3e8ab90bU,
  0xbe333abdbd5769e1U, 0xbebb6132be7e052fU, 0xbee311bfbf057a05U, 0xbe903bc3bec31e6dU,
  0xbe3fa8d1be93af3bU, 0x3d666277be112d1bU, 0x3ea61d543ebe59ecU, 0x3ecd7f023e9a3180U,
  0x3e88e12b3e845f9aU, 0x3e8e96ce3ed353d1U, 0xbe41cf37be09f6c0U, 0xbeba53d3be4370e5U,
  0xbb12a3d2be0d7bfcU, 0xbe478ee4be34df34U, 0xbdc6c163be7214e7U, 0x3dab1a9b3d7beef1U,
  0xbeb6e343bcf73e1dU, 0xbe920834bea0bc32U, 0x3c8ce58cbe1b27f6U, 0x3e961e0a3dcdbee6U,
  0x3df248bc3e23cf52U, 0xbe3d759ebcae40a9U, 0xbdd4906fbe0db96eU, 0xbe49224ebe3d7e1fU,
  0x3e7a1e08bdbef7dbU, 0x3dcc08643e561ddfU, 0xbdf7f1503d9ae5abU, 0x3d754a7bbcec4c15U,
  0x3de5a1af3dd4a05aU, 0xbeefeae5bd9d1703U, 0xbeaf8075bf01be5bU, 0x3da973c2bd7b4f49U,
  0x3e2fa3dabd5f0b7dU, 0xbecdb04bbe5f6cd7U, 0xbd66684cbe9e2751U, 0xbd61b36dbd213f3bU,
  0x3e18d1913d8ddb25U, 0xbce0835f3e474cedU, 0xbed7b0c7be41755bU, 0xbefcf565becd7804U,
  0xbe6c18f6bef79c53U, 0x3d6ff2163dd5920bU, 0x3e3fa5533e344f97U, 0x3e5535163e8dc984U,
  0xbe8541e4bd93bf89U, 0xbf0384dbbec88d3eU, 0xbe016849bea58dd3U, 0x3ec668c33e91a547U,
  0xbe0b50633e9ecba2U, 0xbe739731bea465ceU, 0xbe123a1fbe1ef052U, 0x3d5f6bb8bd42da46U,
  0x3c2d8b36be111c56U, 0x3cc40a433e1ff62dU, 0xbe13c3c6bd246a7dU, 0x3bf76ac5be8b10b3U,
  0x3f4340173f635380U, 0x3e8ccf723f1c8507U, 0xbceeb2fcbda112c8U, 0xbeba06bcbcf729b9U,
  0xbf0cce29bef6ec4aU, 0xbf3082cfbf514175U, 0xbee3702bbf0e454cU, 0xbef9f93dbf017c22U,
  0x3e88a16c3d2e1987U, 0x3ebec04a3eb0f70fU, 0x3eaef4083eedacb7U, 0x3f18c34a3f0935e8U,
  0x3f0aafcb3f585b31U, 0x3ecd2b353ebdfe82U, 0xbc723fc33ee86c4cU, 0xbebb6829be8bec6dU,
  0xbe936fc1beae0529U, 0xbf5736cdbf1f1633U, 0xbf09877dbf4e73e6U, 0xbf0cadf2bf02799aU,
  0xbd939257be8a8b1aU, 0x3e3dd4fc3e53f1adU, 0x3e6efb883e14c882U, 0x3f3be8873f1cf839U,
  0x3f2e0e973f32594eU, 0x3ecfd9223f0485faU, 0x3e5322f93ee19321U, 0xbf207748bd781f8aU,
  0xbe2c74a8bf054718U, 0xbf2c8d36bea57b12U, 0xbeee8a16bf399d0dU, 0xbe2f4e3cbe8ad9d5U,
  0x3df9f276bcd66b4dU, 0x3e3677983eb79b42U, 0x3d8528d63e1be52cU, 0x3ebc69d83eb9f371U,
  0x3e2134ae3e9d5d03U, 0x3e51039f3e1b5019U, 0xbd7055f63d9f2613U, 0xbe12b63abdf0bb26U,
  0x3d81e5b73e36f4d9U, 0xbe118c7abe897ed6U, 0xbe362364be5f899bU, 0xbe93acedbd2b4217U,
  0xbde2eea4be0a0255U, 0x3d72295cbe803137U, 0x3eb6f8983d84a0f5U, 0x3ea5ad3d3ec505c2U,
  0x3eb008763eb378f4U, 0xbda223b93d4cf76eU, 0xbe8c6d15be389450U, 0xbeeeafb3be761dc9U,
  0xbedf0ab9be918561U, 0xbd6ee9a4bedc00f0U, 0x3e4861213e8a1efaU, 0x3edd77333e9e3f25U,
  0x3f21ab123ee52d0cU, 0x3e45c6ff3ee10cd5U, 0x3d41bb743d3f4b6cU, 0xbf0193c0be917978U,
  0xbf2b5c5dbef611f1U, 0xbf00094abf2afa52U, 0xbe790ecabea52034U, 0x3eed33fa3ddc42daU,
  0x3f3dcb7c3f056fffU, 0x3f2c200e3f480939U, 0x3a926f1c3ed21957U, 0xbe72fe8cbe26873aU,
  0xbf3d70a2bf164da2U, 0xbf1047c1bf4e0907U, 0xbed1b1a1bee551cfU, 0x3edb2498bd975071U,
  0x3f236c353f0b46f3U, 0x3eff9fa93edd3b4dU, 0x3e8843413f130df1U, 0xbe4ceb9e3c238156U,
  0xbeed929dbe94ce4cU, 0xbe8c8cfabec40ea5U, 0xbdbcecfcbea5f5b8U, 0x3ec0f8e93df1610aU,
  0xbeae7b54beaae858U, 0xbeb9a884be8cd740U, 0xbe23297cbe7d488aU, 0xbe66ea94be9c04b2U,
  0x3e122f563dd0b8aeU, 0x3e8398153e81fec8U, 0x3ee988753ec7b170U, 0x3f02a6fe3ec11396U,
  0x3ec08a403ec80b70U, 0x3ec2ca123eb01736U, 0x3e40f7fe3ea03832U, 0xbe198915bdd8bdcaU,
  0xbeb85761bd86fb65U, 0xbeed153ebeb9dd78U, 0xbe6d5ae2be941020U, 0xbf306833bf042d68U,
  0xbdf91fc6becad9d4U, 0xbe2bfddcbd3ead92U, 0x3dbd2df8be087f0cU, 0x3e6594723e416aaeU,
  0x3e9c09123e242341U, 0x3eb828bd3e9363f9U, 0x3ec16af83eae0390U, 0x3e98b0c73e77a82eU,
  0x3e8694ec3e45e40eU, 0x3da25f543e82357dU, 0xbe32b772bd236a98U, 0xbf0b2f90be813490U,
  0xbed3d0b9bf332943U, 0xbf375278be7b3a78U, 0xbeb4fa22bf2ac2e3U, 0xbebdf882bed2556cU,
  0x3e1fab5c3e042bc0U, 0x3e5d10993db30204U, 0x3eb290573e6282ccU, 0x3eb92e6a3ec62939U,
  0x3e70c6cf3e7e9d54U, 0x3ebb296d3ecf8e69U, 0xbda4e47bbd4afcdeU, 0x3d269005bcab62d1U,
  0xbe40cfd4bea4d63fU, 0xbe7f1502bdf91fc0U, 0xbe4c71b9bebefeb2U, 0xbd6a2c93bebd9861U,
  0xbd6d911cbcbf4997U, 0xbe247b6f3c1e15d1U, 0xbd0636ecbe122386U, 0x3e8955503be472b1U,
  0x3ea67cb03bf46af1U, 0x3edfc50e3e5ffe06U, 0x3e73d0093e61bcffU, 0x3ee872923e99d220U,
  0x3ef107483eb8a596U, 0x3eb0c2a73f026af8U, 0x3c12facd3e82cfcaU, 0xbd0c07a43c5a0c79U,
  0xbe333052bdbd3c08U, 0xbe601fbdbe2c19d8U, 0xbdef506abdeb6148U, 0x3e74d74b3e900aafU,
  0x3e93a6043edc813aU, 0x3deea69b3df57c31U, 0x3dfd2949bd798b18U, 0xbe128c653dd68eddU,
  0xbd3cf02abde983feU, 0x3e99b2ddbcb7e803U, 0x3e5906753ea1644aU, 0xbd2dc6d53e3e9a45U,
  0xbdc03552be09e9e4U, 0x3d69fca33dd08e72U, 0x3e06543a3f0125d4U, 0xbe0bfb383d0e0b50U,
  0x3d6d6570bc449a75U, 0x3e838f9d3e23a1e2U, 0x3db7c2073e4528d3U, 0x3e42d7953e5aaadcU,
  0x3e9944643dc34ce0U, 0x3e9c99dd3ddc27f2U, 0x3ea0a00a3dc35155U, 0x3ebce2623e8d3aa0U,
  0xbeec684bbefcfcbfU, 0x3e9b03a6be8e0005U, 0x3ef445693e6302daU, 0x3f0b56b73f005a5fU,
  0xbdd3dfa23d845f91U, 0xbde69e41be02fd90U, 0xbf15bd40bed875dbU, 0xbcbceef9be9aaae8U,
  0xbe64e9afbe2ada3cU, 0x3ead11d03d104a67U, 0x3f04cfad3ea70f10U, 0x3ea26e023f09d927U,
  0x3ddda5e93e2ff869U, 0xbebe48fbbdd107faU, 0xbf35e338bf19729cU, 0xbf26a94fbf6dda28U,
  0x3ea1e890be7e4b91U, 0x3f5508653f177ac3U, 0x3f7f7e433f81f815U, 0xbe20b63a3f0962c8U,
  0xbee162d9bedb271aU, 0xbf8626d6bf52d30cU, 0xbe8feeadbf22018cU, 0xbc4dc595bd5f611dU,
  0x3f80a4363eccd6b3U, 0x3f6b2cd03f7a9a3fU, 0x3e29a81d3f16ef5aU, 0xbf0907e1bec9fb1cU,
  0xbf520ca3bf473b7aU, 0xbf0f28ddbf7bbc95U, 0x3ea45a95bd6d7323U, 0x3f1306763f320660U,
  0x3f1c6cc73f1b623aU, 0x3e1c95ca3e8f59f3U, 0xbe904061bcda7edaU, 0xbf0586ddbef33f16U,
  0xbea7af9ebebfb6cfU, 0x3e29d0ddbe60a4c1U, 0x3e5df2743ea32d40U, 0x3e0574ac3de9890bU,
  0xbd7f84c53e6d630cU, 0x3d40edd5be589fe8U, 0x3e147c00be9df2e6U, 0xbe786b193cd88303U,
  0x3ecc24503e624c90U, 0xbb5ddb8dbe098e80U, 0x3ebd604c3e732118U, 0x3e0bd8f13cefe729U,
  0xbe2946bf3dbbdba4U, 0xbe05b988be55b9b8U, 0xbe7d43dfbdc56105U, 0xbdb7c6f4bef1abc4U,
  0xbd528beebbe3e832U, 0xbdf13c6dbed6f684U, 0xbe8360463f0746dcU, 0x3e87967bbc456e97U,
  0x3ea6cf7f3dbcaa03U, 0x3e1b718b3e28a155U, 0x3e82dd323e42c295U, 0x3e0277c73da744ccU,
  0x3e2c65743e9fadbfU, 0x3e4fa73f3db0b9d9U, 0xbeb5294bbedfac94U, 0xbf0dfef3becd1a30U,
  0xbf28803abf2b5bcaU, 0xbed4f4a0befbdddeU, 0xbe2b582fbe954425U, 0x3eda7b563d0ce438U,
  0x3f4494ff3eabe57cU, 0x3f1bd21d3f4859feU, 0x3f3f77ca3f60e029U, 0x3e56a4b43e83bbe6U,
  0xbf0f2696bd98f3deU, 0xbf7f66b3bf1f7daeU, 0xbf1dd26bbf4e6eddU, 0xbe9b635dbf7781c3U,
  0x3d10f192be336407U, 0x3ea72b4e3d9b9df4U, 0x3f1192913f380a17U, 0x3f22bbaa3f0b1e3aU,
  0x3d6b012e3d8da2ebU, 0x3e3aab1b3e33f6fcU, 0x3e877f5c3e973c82U, 0x3e6de2453ea2e041U,
  0x3ea877e93ec01613U, 0xbc84237a3dfe353cU, 0xbd2ce5223da7da17U, 0xbe27347dbc902dd8U,
  0xbf0f29c3bf043c57U, 0xbf0f51d7bf15ee91U, 0xbec3d3b1bee19532U, 0xbf3bb0f1bf14595bU,
  0xbdc013f1be7e6218U, 0xbe712204bdf9c84bU, 0x3dffb7143d501d62U, 0x3ec2ff5c3e72fbeaU,
  0x3ea877fc3ea031e8U, 0x3f0fbcbe3ef6c131U, 0x3f2a7e973f22607cU, 0x3ec67a283eebdf76U,
  0x3e9836bf3ece8d85U, 0x3ee0e2183ea26064U, 0xbe02c82b3ebf9833U, 0xbebd14aabe67c9e4U,
  0xbecfe6f4befd87a4U, 0xbf013688be7c9ba3U, 0xbf1982d2bf1fc2e3U, 0xbec0f882bebb10eeU,
  0xbefd23efbedf2503U, 0xbc582cdabe84245bU, 0xbd9ef8443d04971fU, 0x3b844b6dbd97a718U,
  0x3ec175813b8b8e6bU, 0x3e8dfba63ef30f30U, 0x3edb8e643e83d111U, 0x3ed6ec7c3f1956a5U,
  0x3ce2e17a3e1db815U, 0x3e627f883e62047aU, 0x3c04a17d3e13f5bbU, 0xbe96d522be8f302aU,
  0x3fabba8a3f46dcfeU, 0x4027224fc0bdb35aU, 0xc087c8da40b2eb83U, 0x40621bd8c05f4573U,
  0xbfb74d5f3ffe64b9U, 0x40a9f2f6c0929753U, 0xc0e9b5393fd8be99U, 0xbf4c485040bf72d7U,
  0xbff887dcc026331cU, 0xc0c4b88d4124621aU, 0x3ff3ca79c0c24a34U, 0xc08bb5314127b01dU,
  0xbf86a087c0b97bb8U, 0x3f84203640ab4c9dU, 0xc09d48cb3f745a8bU, 0xbc9b01693f1e968bU,
  0x40314a873fb2f364U, 0x3dbc061cc00d51fdU, 0x40b85729c0cc4867U, 0xc08d774f40ab8e68U,
  0xbf8ba7f1c0a129deU, 0xc12545cf4165acb1U, 0x409119eac0342564U, 0xbfe43a9b3f70b7ddU,
  0xc0f9d5d64021758dU, 0x408290c540b81f46U, 0x3f6b3e68c08b7415U, 0x408b7abec0c4d5e3U,
  0xbf189a7440b0502cU, 0x41102130c1395570U, 0x3d6deccebf48f25fU, 0x3ffc7f54bff974efU,
  0x40d1733bc037cb16U, 0xbf9549e3c1007bb6U, 0xc05dc488412d7e3bU, 0xbd58727fc0cd845aU,
  0x403ce6b5408f14d9U, 0xc098a3adc03de12aU, 0x40bc3e72400f65e7U, 0x3f9b0930c0b36b17U,
  0xbeadcaa73f4adbcbU, 0xbf2416cebe851000U, 0xbe45e59bbf17081cU, 0x3f2ee7af3ea30971U,
  0xbce330273efa033eU, 0xbf52ef7fbed7b565U, 0xbc2a7d9fbf37fa99U, 0x3f68da043de4ed85U,
  0x3e7559d83eaba6a1U, 0xbf21e948bf6af253U, 0x3e742524bf6558b9U, 0x3f21f7ac3e832dbeU,
  0xbdb6b6b83f05d120U, 0xbf195737beebfe43U, 0xbeac9a8fbf0bad34U, 0x3eacb1193e42a311U,
  0x3f0c91963f3c6eb3U, 0xbf3685adbdb72b8aU, 0xbf36fa83bf89c81bU, 0x3f4c314cbeacd23bU,
  0x3f6d59143f723827U, 0xbf357e143e1740b2U, 0xbf80568cbf9e4057U, 0x3f371879bf052c1cU,
  0x3f614d643fab0339U, 0xbf2f44703e6e7cd0U, 0xbf940b70bfc6be88U, 0x3f9c7cbbbeb52077U,
  0x3fa37a043fb13554U, 0xbf9c2791beb80210U, 0xbf7c1820bfd04134U, 0x3fae52b03f1b8492U,
  0x3ebc48273fc044ebU, 0xbfa6e323bf53bbd4U, 0xbef98e27bf3dd863U, 0x3f61aa153f97350aU,
  0xbe2aa0003f9293c5U, 0xbf854197bf1cc614U, 0x3dada36cbe27551fU, 0x3f4a634f3e62e256U,
  0x3d2a75393e9b1e78U, 0x3ebaf31bbe80aab7U, 0x3f5fbb0a3f917d5cU, 0x3e4813143f17f822U,
  0xbea1f96bbddc2436U, 0xbf1e2e19bf2fff68U, 0x3d9a47f5bf1d1063U, 0x3e83667f3ece95c6U,
  0xbdcb2ff1bdb20ea5U, 0xbef51774be802331U, 0xbefec230befbf727U, 0x3c93a8afbdc476f9U,
  0x3f7775cc3f004a68U, 0x3f8bf1703f82498aU, 0x3f2b84863f77f3e9U, 0xbe9981693e8c1db1U,
  0xbf572101bf76773fU, 0xbf8705aabf24ba91U, 0xbf3ca780bf800fddU, 0xbdba9a32be8664ffU,
  0x3ea5722b3dcedb80U, 0xbe232c783d221b24U, 0xbdb701d8be15a0bdU, 0xbe08c499bcc6d2bdU,
  0x3e69a6793de28424U, 0x3de260053dee457dU, 0x3e047a993eaf9347U, 0x3e0ae6613e96d9bdU,
  0xbf4aa043bed0ef6bU, 0xbd84a45bbef5a102U, 0x3ecc6b843e8d01e3U, 0xbcfca1f63de174eaU,
  0xbcdfe109bd939747U, 0x3f0b58e63e0553ffU, 0x3e29e8e83f1fc00cU, 0xbf1ff077beb58c7bU,
  0x3ecd3c1cbeb71b4fU, 0x3e8f09c93f06728eU, 0xbf0a6d2abe0200dcU, 0xbd8a0865beaf2ff8U,
  0xbe80393fbda9caa1U, 0x3e908ee3be866cc9U, 0x3e23e8743f07070bU, 0x3e1d94aebdd2c45aU,
  0xbe878ecc3e0734f1U, 0xbf11dcc9bf18be25U, 0x3ea8ff27becb8fabU, 0x3f2a3bd13f01358fU,
  0x3f17c6733f162ecdU, 0xbf25bb08be095a16U, 0xbf0f1661bf906137U, 0x3e272227bede9307U,
  0x3f65d92b3ea8122eU, 0x3f0801d93f7bf578U, 0xbea87aff3c46695dU, 0xbf857ca6bf21fbdcU,
  0xbe9beecfbf436a2eU, 0x3f006e443e58b66eU, 0x3f8bbd333f7ea90fU, 0x3dc08c543f6f4ffcU,
  0xbfc06b9abf92ef56U, 0xbefbe5dbbf9ee025U, 0x3f58d29d3c037da7U, 0x3fd1bea73fee9229U,
  0xbf26aeb93f30e6b0U, 0xbfdb3abdbf973949U, 0xbf027f16bf9e8706U, 0x3f862b4e3f321d18U,
  0x3f89b2073f9ae123U, 0xbf0e537f3ecab225U, 0xbf8c5104bf6f6b2fU, 0xbe958cf2bf3c7a86U,
  0x3f6640353f4b0ce2U, 0x3e65b9d63ec9c165U, 0xbe33f45d3eaacab7U, 0xbf08c552bf2f1ac4U,
  0xbb6981a7be266882U, 0x3eae4b423ddcf2e7U, 0x3d2023e53f0237c3U, 0xbe6b058bbe716af3U,
  0xbdc6a4d2be539d89U, 0xbe5acf4dbdf009c6U, 0xbe1c7405be1812fcU, 0xbcdd12aabde3220cU,
  0x3e3a07ac3db95df7U, 0x3e28054e3e35835aU, 0x3e61571c3e3daad6U, 0x3e7b34893e4aced0U,
  0x3d9e47333e1a55a9U, 0xbd925f483cd9a02eU, 0x3e103b0cbd04ed18U, 0xbc89ff4a3d6b6455U,
  0xbcd761723bdf1f52U, 0x3e61d61abce841a3U, 0x3d0cba023e67579cU, 0xbe16f162bdc9901eU,
  0xbeb4b6c6be000c10U, 0xbe951f83becff41fU, 0xbe5a4aa1be63c673U, 0x3cd98b403c99b9aaU,
  0xbe44c1fbbd75c717U, 0xbec7d213beb4b23cU, 0xbda263b5bdb78c07U, 0xbe33d316be00e076U,
  0xbcbda041bdf97dabU, 0xbca5f021bd435fe3U, 0x3e837c5b3e4f2ce7U, 0x3e3fe1673e1a1cc5U,
  0x3e942f6e3e0e63edU, 0x3ec1f6c33ef26cf3U, 0x3edbd8fe3eff3ed3U, 0x3e1977e43ebcf845U,
  0x3e109a31bd01f1f4U, 0xbd5ffbc53d511e7eU, 0x3c5c284d3dcbf840U, 0xbd9e9283bde84352U,
  0xbc9c3e7bbd47afc8U, 0xbea69553bece6468U, 0xbc222919bd056237U, 0xbe1b3e73bded56bfU,
  0xbcf7f505bce3a890U, 0xbd6d84b23d3ce9b5U, 0xbd5386c23bd4f151U, 0x3e2da4f43be30f88U,
  0x3e12b2d33e882106U, 0x3d180a49bd0e7598U, 0x399653993da46d26U, 0x3ea3415c3e44d310U,
  0x3eaa7cd73ebcafaeU, 0x3dfe32c53e680a7bU, 0x3efcee403e3a636aU, 0x3ea0b08e3ede8f0fU,
  0x3e78edd13ed11bbbU, 0x3f0a7b163eeb3a94U, 0x3ec9a9ad3edcf0aaU, 0x3eabbe1e3ee8ee84U,
  0x3e432ff73e951b25U, 0x3dca8ff23d6eb1bcU, 0x3d05e22d3e28a21eU, 0xbe17b3f0bcee5bc5U,
  0xbeddacfebe97bf59U, 0xbee019a1bea34277U, 0xbf1a5daabed3d3caU, 0xbed7f39dbefbcf97U,
  0xbf0a404cbf16c913U, 0xbf091875bf12dd02U, 0xbef5871cbe9a352eU, 0xbe941d28bf05ba6eU,
  0xbea69ca1be8c3f4bU, 0xbe8af93cbe45850cU, 0xbe7f3533be8b0ea1U, 0x3d2ed7d4bdf53e3cU,
  0x3df079e73d034e91U, 0xbcb90c703e426e32U, 0x3e26d86b3e045854U, 0x3ee898253e273230U,
  0x3e9ccc953ebfc099U, 0x3dd215cd3e5d27c5U, 0x3ed9bfd13e7213ddU, 0x3ecf82363ebcd7a8U,
  0xbd25f7803f07132eU, 0xbe99a579bda555b7U, 0xbef3b997bf12d0b3U, 0xbeb1bea7bef7eb96U,
  0x3da4169dbdee2167U, 0x3f1aafaa3ee11487U, 0x3ef821303f11df05U, 0x3ee080dc3f427ffdU,
  0xbe9e1fca3e13738aU, 0xbf1b0286bf112097U, 0xbf10f02fbf893f57U, 0xbeb5a693bf2146e1U,
  0x3e2f35e03d79bac0U, 0x3f3018733ec1d037U, 0x3f39c5333f5a247aU, 0x3f0341b23f4f1e64U,
  0xbebc979f3e599224U, 0xbf52f46ebf198073U, 0xbef6c79abf7ad5fdU, 0xbf1114bcbef7bbbdU,
  0x3e1280acbe6225a3U, 0x3f1b5e723ec155b5U, 0x3f508f513f215899U, 0x3f282b5b3f66d2d6U,
  0x3d19c51e3e3d49d0U, 0xbeff332cbe90f1c3U, 0xbf3e136fbf6c306fU, 0xbf000ee3bf5d3211U,
  0x3cc08d95bd9f658fU, 0x3f14359c3ebb5f0fU, 0x3f2d56b03f21f469U, 0x3ed582443ef94c46U,
  0x3e675ae83e3b14b5U, 0xbe8dbb20bd7523d5U, 0xbebf481dbed3eb50U, 0xbe717e05bf001bb6U,
  0x398fb1f5bd7a9fa9U, 0x3e94e0cbbe0c7300U, 0x3e80fdba3e884503U, 0x3e4c975b3eb4b551U,
  0x3fa21396bf874a4eU, 0xbd326c463f9d783fU, 0xbfb75f7cc022e6aeU, 0x4052415f3fa2f26aU,
  0xbff753e53f687983U, 0xbe927927c049cab7U, 0x3fdcbc6b401202c4U, 0xbfb0077ebeacb831U,
  0x3f0cb570beb3862fU, 0xbe88bb633ef08ac2U, 0xbf295d25bf124023U, 0x3fba5bc53f0af346U,
  0xbf4573bf3fb2ef81U, 0xc0199803c0435044U, 0x409cde183fa9daa5U, 0xc0178671402ff26cU,
  0xc024d9a8c0b7d0dfU, 0x40b3882e404b9d74U, 0xc03e03a63ff4d8c2U, 0xbff92cc1c0911dc5U,
  0x4067dfff3ff2d887U, 0xbe55b4274012a169U, 0xc051ea8ec048967fU, 0x4051527bbf5615efU,
  0x3fb051a84067a6acU, 0xc07979d1c04c65c5U, 0x4038ba02bf4c7bdeU, 0x3ed7d2174059751aU,
  0xc0185356c04055dcU, 0x400822ec3f3add5cU, 0xbf98564f3f86d252U, 0x3da0483bbf869055U,
  0xbd91c0b73f7a3be0U, 0xbed42d55bf825322U, 0x3f9402193fb2b72aU, 0xbff20400bf4b8d70U,
  0x3fac9eb7bebc8a72U, 0xbf28d4043fe2be67U, 0xbeeda832bfa61614U, 0x3e58e1d43f338c67U,
  0xbdfdfac93d854415U, 0xbe745b0abe80260bU, 0xbdba1234be79f338U, 0x3d254e343da49cdaU,
  0xbe6138f0bdac493bU, 0x3d3d6972be173552U, 0x3d58239a3dcad851U, 0xbd5d7bc23cbb7058U,
  0xbde72a9ebdf8d831U, 0xbddd508dbe54a407U, 0x3ded9a853c9464b7U, 0x3dad1ac23d40662bU,
  0x3ee0e2053e98b6d3U, 0x3de040383e99a42eU, 0x3da2172e3d3300eaU, 0x3e1e3e083e1d651dU,
  0x3e4623653e350063U, 0xbe1fded43de1fcaeU, 0xbead2051be92feffU, 0xbe0eaa10be8f2e38U,
  0xbe1fb21bbd41369bU, 0xbeb76b23bec4d629U, 0xbceacb78be20f8b7U, 0xbcdcceefbb03b17aU,
  0xbd8f391cbd883694U, 0xbe001971bda906fbU, 0xbd61a9d9bd766ee4U, 0x3e3bae9c3d48d424U,
  0x3d5e25e03d8b0066U, 0x3e332dea3d8a2cdaU, 0xbc8f70b13e1f512cU, 0x3e19c059bc2702e2U,
  0x3e5928703e562d26U, 0x3e4ca5983dd16356U, 0x3d951b9e3e7b30b5U, 0x3c9bea75bc1a2765U,
  0xbdc4e63ebe49d4ccU, 0xbdb4c649be228f78U, 0xbe9c3e59be347266U, 0xbe58721bbec3a9fbU,
  0x3db25a71bed0259bU, 0x3e9e59863e1dd29eU, 0xbe15ad4ebd9aa542U, 0x3d97cc433e095397U,
  0xbe9e2a34bd9dfa3aU, 0xbeb2755ebe8270baU, 0x3f24f3b13dfa94e5U, 0x3f0b1ac23f75ea12U,
  0xbf90f04abf08bcb7U, 0xbecd80aabfb03d0eU, 0x3f8c99743ea5482aU, 0x3fbd0ae13fba482fU,
  0xbfb662d33d839594U, 0xbf9dc859c016ff1dU, 0x3fa851d0bcaa83a2U, 0x3fcf947b3fd70d70U,
  0xbf1132ec3ef08ee2U, 0xbfc8e34fbfc4b6eeU, 0x3ec04489bf9186a3U, 0x3fbfc0383f954604U,
  0x3e8ff35b3f83d903U, 0xbf4c01bfbed59592U, 0xbf917917bfa70268U, 0x3f478b06bd488bb5U,
  0x3f8c06dd3f7ed1c1U, 0x3e165f5a3f535c54U, 0xbf6c7bfbbf7207b3U, 0xbf28f0a7bf6fcc4dU,
  0x3f7db603bdd2fe0bU, 0x3f86c0153fd1e76fU, 0xbf6349253e535c48U, 0xbfa14e44bf9a05acU,
  0x3f046dd1bec94061U, 0x3f83c0c03fa65416U, 0xbefdcc643ec19f35U, 0xbf38b466bf56d5c1U,
  0x3e796459be1796feU, 0x3eed31573f1226c1U, 0xbeb98e853e5ae4efU, 0xbc891e9ebe864d62U,
  0x3d0d7887be78a7b6U, 0x3d981c983e02dd68U, 0xbe3523eebdea8b5cU, 0xbe0b10eebb9a32d8U,
  0x3d1b350cbcbaeb80U, 0xbdc2a1f3bdbdb697U, 0x3ca5cc15bd4ebb9aU, 0x3dd1a4203acd91a4U,
  0x3eaa84aa3e68828fU, 0x3e3baa6c3e8f0167U, 0x3e6c90a13e1fe111U, 0xbde8d153be0a03b2U,
  0xbdeebe7ebe1b6a0eU, 0xbe85526dbeaa3ea5U, 0xbe301f43be1879bdU, 0xbcda6ddabd3fb64aU,
  0x3d3d90123d839dc4U, 0x3eb030b33e948aacU, 0x3e7e1cd13eaa7ecbU, 0x3e894e213e463a6fU,
  0xbd7bd4eb3e270a38U, 0xbec82f59be90ab33U, 0xbf1b4f95bef21df6U, 0xbecc2b1bbebb3061U,
  0xbdf4df93be9cc80aU, 0x3efe4dfe3e5de559U, 0x3ec8981d3e7f6768U, 0x3f1317bb3ed1127aU,
  0x3eb788383f1d8af7U, 0xbea7469f3c199ba7U, 0xbf28d29dbed0cb9eU, 0xbe9e2139bf14ba68U,
  0xbe8f69e1beac1868U, 0xbcd4a5adbd24eb6bU, 0x3eef67163d018f13U, 0x3f09cd8e3ecfa123U,
  0x3e7b21643e586c12U, 0xbd2c733dbc577affU, 0xbdb5fc03be3bde67U, 0xbe73a152bdde0b4eU,
  0x3f12f78e3f4f674eU, 0x3f3652bd3f21f297U, 0xbe2264a13ebede69U, 0xbeb7cb6dbea01558U,
  0xbdf15582bf295763U, 0x3d8d85f23e19eb09U, 0x3d7e90923e275114U, 0xbe4a5e2ebd822fd8U,
  0x3e402bebbeafa399U, 0xbd488ef63d3cf264U, 0x3d3263ae3d6dff6dU, 0xbdeb3f983e1729a9U,
  0x3e27dbe93dfd18c3U, 0x3e4171e13e50d94cU, 0x3e9a79253eb8f3d6U, 0x3e012e4c3e66e9ccU,
  0x3dfdfa533d65425aU, 0xbe3e4f833e2e4810U, 0x3d676c783db8b2f3U, 0xbd3f17e7be105b0aU,
  0xbec6e27f3d941cd4U, 0x3c6e91ffbe8fb177U, 0xbdc52705be1efbffU, 0x3d45c8f13ead34fbU,
  0x3c6778dfbe1e0f75U, 0x3d4a95813ec88ec2U, 0x3e8a8f5fbe87dfe3U, 0x3d993393be10d7aaU,
  0xbd0111d5bce5ae36U, 0xbd9d71df3d2beef7U, 0xbe5881c33ca75c6aU, 0x3cfe451c3e17c01dU,
  0x3e1e72623ecd1bf6U, 0x3e191f6dbe8ee2e5U, 0xbd35f0e23d286081U, 0xbdaf809c3e541283U,
  0xbdae157bbdf41df5U, 0xbdee22dbbe004635U, 0xbe37d92ebf0f86d9U, 0xbf0f2a9dbd4856ccU,
  0xbf8413b3be946db9U, 0x4002148c3dafe134U, 0xbfb2bd1e3fcb769fU, 0xbf3329f7c0455ad2U,
  0x3ff892d64008867dU, 0xbf71d448be81c948U, 0x3da2c57abf20ce8cU, 0xbda47d9fbe4ddec2U,
  0x3f7091823e19a725U, 0xbf1798cc3beeb966U, 0x3f694dd4bf2103c9U, 0xbf40325a3f13dc46U,
  0xbea908d7c006fdb5U, 0x404b24484033982bU, 0xc081dccbbeae9030U, 0x3e9fb2a7c0660640U,
  0x406cf88d40839401U, 0xc05dab14be879a21U, 0xbd53f3adc02dcceeU, 0x3fb21ef53fe25a5dU,
  0x3f1c40dd3e43ffa2U, 0xbfd007253e00ffa9U, 0xbe62ee6abfee4af9U, 0x3fdf72c83fc41334U,
  0xbf22565d3f002f4bU, 0xbfa548ecbf7aabaaU, 0x3ee51c91bef633f7U, 0x3fa31f963fd04273U,
  0xbf95adc1be8420b5U, 0xbe4069babf880833U, 0x3f0eae673e47939dU, 0x3f1cde3d3f28dcd0U,
  0xbf68a880bc9e53a4U, 0x3ed64df7bfb0ecf3U, 0x3e57fc013fa2ea44U, 0xbdd4e987bf8e4ae6U,
  0x3f6617a83f9f0095U, 0xbfe53776bfa2f5ddU, 0x3fa930b83eec78c7U, 0xbf6ad3813f190676U,
  0xbd264bd4be19fdc3U, 0xbce012c6be01dbdcU, 0x3d0292443dfa39d4U, 0x3df811893b6e41bbU,
  0x3ec5cc843ea2df7cU, 0x3e998bb53ebb3350U, 0x3b1941913d9946e8U, 0x3e283b483e09f466U,
  0x3de875c73d87dc62U, 0x3cc2b04a3e9fccf2U, 0xbec1978ebe847adaU, 0xbefbb310be7067a6U,
  0x3ccd2830be88d127U, 0xbed61149be2cbb1eU, 0xbe0b6017be4ddb7bU, 0xbf2ce310bee74166U,
  0xbf156274bf4ba4bbU, 0xbe998f85be8d39d0U, 0xbdd926b1be9308deU, 0x3f03409f3e94d31aU,
  0x3a47500c3e56c97aU, 0x3dc983373d0b7998U, 0x3e2f49cc3e57519cU, 0x3ec2271d3e8ccc16U,
  0x3f5de75d3eca8da2U, 0x3e3825df3f2d6dfbU, 0x3ea696f33e27df5eU, 0x3e78b6fe3e9662eeU,
  0x3e03cc393e1cbc6cU, 0xbd6222223ddb6d5eU, 0x3d101cefb981579eU, 0xbf00e62abe3921cbU,
  0xbd8d2bc6be89d84dU, 0xbeb9331bbe9e94daU, 0xbe6312f3bd8eb63cU, 0xbdd4b473be803dfaU,
  0x3d7291b93df95384U, 0xbeb7397cbe40a370U, 0xbcce5949bde76391U, 0xbe54b300be2c83d2U,
  0x3e23423a3da0cf77U, 0x3c53a40abc46d224U, 0xbec11e4a3d4dab16U, 0xbf23d216bed4d238U,
  0xbf153c3fbef7d6e5U, 0xbe4d53f8beeb1d01U, 0xbe747ee3be5896c0U, 0xbb53e274bdfaa908U,
  0x3e86a163be477f92U, 0x3ef0fbb43f4921ecU, 0x3f0bcee73f248eabU, 0x3db4901f3eb64b06U,
  0x3d67772b3d27ba70U, 0xbecf1bd2be965ceeU, 0xbebe09e3be8e9062U, 0xbeb09691bee04efbU,
  0xbe134860be5cc8ffU, 0x3f08fc173ecd47d2U, 0x3e5799c93ebf5249U, 0x3e54cd503e326515U,
  0x3e0d37673e3a18b5U, 0xbca5ef7c3e060fecU, 0x38d7106f3d5f81daU, 0x3dee89973e3addf3U,
  0x3eb8ee013e164da1U, 0x3b1da3993e231ce0U, 0x3e15515f3e06cce3U, 0xbe782d3bbd942b4eU,
  0xbe92988abe701630U, 0xbd4706bebe241867U, 0xbdeab8373e066b70U, 0xbda17d86bd3d2d5dU,
  0x3ca988c0be2122d2U, 0xbe4903d93c5d8683U, 0xba8b33c3be37701cU, 0xbe804de2be55fd38U,
  0xbe4947c4be14561cU, 0xbe6d070abe835350U, 0xbdacc01fbe366cdcU, 0x3ddc99c0bdbdd709U,
  0x3d16a0ebbeae3e42U, 0x3e5d32d23df5a3ecU, 0x3e6e79783e42d68eU, 0x3d59cfb73e67369fU,
  0xbeb886d4bee0bb0bU, 0xbe6b4d5dbee546b0U, 0x3e1f153fbda8d89cU, 0x3f2ccd1b3ea4f8b7U,
  0x3f5354a23f6a4517U, 0xbeea203d3d9b52a0U, 0xbf44bbf3bf1b57efU, 0xbf197cb2bf40ee0bU,
  0x3ebf8955be0be373U, 0x3f394e1b3f1b9b30U, 0x3f3420903f34785eU, 0xbec88c713e275b9fU,
  0xbf503f1cbf0247e0U, 0xbeae4033bf43dc2eU, 0x3f09550a3da77900U, 0x3f1c7ff03f22512cU,
  0x3e33f8833eebd103U, 0xbd2dab41bd7455deU, 0xbee81ca7be5885e2U, 0xbf2e7947bf53ab4cU,
  0x3e50d248bda815dfU, 0x3f4bc5793f17f1fdU, 0x3e6967f53eedaca3U, 0x3aac059dbdd934a6U,
  0xbe90d5b7bb7bc710U, 0xbecef41fbf048c4cU, 0xbdb9fba8bea3d812U, 0x3ee6367f3ea09454U,
  0x3e826b7b3ec6dd95U, 0x3d0105163d963697U, 0xbe6add2bbd17b355U, 0xbe8e24f9be47f6b2U,
  0xbe76fffbbe8be635U, 0x3e9a39f83ca571c7U, 0x3ec601993eaeb21aU, 0xbe2f20f63da72d8eU,
  0xbf067eb4bf0a7e78U, 0xbe7761ffbee3f7abU, 0x3dd0f2e0bd88d2b0U, 0x3f021f2b3ea710b0U,
  0x3f36a0933f22d838U, 0x3e7daf223ed8b6f8U, 0x38e364ac3d882a66U, 0xbf261e8cbdc9254bU,
  0xbf39d274bf4afe67U, 0xbf2614bdbf41eb90U, 0x3edea2dfbe79e91bU, 0x3f6b5dfe3edf2112U,
  0x3f6711b03f8d374bU, 0x3e9577023f23b87aU, 0xbee22eda3d09075bU, 0xbf71b870bf3c846fU,
  0xbf38f3e2bf5e3eb3U, 0x3d3b8ddcbf06a011U, 0x3eba75693d90d467U, 0x3f5328ca3ec58110U,
  0x3f37e3553f58f1d4U, 0x3eeb74213f03e49fU, 0xbf0326fabe81b4f3U, 0xbf44ebd4bf2796e3U,
  0xbf66da74bf7fb823U, 0x3d25d35ebe374538U, 0x3eb9f9acbc6912b2U, 0x3f3fab543f14dfe8U,
  0x3f28dc9c3f49ef69U, 0x3e3cc9883f098a98U, 0xbeb8ac66bda7f0a3U, 0xbf487303bf429300U,
  0xbeeff3f7bf31164cU, 0xbd7a418dbec323e7U, 0x3ebf2ec83eb3d3e2U, 0x3f35e4393eebe815U,
  0x3f0ee2c13eaa206bU, 0xbddd8a773ea5b0e5U, 0xbeb410adbea7bc4cU, 0xbf57c4dcbea2016dU,
  0x3e1333613defdc06U, 0x3e32bcf03e73281eU, 0x3dbc89973e245829U, 0x3eaeeab33e996137U,
  0x3d0acedd3e88beb0U, 0x3e2179993dc8a219U, 0x3e8eb9f93e522324U, 0xbe3b62c53da3025cU,
  0xbe132915be18a74aU, 0x3dc901dbbcc6a5d1U, 0xbe271c47bd8a3d2eU, 0xbea9d10abe746ed6U,
  0xbed2cc21be875cd9U, 0xbeb7a2b7bedcf891U, 0xbe05c338be152529U, 0xbe09f95dbea3edf7U,
  0x3db26743be0871ccU, 0xbb94e5433de896ccU, 0x3e7c134e3e4306e0U, 0x3e657e303e9ec77eU,
  0x3e4cd3f13cb1b13bU, 0x3ecd77423eb9d084U, 0x3eb5ef603eddb578U, 0x3f0455993ef4f218U,
  0x3e94cb8a3e99df1fU, 0xbded5bec3dc6e8bcU, 0xbd95646bba96f5a4U, 0xbec2aa4fbe2f9b35U,
  0xbf032e5cbeda2c5bU, 0xbea9c9a2beb091c1U, 0xbe481edfbe46dae7U, 0xbc890697bdddd81bU,
  0x3c4d8ee3be11a630U, 0xbf06b226be99aaceU, 0x3d1de4aebe7ee644U, 0x3e47c3e73e1f3cb8U,
  0xbd74951c3e87730fU, 0x3e8c12cfbd876485U, 0x3ef564533ed8cf07U, 0x3f2b68193f161b70U,
  0x3ebcdcce3ea4d7d7U, 0x3f02741fbe7cfd68U, 0xbeef4b28bda05729U, 0xbda054d83e67ce72U,
  0xbdad6ab5bf4039c7U, 0x3e1e52fbbf1b6d67U, 0xbcd11b00bede05a3U, 0x3f15ad723cba416cU,
  0x3eab20cd3d94b0caU, 0x3e9704793f811ba3U, 0x3ef66e4cbe0fea49U, 0xbeaa92a03e06f35aU,
  0xbef3d93bbee2eb80U, 0xbf727e2fbf24cd50U, 0xbe3a5f6dbea80579U, 0x3e5626003dfc05f4U,
  0x3ec143ad3f09e4f9U, 0x3ec7e4fc3f1a7cb1U, 0x3eaa85ac3f32d7a5U, 0x3d1c72db3db48a92U,
  0xbee3eed0bebfa1b0U, 0xbf998988be047be1U, 0x3e3fefe3bf064048U, 0xbe79fa37be99bef3U,
  0x3f3acb543f1f1b88U, 0x3f07bb60be4058caU, 0x3d739a2f3f4d1fd3U, 0x3f2f47fabead852aU,
  0xbe02cb53beb0bb3bU, 0x3e923e16be567fd2U, 0xbf120b4cbf179982U, 0x3e29075c3da74c31U,
  0x3dd6b917be9b82e1U, 0x3d4c38473f0f6a51U, 0xbd5509d53de075d2U, 0xbead52bf3f1a0488U,
  0xbdc1e637bd37287dU, 0xbef86d18be3a62f2U, 0xbe7f8e763dcf958cU, 0x3e6cd64ebc6a69b5U,
  0xbe70f74fbe67a8bbU, 0x3dceb3bdbe7052feU, 0x3ee86a403e12dfd6U, 0x3f0946b63ed68753U,
  0xbe36a96e3e275fefU, 0xbebdcb5bbead93fdU, 0xbf264732bf1f9627U, 0xbdcaad39beb25264U,
  0x3ec864fd3df123eaU, 0x3f0ebca13f12140bU, 0x3ed8b5443ed77120U, 0xbe9b29e63e3e6342U,
  0xbf49729abf2ecc1cU, 0xbea89260bef6748aU, 0x3d7b515ebe8f65d9U, 0x3f2dac7d3ef947b1U,
  0x3f3cc0b43f2c0a1bU, 0x3d513fdd3f056728U, 0xbf01b79fbf0033caU, 0xbed10c23bebe3e7bU,
  0xbeaf7c51bf01747cU, 0x3e6311163c2c9d24U, 0x3ec236ab3e9282b8U, 0x3f1b8bb53f173829U,
  0x3e7fa3a63ebf7408U, 0xbe85f00fbdce9d74U, 0xbf142f09bf0d9fd2U, 0xbe368009bf247addU,
  0x3eb6c8073d2b5274U, 0x3e8ff6833e9777d0U, 0x3ecc87413efa2a8cU, 0xbe26ed5e3e4373a9U,
  0xbeb3b9e0be950421U, 0xbecb0127beedae67U, 0x3b6bf1d8be534b3cU, 0xbd9a6d74bd930a75U,
  0x3edb834e3e27300fU, 0x3e7ec6ab3ee75e08U, 0xbe5566123daa1306U, 0xbe130fe2be81bce4U,
  0xbf3277fdbe66dbeaU, 0x3f5c979abec818a3U, 0x3f83814d3fbef1c1U, 0xbfd22278bf25191eU,
  0xbf2e21dbbfe83caaU, 0x3ffed8f03f6e4c99U, 0x3ec5c7153fdc4b2bU, 0xbfd75688bf90acd5U,
  0xbf50f8e2bf9d5353U, 0x3fd152693ebd15c8U, 0x3f82ccba4021b720U, 0xc01b9875bf98b498U,
  0xbee452aabfe1c277U, 0x3fd903313f890996U, 0x3f2b94b63fce9af4U, 0xbf98f5e4bf19efbeU,
  0xbf9d0c7bbfd40cddU, 0x3fb47a69be6e7057U, 0x3fc709994019ccd1U, 0xc003e1fcbe680a50U,
  0xbf76a979c00169ccU, 0x3f86d80d3f2464c3U, 0x3fb5d5273feead3eU, 0xbff055bebdd66114U,
  0xbf7fa301c02b2494U, 0x4022dc6c3f96dffeU, 0x3e5a68493fd460c7U, 0xbfe2adf9bfd1c069U,
  0x3f480be4bfa1a3b9U, 0x3fb784953fc5f3e4U, 0xbf6f49a03cec7ad0U, 0xbf28c644bfcd713aU,
  0x3fc51ee73f325a25U, 0xbec6bbba3f951525U, 0xbfc69d57bfc8a6e5U, 0x3fdef6753db7e8ebU,
  0xbe1a7fe33fc6e0aaU, 0xbf8d5df6bfb9d774U, 0x3f465e093eb67b4cU, 0xbf0128cb3ee25ad5U,
  0xbe9d41643e500a9fU, 0x3b7553493b80aafdU, 0xbbe7859f3d5f6d46U, 0xbd95f8463e1004c7U,
  0x3c83c961bb927873U, 0x3aa980a53e9504a2U, 0xbf924877b9b9b158U, 0x3d9f37a13d7f7709U,
  0xbc2cfa6b3c8d74b8U, 0x3e0f4afd3aaf8bb8U, 0xbb89c41a3c9b7723U, 0xba856a88b9c31c58U,
  0x3c4e42d43df7e524U, 0xbc4e0c353ea843bdU, 0x3abfc7fe3e6490e3U, 0xbbca8e773da9f82cU,
  0xbcff0406bc567654U, 0xbc602d0bbc903057U, 0xbcb54ec83d3f3d46U, 0xbd0fe6913c78d31eU,
  0x3dadd0d6bd5d30caU, 0xbe7706cd3cb6b76eU, 0xbd3a20f5bc363aceU, 0xbcbe02a13cb98798U,
  0x3af72660bca73b6bU, 0xbb374c8f3c91e023U, 0xbbba03a83c986feaU, 0x3c18231dbc859fbeU,
  0xbd0688eebcd20712U, 0xbbf64f14bd02b3c4U, 0xbdb285c8bb958628U, 0x3d294bf1bcfd7320U,
  0xbc97a2353bf67238U, 0xbce82e533cfb242bU, 0x3d8f32b03cd3c662U, 0xbd06667c3d0838f8U,
  0xbc422a3cbc7de1edU, 0xbea623693cf3e208U, 0xbc7b5fdcbc82bc54U, 0xbb2f707fbacb7210U,
  0x3ba69ace3d03b6c5U, 0xbc23f25abc908c18U, 0x3d19d306bbf62df2U, 0x3cc6797c3cc5d4f0U,
  0x3cb8451a3c30cc40U, 0xbcf9c9903c7488faU, 0xbcfbc1143d24663fU, 0xbb6b0efcbc6e3306U,
  0xbc9496bebcbe4676U, 0xbc22d323bcd7ca39U, 0xbcd57dc3bd24baffU, 0xbce483edbd21d81bU,
  0xbd09b2493b872f95U, 0xbe8d683ebc133a39U, 0xbd176b97bb881c29U, 0xbbf9522bbbeb9677U,
  0xbd5e6e7d3ac24db8U, 0x3bf0eb2ebd8c0222U, 0xba433c653bc2b656U, 0xbc9530fcbcfd63f5U,
  0xbd73fe0e3b67111eU, 0xbd76dcfa38ac8084U, 0xbd743fb73c9e68c3U, 0x3bd82af1bd2a85e2U,
  0xbca535c33d077bc1U, 0xbc8f69053d30040fU, 0x3c843af43d10e798U, 0x3c05a4f23c01d680U,
  0x3c371d92bbc8e77fU, 0xbe413d903b727f13U, 0xbd04f1aabd640cc7U, 0xbb84d3743d35b01cU,
  0x3bcc170cbc7b247fU, 0x3bd14b69be32e502U, 0x3c8051bd3b5f1170U, 0xbd821a613cf1b0b0U,
  0x3b9b3f923c3218c4U, 0xbc1153b03a6884e4U, 0xbafcf2303c8dea61U, 0xbc575448bcbc6fb2U,
  0xbd1463de3c2f5adfU, 0xbbfc730b3cac4f63U, 0x3c0313343cb2bfccU, 0xbd14339e3c848140U,
  0x3c45fab4bcb6dd16U, 0xbe6d49df3cd3e2d3U, 0xbd4f5795bbea9f73U, 0xb7f74b633ca61ad2U,
  0xbb89a11f3b022123U, 0xbc746428be22e721U, 0xbc487f1c3d5f7069U, 0xbdc0313abc9d5930U,
  0x3c6703893cf1161fU, 0xbc4c491cbc485899U, 0x3a6e469f3bb33adeU, 0xbcbf18793c9c2716U,
  0xbcfcddbc3c669df2U, 0xbc7e081abc292c20U, 0x3c05ca1cbbbc4291U, 0x3c96ae7c3c540ed4U,
  0xbcd225d83bd6280eU, 0xbe449c01bb8c5546U, 0xbd3edeab3d4ada41U, 0x3d0b6812b9cdb830U,
  0xba5c4ef93d13bf7bU, 0xbb4e2e74be0ddbabU, 0x3b77bb913c9d967bU, 0xbce27346bcc1c940U,
  0x3c8e8762bb2b759bU, 0x3c59d3a33cade9e9U, 0xbac1a9f53cb94ae5U, 0x3d620c453c325a13U,
  0xbd4b3287bca3dbe0U, 0xbcd34c6ebd0fb824U, 0xbd91e2cd3a3bb62dU, 0xbc20d9143cbf2f83U,
  0xbad4df43bd024890U, 0xbbd8d1f13d4a00b2U, 0xbd9b39babd20fab3U, 0x3c5335ceb9dacda3U,
  0xbe03be333d1eed2fU, 0xbd3f6a22ba9bc2a6U, 0xbd8565113cb3138aU, 0xbcf1e5cf3c593aefU,
  0x3c43f1193c458467U, 0xbe058277bd1abeacU, 0xbdcaaa7f3d24c02cU, 0x3d118141bbd9315bU,
  0xbd202f183d2124faU, 0xbc0d79fdbba833dfU, 0xbd6ced57bc1c5939U, 0xbd11115c3c4d4f6bU,
  0xbcd7a82abcbd6e1fU, 0xbb0d258b3d307150U, 0xbd6272ae3c2a3e60U, 0x3c63a4343c1cfcc5U,
  0xbdeb6146bb57bdf0U, 0x3c8ae6343d528821U, 0xbd03d8bbbd57a4bcU, 0xbb08c2b3bcdb1910U,
  0xbd0e54b73ced8c99U, 0xbdc795ccbc0267c6U, 0xbd809f313d380918U, 0x3c90e13fbd50047bU,
  0xbd646d0c3bdfc0acU, 0x3d0752eebccf22f1U, 0xbda2c9623b9c0f03U, 0xbd06d92339867193U,
  0xbd109357bd253ac3U, 0x3b9967ee3b19da79U, 0xbd6ad50a3d456254U, 0xbc4929973cf69a5cU,
  0xbdaa589bbc2c9979U, 0x3cb7e47b3cf0329dU, 0xbd82da4b3da67279U, 0x3ccc89e5bcc997f0U,
  0xbd2b18a53cde2eceU, 0xbda1118e3ce20818U, 0xbd44cb913ad40b54U, 0x3d0d2ef73c51b33fU,
  0xbc5d79573c99b06fU, 0x3dbc20773e03909fU, 0x3d4840a13d34cf50U, 0x3dbe58533e1e3d02U,
  0x3dc8f89c3c0baf9cU, 0xbc589f673d97dc48U, 0x3b47e51f3d6d202dU, 0x3dc2f5b93da807e8U,
  0x3dac35c03d82469aU, 0x3d641a113c50d719U, 0x3de87f4c3d8789ceU, 0x3c967f493dcf4610U,
  0x3e0d83dc3d870df9U, 0x3dd3a32d3d5a12a0U, 0x3d915bf43d1ed191U, 0x3d2d53da3c6b81a7U,
  0xbced40f0bd89a1c6U, 0xbc45427ebcde38dbU, 0xbd10ce503b55cdc8U, 0x3d3a74473d002de0U,
  0xbd92f8c1bd9cbe6dU, 0x3d1b06503d83b2f9U, 0xbcc4b22f3cddbf0aU, 0x3c772378bd4bbc04U,
  0xbc955e003cc84171U, 0xbcfc5e80bb1f78e3U, 0x3cb72a22bb7a36b6U, 0xbd795e503da2cd6fU,
  0x3d4d4d3bbc8c38ebU, 0xbd6bd78fbdb78addU, 0x3cc4b6e0bc1063d9U, 0x3ce104e6bd148897U,
  0xbd83f99ebd18d2a0U, 0xbd106701bdf0f095U, 0xbe2df747be69124bU, 0x3d109ac6bdc16c5bU,
  0xbe1e068ebdda5661U, 0x3c42f278be585865U, 0xbdd06e213c9b4377U, 0xbe02905fbd1e347aU,
  0xbdaf458cbe1949e4U, 0xbe169511bd012d31U, 0xbdeec366bd0bc995U, 0xbd5e2937bd3672b3U,
  0xbdb5f770bdfb29a5U, 0xbe06fd8dbd10e936U, 0xbd955345be496519U, 0xbcd7fd7fbd5b36f5U,
  0x3b9207d23c8ef779U, 0xbc3bb4e6bb847f46U, 0xbc8d2687bc5477b8U, 0xbbfeb06dbcd6ca63U,
  0x3c61fa0f3bf6c381U, 0xbcd5d82dbbffa212U, 0xbc56025ebb37e1deU, 0xbc51f8983c22ff2bU,
  0x3cf12e713ca07d4dU, 0xbbf03e763bf2f4d4U, 0xbbb33ff7bc8ed0f5U, 0xbab1a790bc56996bU,
  0xbd05d152bbefbe83U, 0x3b32372d3c93bbe2U, 0xbbf8caaebb6b129dU, 0xbb911ae73d12af9eU,
  0xbcb66d8e3bee7cc0U, 0x3be122673c9ecb9bU, 0xbc4c3aebbbdc997eU, 0x3bcdba1abba23a93U,
  0x3bb896f8bcda770aU, 0xbcc5f09cbcfedf65U, 0x3bfdfb2abb9d6040U, 0x3ac533eb3b89e82dU,
  0x3c5662a83ccaeb77U, 0xbc5bf1e33ca3351dU, 0xbd06f7df3bbd89d9U, 0x3a838e45bbe6fba1U,
  0xbd3ccf80bab4c598U, 0x3cf26ee23cec5394U, 0xbcae5113bc49aa39U, 0x3b0cd3d53cba233dU,
  0xbba7c58f3d11dbb8U, 0x3b75d23c3c2c7882U, 0xbc18f771bc914c85U, 0xbc8308e7bcd2b318U,
  0xbc8891333d00cb01U, 0xbc967b11bb1b2630U, 0xbc5c4648bc7cd49dU, 0xbbb196b33c4c293eU,
  0x3ba11a403c81c971U, 0x3bb616943ce63d7bU, 0xbbd430abbc091f0aU, 0x3ca6a5f7bcb82a8fU,
  0xbca35785bc830aa1U, 0x3ca1da513d234457U, 0xbc347147bc34f754U, 0x39219f973d2c6e6cU,
  0xbc334602bdc64796U, 0xbc4673ddbb6ab76fU, 0x3b56f7b3ba1a43b3U, 0xbcc3fe48bd0cb954U,
  0x3c29cb5abc3aabf3U, 0x398e6754bccdf59fU, 0xbc822deb3cd709ecU, 0xbcaaa642bdb6a8cfU,
  0x3bb9ce33bd6fde86U, 0xbbd714603cab3ecfU, 0xbc0a20cfbd25a9bfU, 0x3cb4b9f0bc4fcfc3U,
  0xbcb01782bce20fc7U, 0xbc5adde6bd966508U, 0xbccef7f6bcb9a6feU, 0xbc740e5abd4763a5U,
  0x3bbd2a18bdbfbc8dU, 0xbca9f92d3c581158U, 0x3d137c023d1a08e9U, 0xbbc5391dbc0845abU,
  0x3c8c39f6bc7224d8U, 0xbb8f0dda3c18cf42U, 0xbcbc8c203b931eb9U, 0xbbe42123bdd5da7eU,
  0x3d15d9e2bbac40beU, 0x3bd9a3a23ce243d0U, 0x3bee384ebd512d6fU, 0x3b55a4c63ca48372U,
  0x3cf38f39bb203924U, 0x3bda0c8dbdbb94acU, 0x3bc1df5f3c2ae9ecU, 0xbd0c3633bc9a0656U,
  0x3bc5c537bd8007d2U, 0xbc87b9233d31cfbdU, 0x3d4d29103c1db5b1U, 0x3beeed6c3c845de8U,
  0x3cbdf1b43c129d6cU, 0x3be5fb883cbe9afcU, 0xbc81f542bc66f70bU, 0x3c71ff7bbd83f7a9U,
  0x3d6538673d14a77eU, 0x3cbfcf923c74a7e4U, 0x3d3d5706bcdfe69aU, 0x3c5ba2a43c91b2aeU,
  0x3ce8b9073ce81729U, 0x3d6d6477bd46ebe6U, 0x3d1fb6753cd2edb9U, 0x3bda4da7bc3602aeU,
  0xbdbe7aa5bd17943eU, 0xbcb0f34dbe26292bU, 0xbe1cf9f1be32ee01U, 0x3cf2f588be03d1bdU,
  0xbe11f12dbd85b7adU, 0x3ca18a66bdb91dd2U, 0xbd7a542a3cc530ccU, 0xbd9a5be5bd1695d6U,
  0xbe279c2dbd3ab9fdU, 0xbd5e4de83be0a11cU, 0xbde874ee3d21e25eU, 0xbce25f3fbd8e3bb3U,
  0xbe033e8cbe171d91U, 0xbdf63f3ebda087f9U, 0xbdab506fbdb7d59bU, 0x3b7c5c0bbd6c6d6cU,
  0xbd0d33e0bceb255fU, 0x3bbe4c68bbe0f13eU, 0x3c3d860f3cf721e7U, 0xbd17655e3d6fbd26U,
  0x3d4d1886bc1e67eaU, 0xb98a4a0a3a480bd6U, 0x3cc98f923cc535b9U, 0xbb299bf4bd2402d3U,
  0xbd8d4af63cb81a1cU, 0x3bcffe57bce5185aU, 0xbd2a74b9bb8375c9U, 0xbc194039bd2b7083U,
  0xbd134f08bccbc168U, 0xbd303ac7bd8102c9U, 0xbd29eddc3c8183e2U, 0xbbf5aabbbcaec277U,
  0x3cf4a8343d050005U, 0x3d632154bca0226aU, 0x3ccccccd3dc15b40U, 0x3d1e02b83d9dff14U,
  0x3d4af8ac3d0a3824U, 0x3c58e98c3ddbb259U, 0xbce36f823d83a1fcU, 0x3d92e3253d098273U,
  0x3d2ab62a3d3cdf6dU, 0x3ccf4c903bbdc822U, 0x3cf19a283d6b0144U, 0x3ba449a03d110932U,
  0x3d18d2243dc488b9U, 0x3d7e6e133d1ee3a6U, 0x3cd231733dbf768fU, 0x3d4581e93d13cfd7U,
  0xbd2bb4433d242ce4U, 0xbb934332bc855c3aU, 0xbcf270ecbcdfb9eaU, 0x39a4ece33caf10d6U,
  0xbd44293dbbbb8effU, 0xbc20373bbc86af4eU, 0xbc900cd63c45b1adU, 0xba89688a3ce75ebdU,
  0xbcd021393c86433fU, 0x3bbf6d9cbc7844ffU, 0xbc02bc153d52dd38U, 0xbb4a8877bb4510a8U,
  0xbc2d7ad43c2bd626U, 0xba9cd89a3d113082U, 0xbccf29fbb93c5c0fU, 0x3b71aee7bc053509U,
  0xbd1496203c49e09dU, 0xbbc3f924bcb6c9f9U, 0xbd3295b8bc3ed729U, 0xbcddc333bbd9201cU,
  0xbb9562613cd68debU, 0x3c902f37b9d19874U, 0xbd3559b0bb6235a2U, 0xbc3b4f003d405610U,
  0xbd024d543cb1738bU, 0xbc692716bd0e3a64U, 0xbc9ed90e3cf700ecU, 0xbcb12652bc93be19U,
  0x3bac909cbccaa026U, 0xbcc2a1e9bc5c1ebdU, 0xbcbadccebc355ca5U, 0x3ce6b3d13cc0a4abU,
  0xbccd96513ca2686dU, 0x3c189725bcf9f285U, 0xbcfee47b3bcf39eeU, 0xbca101e3bb294529U,
  0xbd1798fcbb8e5da9U, 0x3ce355d5bbde6c57U, 0xbd154c343cf24f32U, 0x3b895c963d530c28U,
  0xbb1dd89fbc0ff8c5U, 0x3bf009233c1c9f6aU, 0xbcb50c2a3d20b925U, 0xbb87e53ebbd986f0U,
  0xbc722a33bc146180U, 0xbca3c1a23cc12297U, 0xbc395d8cbb89fb5eU, 0x3cd272343c73e639U,
  0x3c5a134bbc014f28U, 0xbcab13f0bc7aa400U, 0x3cbbeb2fbca7238dU, 0x392362f2bc75680cU,
  0x3bca98593a703382U, 0x3c0ab0ee3ba33064U, 0xbc810d8dbc4ba697U, 0x3c4783b7bd0234d4U,
  0x3c6ac61dbcfc95a4U, 0x3cd3dcafbdf09bc6U, 0xbbf98a6abdbbdc65U, 0xbe11b05b3bbcb7aeU,
  0xbc9057933c98ecb1U, 0xbbd1a0543cd359dfU, 0x3c1526a83cbd41afU, 0xbdb84f97bc061339U,
  0xbbe67e95bbf53ac9U, 0x3c196bca3be69275U, 0xbce639243a25e0b9U, 0xbd652e4bbd01a5d3U,
  0x3bbafa5b3c2e5e1dU, 0x3c5e77e13cad760dU, 0xbc993d4e3bd4e85aU, 0x3c63b148bd16be00U,
  0x3c23f663398374aaU, 0x3cd38b68be0651e0U, 0x3b3e7e14bdc87178U, 0xbdfd55bbbc768472U,
  0xbc4326a53baef70bU, 0x3d044b703d2668ebU, 0xbcc2ed4c3d0a0bf7U, 0xbd96f195bc07a5bbU,
  0xbbc3cd07b8b49882U, 0xbc7fb2993b832989U, 0xbb37fc723ba0bca5U, 0xbb927572bcdce2acU,
  0xbc5a07523cad78cbU, 0xbc9a5c6c3d347122U, 0xbd0e697fbb1898dfU, 0x3c876cf2bd2c2c99U,
  0x3c6a6562bc9989d7U, 0xbc698d12be1397aeU, 0xbcbefbe6bdba6d9aU, 0xbdcc5b16bb04d314U,
  0x3acbc4883c6d64a5U, 0x3c3420523c14e52aU, 0x3c9c1b003cc0da4bU, 0xbde0ad753aa11942U,
  0xba4fa2323be980d6U, 0x3b98cc85ba3fc281U, 0x3aa442fd3bce09d6U, 0xbb850b903c7d9332U,
  0x3bdae9babb4c797eU, 0x3c77ff293b0abfadU, 0xbbc6046b3c319221U, 0x3af5947b3c5b9a8bU,
  0x3bfafe5cb889cf53U, 0xbb71eeed3beeba68U, 0x3b11565d3bd3e4c1U, 0x3b8427be3bdf5355U,
  0x3baaaa613bcd0afeU, 0xba7f43ec3b9403c1U, 0xbb1b65873ac6867bU, 0x3bdf26fb3afa44d3U,
  0xbc2226183be71fc1U, 0x3be386053bb1c405U, 0xbb31b71a3c2192dcU, 0xbab2d4b03c676c05U,
  0x3ca5eb10ba132994U, 0x3c22ec113c4858cdU, 0xbbddf6903b83543fU, 0x3bc73ca739dbb6ebU,
  0x3bbafa53ba7c1472U, 0xba889d0cbbd47467U, 0x3be4bdc93b894cd7U, 0xbb5433723b00df2aU,
  0x3c3cb2683b771aafU, 0x3bef6f71bb903bfcU, 0xbb35471b3a5815dfU, 0x3bbf7c17bab93fe6U,
  0x3b572ac13a847aaaU, 0x3ba19cbc3c065b1aU, 0x3c9387223c91b529U, 0x3b4a840c3ce423d6U,
  0x3c6cf87f3b8cdbe3U, 0x3c28e3603c840ff1U, 0xb91fd315bb6ca5a1U, 0x3b97d59c3c2a3967U,
  0x3af3605a3c1b289eU, 0x3b072e57ba31bbf4U, 0x3bc8413dba288385U, 0xbc19a3eb3c07d0a9U,
  0x3c81c4913bfe00ffU, 0xbb90aed83b9947b5U, 0x3bb6d2443c3a092eU, 0x3b2fd8fe3bd02d9fU,
  0xbc964c2cbd163f53U, 0xbd0d9e37ba98ecbbU, 0x3c0998173c589c91U, 0xbc8babcd38c8bf17U,
  0xbcd6075a3bfce27cU, 0xbd513ec93c0576adU, 0xbc678edcbd51f4ccU, 0xbc657079bd74afc8U,
  0xbbb8a7c33c4c4870U, 0xbc7d8ac03cdcab2eU, 0x3bc03b88bd43dc37U, 0xbbec6535bcc48492U,
  0xbc67dc3f3b882291U, 0xba909e88bc478b26U, 0xbc7fcdac3bbcb20fU, 0xb8fef6d5bca83fbbU,
  0xb9788a5bbcaa8cd1U, 0xbd12bcdfbbabfbe7U, 0x3c9bdb383c9e3dd1U, 0xbd45d82cbc4342b1U,
  0xbbf0eb553cce4604U, 0xbd09289f3c912ec8U, 0xbd1d2068bd06663eU, 0xbcb271f1bd560b75U,
  0x3c83cced3d09e0bcU, 0x3c8098e53cdfe1c9U, 0xbc28e91bbd4a7014U, 0x3c86213abce082d4U,
  0x3bebbf51bb59d543U, 0x3ca0af3d3c3e3563U, 0x3b653be73c8ca650U, 0xbcdabaa83d03267cU,
  0xbc43816f3cc24d35U, 0xbc6fd9723a3a3667U, 0xbb438af53d140d19U, 0xbce21ac23bbaf101U,
  0xbc903fe43cdb742eU, 0xbbb679213c95b946U, 0xbced9a17bcf4aaa3U, 0x3b00a330bca49c92U,
  0x3d02f2cf3d3f577eU, 0x3cbb0c323d2958beU, 0x3ba16096bd003795U, 0x3c7eea8fbcc97146U,
  0xbc9b0d613c8a9163U, 0x3cd02a763c982ff3U, 0xbc097c31bbe1474fU, 0xbc0cc6ef3d0f4ac4U,
  0xbbb16b57baa52f8fU, 0x3b518f973bf6cc6bU, 0x3c167f43baea7b80U, 0x3b76be36ba2f285fU,
  0x3bc4c2c73a8d51a1U, 0xbb773142bb0d29f0U, 0xbc4a0237bc862f47U, 0xbb6923a4bb1a8878U,
  0x3b80d398bc94c529U, 0xbb4a2cf63d404807U, 0x3bad0ae93b964ce3U, 0x3cd8264fbb2f65c6U,
  0xbad5dbf2b99b0976U, 0xba92846e3a272789U, 0xbb05ce66bc09a64bU, 0xbb44dc95bc60de6bU,
  0xba876a41bbbd86c5U, 0x3b04a1c1ba718188U, 0x3c08dfaabc1a19ddU, 0xbb0b4264bb489d76U,
  0x3a6da3be3ac5892eU, 0xbb16cd5dbb37797eU, 0xbb2d87ddbccda5a4U, 0xbbb04f613bc50ef2U,
  0x3bdeb56dbcbfc66eU, 0x3b32ed7d3da470a6U, 0x3bcfdcffbc32be3dU, 0x3c8dbf353b27ae82U,
  0x3bf8c5d7bb3ddfd4U, 0x3b8ac5ac3b53e2c1U, 0xbabb0bb3baf2e45eU, 0xbb64f0593ac33268U,
  0x3bd781a5bba7bf1aU, 0x3c14028b3c10e6bfU, 0x3bbededfbb88f368U, 0x3aa1f49bbbe6193dU,
  0x3adee8083bea583dU, 0x3c2649f6bb0a04ccU, 0xbb0fdde2bcfb626bU, 0x3a13fa163c3e3ac7U,
  0x3b56f02cbcbd89b1U, 0x3b7f4ca13bc82afaU, 0x3c9c9e3ebbfab811U, 0x3d3366da3b8eec0cU,
  0xbb449eafbc317334U, 0x3abf95e83bc52093U, 0xbb9e582bbba39045U, 0x3be6212f3b925642U,
  0xbc867e14bc89348bU, 0x3be944db3c92f74fU, 0xbc561032ba52e730U, 0x3ba6e7503c9fa4aaU,
  0xbb9d9d5cbcbc2592U, 0xbd2e53ec3c7a6739U, 0xba80c75b3c079abaU, 0xbb154960bd06ada1U,
  0xbc3bc8eebc02733fU, 0x3b44a9e2bc669b30U, 0xb986c4f63c858397U, 0xbc0f875b3cbb8f8aU,
  0x3c160f41bc32acfdU, 0xbca77434bd0b4193U, 0xbc06e21a3a1375f8U, 0xbb93675ebbbe08f7U,
  0xbc55d1ecbcde46b5U, 0xbc471a8ebcb4ca99U, 0xbbfe6bdebc4f8957U, 0x3ba2f0803c372740U,
  0xbd00f42cbd2a8431U, 0xbd72684fbae86d47U, 0x396fa07f3b4a3493U, 0xbb80de92bc115f1fU,
  0xbc9a805bbc9361ebU, 0xbb340164bd02721fU, 0xbc00e33ebc7ac8ffU, 0xbc77baae3c290cfdU,
  0xbbc175683c448328U, 0xbce006903b410aa9U, 0xbccd83babc5bb42aU, 0xbc9e3d2bbd12f221U,
  0x3cd61c793c939b39U, 0x3c7d38a73c239a40U, 0x3c8653eaba67ee12U, 0x3b798b0e3c48e104U,
  0x3cc11704bc3645beU, 0xbd2c7404bc0d69e4U, 0x3b8638ed3bd8c284U, 0xbc0dff093c84af33U,
  0x3c9d4283bc82dd91U, 0x3be7a6153b52d12cU, 0x3cae6716bbabea09U, 0x3cdcfe5c3b8341e5U,
  0x3b10fd6fbc823490U, 0x3c424c90bc2dc5e2U, 0xbc4ef05fbc2f36e7U, 0x3c8786da3bcc48a4U,
  0xbb22f5e23c007f53U, 0xbbe949fabc6a9268U, 0x3be921f1bc84efadU, 0xbbce9403bb0c64b6U,
  0xbce853c53d0c8da9U, 0xbc6d5569bbf06ac2U, 0xbbdfe3c33b892390U, 0xbb42621abc4f9688U,
  0xbc0fb7c2bbc8b90bU, 0xba8726d8bc9a91f9U, 0xbbb4e6bdb9b05134U, 0xbc751c33bb82d784U,
  0xbc2f868abc6d3224U, 0x3cd23fe83c8b6aa9U, 0x3ba654903a5508c5U, 0xbb65a3a93c7a2de4U,
  0x3b28f84c3c28f80fU, 0x3c0fd16fbbe14174U, 0x3c506acabc645b06U, 0xbc1d255c3ac9dd27U,
  0xbb3c20833d2b52e6U, 0xbc0ca6803b179f10U, 0xbca7cab43c8a769cU, 0xbb54cedb3bfa8624U,
  0x3c1b6a01bb603029U, 0xbb9b181ebbe020baU, 0x3c4b6cf6bc3cb765U, 0x3c333831bbc76ac5U,
  0x3ba1c387bc14913fU, 0x3c9cfcb13d248e5fU, 0x3ca929333c81b088U, 0x3c5b7ee03d077495U,
  0xbb49ccd43cb4158dU, 0x3b5e88eabbcb7ce5U, 0x3cf8ea35bb3cb9f4U, 0xbaf780aebc1499b9U,
  0xbaf623473d012f1bU, 0xbb06b0e3ba542a95U, 0xbc1400a03c6f4c88U, 0x3bae62783c836329U,
  0x3c2182b0bbf61d84U, 0x3c1d0964bc43c9e7U, 0x3bace0f3bb99e522U, 0xbb0d3281b9354976U,
  0xbc090d04bc2307c5U, 0x3cfebc2d3c8d1167U, 0x3c8cefc2bc115a38U, 0xbb259fc83d0c26f7U,
  0x3d47c07a3bfd9843U, 0xbd768973bd98f16cU, 0xbc8dd130bde731e4U, 0x3be736c9bdc42ad7U,
  0xbd197b393d105cdfU, 0x3957a004bdf35febU, 0x3e008bafbd9ac204U, 0xbd2f098ebd3e237eU,
  0x3d2340f1be411f19U, 0xbdba51b6bcf252e8U, 0x3c8d7745bcf045f0U, 0xbb3422723ca33e0dU,
  0xbe0afeeebe11665cU, 0x3c6c78d63cc3d557U, 0xbced544fbde69c16U, 0xbd867cc23d4caa7bU,
  0x3cc25c1fbdb711d8U, 0xbd8dc25fbd9e51b3U, 0x3b4e8153bd8cc14fU, 0x3b930ad2399d5fdeU,
  0x3b6de5a33bbdea98U, 0x3c609f4ebd86f923U, 0x3db225bdbd45e66eU, 0xbcdc39cdbc88cdaaU,
  0x38478278be64426aU, 0xbd7bf0123ca1f8feU, 0xbbec3013bd397519U, 0xbc81e354bcb744c8U,
  0xbe0a0532bdf59007U, 0xbceae2c5bcc8673bU, 0xbd3d2520bd9036fcU, 0xbd9cdf1fbd666529U,
  0xbd48978a3ca48a12U, 0xbd8293b6bd5a1708U, 0x3d9dfeda3c81ffabU, 0xbb3e4be53cc05f8eU,
  0x3d05a514bc16cbe0U, 0xbbe5ebe9bda6c53aU, 0x3c84e45c3c1f2f43U, 0xbdf294fa3d7edfc4U,
  0x3ce8934dbe846a59U, 0xbdbe7c1d3d8b9163U, 0x3d55cc543db84d77U, 0xbda573c2bcdf7f94U,
  0xbd8b7683be2272c2U, 0xbb36ecfd3d092ab2U, 0xbc928ff7bd9bbbd5U, 0x3c41a00ebc0f6d45U,
  0xbcbe300abc1e186fU, 0x3c9ca8d9bd2e5420U, 0xbd3b0634bd8a50eaU, 0xbc7e54abbc2bfe81U,
  0xbd4977093b9b591cU, 0x3b52907abcf9b4b3U, 0x3c636e16bc32dd62U, 0xbd06aeb0bb8c633fU,
  0xbcc47379bb445db0U, 0xb901c1b3bd8cf871U, 0xbcd0ca45bc2c94ffU, 0xbdbc9712bc253427U,
  0xbc9771aabd02bbbeU, 0xbc9abe1bbb2972a8U, 0xbd13e040bcb0b164U, 0xbda009ff3a9a5ce1U,
  0xbb9d3a633b8b3627U, 0x3c1efbf5bbfe4dc4U, 0x3c56c8003c657c52U, 0xbd028f9a3c843fceU,
  0xbbd095733ba9edfdU, 0x3c81ba52bcbb588dU, 0xbbd5314abc97939aU, 0xbcaee2123c89b159U,
  0xbcd80ffa3d6c4f91U, 0x3cb09cf1bd58ee10U, 0xbcad8a5bbc239760U, 0xbd878ea93c42b56cU,
  0xbb0003e5bc11ff29U, 0xbc8ca3ddbbea52f3U, 0xbc2700d7bbe31950U, 0xbd20d20b3c12b50fU,
  0xbc85d43a3c7fa967U, 0xb9c97cad3cf5d679U, 0x3d08868a3d2f57a0U, 0xbcc075833ce1d79aU,
  0x3c04db7abbd85084U, 0x3c8dfe2e3c49e635U, 0xbd131ccdbce3fc89U, 0x3b0bbd4b3bdc1144U,
  0x3ce34f183d7d1170U, 0x3c93ffc7bb47c08bU, 0x3cc7aba43c114e41U, 0xbcf141a13ba544ccU,
  0xbcadb9aa3bd7cff4U, 0x3cc900f4bb85bbd6U, 0x3c188a343c1572dfU, 0xbd29ff9c3c1ffb10U,
  0xbbd477f2bd29c878U, 0x3c4505b93c8c9eedU, 0x3c05baf23cb52460U, 0xbc6466c53c77c542U,
  0x3cbfd5b23bd3509cU, 0x3b887412bcdeba28U, 0xbc11eca43c8a8b6eU, 0xbcc41179bd61ff05U,
  0x3cbee47f3cb592e7U, 0x3abec6a1bdcac69fU, 0x3bd48e5ebdb56e75U, 0xbdc3fa4e3ce5270cU,
  0x3d0c43e73c9fa318U, 0xbca8ca22bcb95ce4U, 0x3c0e417c3d54e7dcU, 0xbd8ef602bd0751b6U,
  0xbbbbdb89bd38171cU, 0x3b848bd0bc781167U, 0x3c4192923c365fb6U, 0x3c9758183cb7fe03U,
  0x37da70e2bc56bf1dU, 0x3ca9e1013c60fa01U, 0xbc929c153c9abb96U, 0xbc80b7d2bd866ff2U,
  0xbc059bfb3d0cf3c4U, 0xbb4bec95bdee3cedU, 0xbc9bd4febdea58f8U, 0xbda3e4183d0099acU,
  0x3cc6ddef3c94a7e9U, 0xbcd55640bb1a45ceU, 0x3c9379713b4d38eeU, 0xbd886db5bc5fbf91U,
  0x3cbe5ca1bd93ebe8U, 0x3c3c35d5bc19dc1cU, 0x3bd6b4e6bc96006bU, 0xbc42cd50bcb2cff1U,
  0x3b7d0280bd66f5ebU, 0x3aa0fd97bca093eeU, 0xbc25a78f3c0d5fb3U, 0x3c18f32abd943b21U,
  0x3c8cb0eb3ce4a392U, 0x3bd65fedbdd3e935U, 0xbbbe6232bdbe711eU, 0xbdb11f62bc0b08e6U,
  0x3c36892dbb8cd1bfU, 0xbb00df3cbd4b7621U, 0x3c8b0bd5bd264a6dU, 0xbd89b0b8bcb6a0daU,
  0xbbc12d1cbc17ffcfU, 0xbb136bdf3c9301d4U, 0x3bcc89453cd8bc53U, 0x3b7c44813c4071a4U,
  0x3c92c8a5bc01ac9cU, 0x3bc1cc4a3c049aa2U, 0x3b442a2fbc1aafd0U, 0x3aa2b922bc86ad4dU,
  0xbb5ad7823bccf556U, 0xbac5d8cfbbfbf857U, 0x3c4649ebbc63ced4U, 0xbcb9525a3b15e5b4U,
  0x3c399ba7bb334085U, 0xbc40ac02bc76d74fU, 0x3918d6d4b7b75e1aU, 0xbc87a3ecbcc29328U,
  0xbb59cd96bbbddb74U, 0xbc5a4b563cae516aU, 0x3c88ae883d0ad0b4U, 0x3b5d1b973c682b84U,
  0x3c992160bca5029cU, 0x3b492b1e3c37803bU, 0xbc7ad715bc27ffc9U, 0x3ba6314dbc91af32U,
  0x3c27033f3c50e403U, 0x3b71a508bc4a179bU, 0x3c8ffa15bca08493U, 0xbc759fbc3bc763b0U,
  0x3cf51ab03bfd1477U, 0xbbde8092bc1aa5b9U, 0xbb1620a53b001b2dU, 0xbc8bef8abc70bad2U,
  0x3b92e668bc1f8318U, 0xbbaa37873d0e2c4fU, 0x3cf06a543cf670a4U, 0x39aeca633cc505aaU,
  0x3cd25fa2bbfb7f97U, 0x3c7bb2bd3cd4b8daU, 0xbc7d31f3bac2e303U, 0xbc014332bba9716cU,
  0x3c855421bb233898U, 0x3bff4246bc19a853U, 0x3c476843bb9d0cf6U, 0xbc094e113c15acc8U,
  0x3c83575c3b010140U, 0xba01912c3b4a2307U, 0x3be9af783ba2ce10U, 0xbbb78e253ac91d9bU,
  0x3cb36ec33c96dd66U, 0x3c52c8823ca711b1U, 0x3d8b50793d669584U, 0x3cc1a2763da93805U,
  0x3db5eabdbcf6fb1aU, 0x3d2924183d71d35dU, 0xbc6cd3a4bbf2c807U, 0x3cf515123d7049e9U,
  0x3d24574cbc91999eU, 0x3cd97e043d0f92cdU, 0x3d87339f3d3d4f1aU, 0x3d818a703d643c91U,
  0x3d6d95a63b9ed051U, 0x3d489dcf3d74105aU, 0x3d3bff1b3d1b8eccU, 0x3cbeebd63c80aa7bU,
  0x3caf0c79bdc0b053U, 0xbd0bb745bdce8e1dU, 0xbcc47640bd287f05U, 0xbc7fec2bbd9fc410U,
  0xbdb8b9f3bd24f98fU, 0xbe16a57ebdfb1d7cU, 0x3d9a8793bdb92482U, 0xbd14b898bdaaa880U,
  0xbd904d78be5d2314U, 0xbdc37c6abdaf4f72U, 0xbb42bba6bdcdf754U, 0xbd336d4fbd32b8c5U,
  0xbd610f7fbe02a282U, 0xbd821eadbde9a4e9U, 0xbd7c302fbe099c32U, 0xbd17ecc6bd830305U,
  0x3d861581bcf34b37U, 0xbd021d47bcf90063U, 0x3cce02dbbd00d354U, 0x3cc93a1cbd6cf405U,
  0x3c87d10f3c44c73aU, 0xbe3706e2bd9b3e59U, 0x3e173a87bc964994U, 0xbce6a9d9bd5ed46aU,
  0x3cb92ea3bdbd3582U, 0xbca2a353bd994172U, 0x3ca81689bd3a8c11U, 0xbd97fe2abd50dabdU,
  0xbd2e9a78bd761c38U, 0xbcb76434bd3eb14cU, 0xbd10201bbd371a50U, 0xbd105fbfbc4e2f4aU,
  0x3b6bc84fbc9e50d7U, 0xbbe1b5423c4185d0U, 0x3bd8b08bbc02a2e7U, 0xbc6e05d2bc932687U,
  0x3ba5ce19ba7fedbbU, 0xbd50d81bbc6362b0U, 0xbb969db8bbdb7b47U, 0xbaa864c43c0402c5U,
  0x3c3ad7233aa59bd0U, 0xbc1605dfbd5b0c85U, 0x3c9e5dd03ca92476U, 0xbce37791bc14114aU,
  0xbc517519bc6e6086U, 0x3c960819bca42852U, 0xba7422e1bc15600aU, 0x3bfc345ebc345333U,
  0xba1af713bc6a5c0eU, 0xbca09fec3cccf020U, 0x3c8f8effbb8f8954U, 0xbc1e13e1bb85ac1dU,
  0xbb766f6cbbc20bd7U, 0xbd65f2ddb89152f1U, 0xbc036f8d3b203178U, 0x3b6c20f03ca6a6feU,
  0x3cd821353bbcd34bU, 0xbb35ad26bd5cb77bU, 0x3c3c43b83d025c76U, 0xbc6edbfcbbb566aaU,
  0x39d082013c9ae608U, 0x3ca6928cbc9202c7U, 0x3c7612b53bb56b20U, 0xbbfde169bc6aadaaU,
  0x3bc633d8bc839910U, 0x3b2e54163d06ff2eU, 0x3ce1848a3bb29ec3U, 0xbc2418f8bc44b353U,
  0x3c8534ec3c3d971aU, 0xbd11a9663ca5adb8U, 0xbd04376b3d03ce44U, 0x3c0aaf8d3c0f8f02U,
  0x3d3ac1f83ca343e7U, 0x3c2dec2cbcc2a0c9U, 0x3c90610e3d16a6fdU, 0x3c80d867bc26f1c8U,
  0x3bd78e983bf4fb4aU, 0x3d2a5c57bca84d5dU, 0x3ce8d9903cb64b48U, 0x3bf03ff3bb0c2700U,
  0xbce4f960bd40951cU, 0xbc3292f83c3ad8f3U, 0xbcfc3e573c86fa3cU, 0xbc168904bcc80fbdU,
  0x3cac1aa8bd958da7U, 0xbc9f75f03c8663ebU, 0xbd0b8c8a3d8b093bU, 0x3a851810bcd0312cU,
  0xbd1d6f423c8c34a6U, 0xbb4886f0bd677f19U, 0xbcc9440abc902030U, 0xbcae566abc4df891U,
  0x3b8a7cd9bd29f9f6U, 0xbd2493babd3ea20fU, 0xbc4759403c1cf33fU, 0xbc73f3febd8a34e2U,
  0xbc910895bdb8422bU, 0x3c6b5cc33a7e16d0U, 0x3c5811173cbb6c61U, 0xbccb49963c812b82U,
  0x3cdb3315bda8ecffU, 0x3d54fe5abb100c7dU, 0xbd9c8a8f3cdecea9U, 0xbc08972fbd04d5c9U,
  0xbd61bdcc3cf0b36cU, 0x3c15bd82bd4fc274U, 0x3cc63177bc754280U, 0xbda35c2abb9b36cfU,
  0xbc0bea4d3b88f3d0U, 0xbd62db9bbcf7604fU, 0xbc82113b3d00f137U, 0xbcd3bdcabd97dd42U,
  0xbc885eddbd63cdb3U, 0x3a9236eb3d5b12b7U, 0xbbc8733d3c94029cU, 0xbaf8450c3d1d4a19U,
  0x3d53fc91bd71ee4cU, 0x3cc9accc3bd9816dU, 0xbd8f70833c1e6300U, 0xbc6bc7d2bdbdcef8U,
  0x3b9adb933d273ec6U, 0x3c2c96babcf71a74U, 0xbc24087abd36462dU, 0xbd82d6cebbf95265U,
  0xbb6eaf4fbd57694bU, 0xbd0810ddbd8f7332U, 0xbc20e26b3c5944abU, 0xbd572a9abd63963dU,
  0xbbbd3baa3d39c819U, 0x3ca35671bcf6decfU, 0xbc95a6c1bc20a749U, 0xbbf127e63a904f4cU,
  0xbd126f473d22342eU, 0xbd1861fd3cc2037aU, 0xbd564a3b3c8ec5d9U, 0x3c25bb593cc378cbU,
  0xbd5c5bd53d35fbafU, 0x3c53deb03cc0f330U, 0xbbf9eb503c23bc7aU, 0x3d05771ebcbcf355U,
  0xbcf3ed5a3cc2e779U, 0xbbbf5030bb8ada18U, 0xbd120cee3c630950U, 0x3b33c9b43d2c8b7aU,
  0xbcdb1d743c1cd797U, 0x3c1d48d8bd2e412fU, 0xbd6018d73b9c76d5U, 0x3b95d0093beafb1cU,
  0x3bd49d92bd150e82U, 0xbd3a70613cbd0841U, 0xbd3e0eb03c36e4e3U, 0x3ceae8abbca89ec9U,
  0xbb8606f23d09f6f3U, 0x3c95c3df3ad1abc7U, 0xbd1fdf233c899247U, 0xbb8ab125ba3e6172U,
  0xbb83c8e03c71feb5U, 0xbcc6c901bb9ccb70U, 0xbcc897293d1e1205U, 0xbc910e7bbb233552U,
  0xbd16c2ef3cef039dU, 0x3cbb52c4bca9e9aaU, 0xbcd181653c535041U, 0xbc7ecc2f3c9361e5U,
  0xbcfda8383cc860caU, 0xbbca83a63d18b51cU, 0xbd22731e3ca2f432U, 0x3b07b1363a1a1846U,
  0xbd707ad43d435808U, 0xbc8a85db3d0cf3bfU, 0xbd893d7fbc84eb02U, 0x39958146bd0d0d89U,
  0xbba500a23cdd44d4U, 0xbd24390e3c3f0b4cU, 0xbd0d608c3ce95df2U, 0x3bbd5dd7bb5ea24cU,
  0xbc6e956cbdba3ed5U, 0xbaae7e76bd146373U, 0xbd5c9242bd1e142bU, 0x3b0b8d123d207d54U,
  0x3caba1aabda2b45cU, 0x3ca12fe1bd12928eU, 0x3b971c68bc6c10e9U, 0xbd024b31bdb8bd4cU,
  0xbdc5cf5ebc382524U, 0xbd224a523cdb7e07U, 0xbc5e4d5fbd50fdbbU, 0xbd45d7363c98a431U,
  0xbd284238bc64fcddU, 0xbd54c126bd5fb875U, 0x3bc18701bcf23276U, 0xbcb58be9bd8ba0a7U,
  0xbc1260f7bd9f9a64U, 0x3d35759fbc59c755U, 0xbd87a79e3c3fec9cU, 0xbce79c9cbb87f221U,
  0x3bb577debd80843cU, 0x3cd180943d035dc6U, 0x3c2445a73c1e34b4U, 0xbaf6e1d0bd1b00a5U,
  0xbdbf17ce3d1c5ebcU, 0xbc81e90e3c8ac417U, 0xbd03a914bd20ffaeU, 0xbc24d4783c3e213aU,
  0x3c233ecabd0b0d96U, 0xbd93e02ebd86aef0U, 0x3c056706bc4035bcU, 0xbd01c4ffbd74a809U,
  0x3ae3d4debde2415dU, 0xbcc99df5bd30330cU, 0xbd7a0decbbebc138U, 0x3d1126183bf9b8f6U,
  0x3d16ca51bdd9af4dU, 0x3c9d502a3bddfc4cU, 0x3b0ddad7399be95aU, 0xbcdd6f54bdca2c2bU,
  0xbdad47b93cb667feU, 0xbd0209f63cf6dd42U, 0xbd689987bd158f1fU, 0xbcf77b293c68e424U,
  0xbd131b3e3c74ed14U, 0xbdf69a62bd9547a6U, 0x38e0c0043c78a874U, 0xbc6f71e2bd84e3bcU,
  0xbca45af7bbaafd8cU, 0xbacd7297bd80db6fU, 0xbd60e4c5be12c759U, 0x3d5f6291bde9eda5U,
  0xbdb3a2773b472768U, 0x3d0051c9bdf9dbdeU, 0x3ba68f653cb43b89U, 0x39761a9e3ce2efe2U,
  0xbd0f89553cad5e1fU, 0xbc1a95853cb52c7bU, 0xbc9f11a83ca21d0dU, 0xbc6d19923d033b8bU,
  0xbcbaaaf2bd065b82U, 0x3cd690093d59f493U, 0xbcdc74ecbdb25af1U, 0x3b06d3793cbc4e56U,
  0xbc2931bf3c90a38aU, 0x3c7ab2acbda53fd3U, 0xbce3cef6bde2a9f8U, 0x3daf8d2ebdd9bc12U,
  0xbce5b7413d8690c2U, 0x3ca92b82bde4fa15U, 0xbc72e2f43d125413U, 0xbcefd341bc0e32b4U,
  0xbce621bb3d09e0e8U, 0xbd560612bc90841aU, 0xbd771b87bc2ce2dbU, 0xbac7fda23d1400b5U,
  0xbd2ecc30bd0f934fU, 0x3bcfdf603c833765U, 0x3ce9012cbd7b4970U, 0x3c967a993d0a516dU,
  0xbd158422bb51ec0dU, 0xbc02ff7dbdcf1d2aU, 0xbb04000ebe28a30aU, 0x3d978b8ebd23f530U,
  0xbd7acfcf3c845fabU, 0x3cc51029bdeaa6d9U, 0xbd91afa13d537078U, 0xbd7399d8bc036a21U,
  0x3b24c884bdd58833U, 0xbcd38322bca50d23U, 0xbc9d96f3bc2dd67fU, 0xbd1cfa943d1b3537U,
  0xbd881bd1bde50cd9U, 0xbd13858d3c8fcd92U, 0xbba3104abdff28d0U, 0x3caf79533cb060ccU,
  0xbc2388413bf44032U, 0xbbd75a09bc06d36eU, 0xbc100cf7bb042469U, 0xbbc2c8453b0504aaU,
  0xb9a9016b3c806405U, 0x3dac1fe13c5e333cU, 0xbc8529c3bd637b4eU, 0x3b36196bbc8bbc75U,
  0xbb31c4213c22489dU, 0xbc7e261ebc8f7843U, 0xbc8ce30abd2d8a19U, 0xbcb98ab4bb6320f7U,
  0xbb9a91083c3ae901U, 0x3b6640853bda8933U, 0x3a459be139e6ab3fU, 0xbd4faa92ba1e3ff4U,
  0xbb436b1b3c575c25U, 0xbc26b6343b2198b2U, 0xbc040b713b66b407U, 0xbb761a3abbcb07ebU,
  0x3b8339943c7a1039U, 0x3d2c4edb3b4eef38U, 0xbb515e3abd351947U, 0x3c04bdcbbb777e1aU,
  0x3b93cc723c2668c4U, 0x3bfccceebc8df142U, 0xbb8a0eb1bd22ce36U, 0xbc84c1d13b29eb4fU,
  0xbc2f018b3c50f871U, 0x3c398de43cb47dddU, 0x3bac46f0bb508ab7U, 0xbd4eebbc3c8d591aU,
  0xbbdab0693c4860a1U, 0xbc1b9002bbce8df4U, 0xbbf387363b518195U, 0x3b262ab6bc097404U,
  0xbc1b2d143bce6f1cU, 0x3d8bd6f63c042100U, 0xbcbb55afbd2bd44cU, 0x3bb29965bb987d40U,
  0xbb5557643b845eeaU, 0x3b4c11f23cd9ff48U, 0xbbe90612bced7251U, 0xbca3de43b9860a12U,
  0xbbe5bce93bffc025U, 0x3c71b03c3c9e9680U, 0xbb5b8bbbbbd69204U, 0xbd87b2813c91d28eU,
  0xbd0cdf013c9ca585U, 0x3d188be2bdd3d972U, 0xbdf43c53bd1eb656U, 0x3cebc35c3c2e78bcU,
  0xbd88774ebd6f6f6dU, 0xbd89b9573cf0a074U, 0xbd14ae71bc15ec07U, 0x3d7d5ace3d5736c9U,
  0xbdc954ea3d9dbf77U, 0x3d1b18d8bc50a327U, 0xbdae31e63cec9da8U, 0x3bc319be3dba5ba9U,
  0x3c983a823d784f59U, 0xbe044c28bc019626U, 0xbdce1fc03d224d98U, 0x3c5a3dacbc18132eU,
  0xbc77caf9bd85c89bU, 0x3d2e8c05bddc41e9U, 0xbdb8b40dbc0f78f1U, 0x3c8bde4d3c66fc63U,
  0xbd94ee07bdad6ffcU, 0xbd33bb7b3d6d078eU, 0xbb9aea333cb0791aU, 0x3d658300bd99dbaaU,
  0xbd8a31863ceaea8bU, 0x3cad13573c8819d9U, 0x3a620541bd9e1cc5U, 0xbc67c50d3c0ade4bU,
  0x3d5234b13d669844U, 0xbdac3caabd256bb7U, 0xbdccaff0b9d1abc5U, 0xbce2a70bbd4ab258U,
  0xbc0ce74f3c10b4ecU, 0x3d31111fbe10b90aU, 0xbe2e8880bddc0caaU, 0x3d6eff62bd0c0e72U,
  0xbe1672afbd2d195bU, 0x3bb976d5bc7b4fc2U, 0xbc32fec13d1d08dfU, 0xbc049b34bcc07edaU,
  0xbdfd8e273cf01462U, 0xbcb847cabce7d389U, 0xbe081e67bb3d45aaU, 0x3c52df963d360152U,
  0x3d26c4113cfe9ad6U, 0xbe46bd4cbc4e8f77U, 0xbe2a08ad3c792deaU, 0x3cf06a4bbd4efd28U,
  0x3d1a1488bc91e54aU, 0x3c39660bbd4dc477U, 0xbc7d722ebd4fc831U, 0x3d20ad84bc441ca8U,
  0xbd6426883cee5928U, 0xbe2f06e2bcae5a76U, 0x3da501e73c8f52d3U, 0xbc89be67bc8bc43fU,
  0xbc995f89bb852e44U, 0xbd318e3b3bb93b9dU, 0xbc3d8ac3bd0bdf2cU, 0x3c3a4fc33d319695U,
  0xbc71d8c7bc18b8b2U, 0xbadd5dbabc6056c4U, 0xbd5076afbcb2b700U, 0x3c98b8dfbbbea7e8U,
  0x3d1280883c527f6aU, 0x3d12580abd496c1eU, 0xbc8909c3bd19270bU, 0x3cbcc447bbea71deU,
  0xbcf4a4383c23b29eU, 0xbe885484bcc3de57U, 0x3d802ef03aa6ef66U, 0x39e0d3dfbc8896baU,
  0xbc87a5eb3d828eedU, 0xbca20e30bc3578feU, 0xb9f27f63bcd80b7cU, 0xbb1772863d66334dU,
  0xbd046a793c3f2c80U, 0xba185ae7bcd4279dU, 0xbd4c62ecbcee7976U, 0x3caf01a3bace5825U,
  0x3cd7bd543bddef2cU, 0x3c6b5a7abd2bf82bU, 0xbd03c286bd379487U, 0x3d55699abd295447U,
  0xbd0e923bbaf8a100U, 0xbe57a68cbd1dbe49U, 0x3d5c6a92bc92d864U, 0xb94600adbc9566bbU,
  0xbb9700babced71d3U, 0xbc71ca67bd19948aU, 0x3aee6a2dbd440aacU, 0x3c8033a5bad90721U,
  0xbc4594073b160a21U, 0x3c5af94cbb928e8eU, 0xbd9a3a90bb5dc676U, 0x3b528cb33c33ccddU,
  0xbcebf350bd431f75U, 0xbb4940633cc1ae95U, 0xbca96ab13ca85870U, 0x3a96e3ff3c60ff87U,
  0x3c517e3ebdc05474U, 0x3b8758863c3ef16eU, 0xbca039073c5426a1U, 0xbc060701bd42cb60U,
  0xbdafa20a3c9a63fbU, 0x3b9184cbbbb11768U, 0xbc235742b851a8acU, 0x3c06757d3ca2d671U,
  0x3bd08abb3b23970aU, 0xbd81750abd39991eU, 0xbd3760e73c5e7788U, 0xbc78ddbabd4594d1U,
  0xbc97a768bcd877a8U, 0xbc799f463c83308eU, 0xbd58429f3c038065U, 0x3ca0d8cc3a70d6caU,
  0x3c1f8d73bd67b0a8U, 0xbc564c9f3a8c47deU, 0xbc9c24ad3ac5b53dU, 0x3bb8d830bcff95faU,
  0xbd555feb3c6e91e2U, 0x3b31d8cebc2db7b4U, 0xbc99e6d1bc52f3b5U, 0x38f9e4ed3c46ea67U,
  0x3adf27d4b9f6de22U, 0xbd8791fcbcd29ca2U, 0xbd25a0923b136796U, 0xbc803a89bceff031U,
  0xbc85e6abb9d20316U, 0xbc8b70293baac354U, 0x3c2ee19b3c4cff48U, 0xbc1b4a7f3c68c79dU,
  0x3cda1270bd336cacU, 0x3d2fe40dbccdb7e5U, 0xbb8716c33c59569fU, 0xbcde92c23b09cf68U,
  0xbd1a9812bb43bb65U, 0xbca40c1a3cfe059dU, 0x3c5815333c95c01fU, 0xbb4c401fbc0e5823U,
  0x3c144524bcf38484U, 0xbd4abd2dbaafdf9dU, 0xbbbbc9a1bb1d9d96U, 0x3c80b613bc9c94e4U,
  0xba4c2f85bc3bd1e8U, 0xbc17d956ba9267e1U, 0xbca52b7a3ce9e7aeU, 0x3a8b32da3b047121U,
  0x3c099c6abc05c2b9U, 0xbda04d043b9300a9U, 0x3bfbe1123d7e332aU, 0x3c8d06b93c5636f2U,
  0x3c8748d73cee08bdU, 0x3b730fbdbc926a55U, 0x3c146d1a3d31b42dU, 0x3b490e34bc64733aU,
  0x3c00e1a4b9be8900U, 0x3c25e04e3c955c83U, 0x3cb116e73bfd627fU, 0xbca567e83c5e3f5bU,
  0xbc475d77bc17292bU, 0xbccc091abcb9acb6U, 0xbbdaa0c83c72294bU, 0xbbbb72873cc12009U,
  0x399c1d1d3cad4e03U, 0xbdb5a556bad7cdfeU, 0xbcd3e81eba4aa82aU, 0xbc8f4a39bc3f91cfU,
  0xba6330bbbb401d63U, 0xbc78a93ebbdbef56U, 0xbcc3d7d4bbad07e2U, 0xbc9a49f1bbeb404eU,
  0x38ed14dfbc87cbb3U, 0x3c44b3013c96e551U, 0xbc29e4593a31084eU, 0x3d8b88d63c155cb4U,
  0x3bae4af53822cc3fU, 0xbca2a8a63c21fa15U, 0xbb8091a53c3cc26aU, 0x3b3b8d483c5670f7U,
  0x3bcfca7ebaf7ed59U, 0xbd9ca3943c616323U, 0xbc6ef6743d3677d6U, 0xbc27406abc9cb68eU,
  0x3ba503673b8f06adU, 0xbab1cdb03c1a3ef2U, 0xbc204bf4bbeb8aabU, 0x3d00606b3cb47fa4U,
  0x3c079e09bbd04ba3U, 0x3c1b4e28bb3f484cU, 0xbba3abc93ba221a8U, 0x3d965d933a18a8a8U,
  0xbd0bcda7bd9477d0U, 0x3be58a203d56965fU, 0xbbeba28b3c81782fU, 0xbb59583a3c9998dbU,
  0x3c9cc951bc9f815aU, 0xbbad40523c987144U, 0xbc0b4173bbe39e73U, 0x3c8d292bbcca53d0U,
  0xbcd3e7153b91ca5dU, 0x3caefe513cc8562cU, 0x3c3e8981b920c965U, 0x3c963296bb547a39U,
  0x3cf8dd103c9c0eeaU, 0xbb69bd8cbce6eb88U, 0x3d02156f3cc16291U, 0xbc14a13bbcfabc4dU,
  0xbc966806bdb80a17U, 0x3b8d82c4bc95d3edU, 0xbba784c43bc62b53U, 0xbc2fec893cfc91d0U,
  0x3c10effbbdc4ebb7U, 0xbbfca7943d350a6aU, 0xbdabf38cbc96da39U, 0x3cf37299bd30395dU,
  0xbceb19473b04be51U, 0x3c9b0824bb32d90bU, 0x3a944b95bd0ce7efU, 0x3b8f66f8b813ebbfU,
  0xba69fea53d232da6U, 0xbd5f5cb3bd6770d1U, 0x3b0b8cfd3cba4515U, 0xbcee8056bd81be6bU,
  0xbcb12667bdcc65fbU, 0xbcc51d923c0d3c7fU, 0x3bf115d03cafa1b1U, 0xbcb009653d8f10dfU,
  0x3bc89c69bdb18180U, 0x3b9074a83d63d194U, 0xbd2d9c4a3b69710fU, 0x3cde01f5bd7bc3e5U,
  0xbca2dbcb3c48e85eU, 0x3c0c6fadbc99509bU, 0xbc4da06cbd0eb7fcU, 0xbd0af8fc3c192820U,
  0x3c419ef73d5eb1dcU, 0xbd35aaf6bd5d5942U, 0x3b24ac3d3d303e01U, 0xbd14b7f1bd6db013U,
  0x3bdf7c9ebc97af1dU, 0x3bde699bbd57b708U, 0x3c4cfa29bbf76d9fU, 0x3c00ba82bd1bdab0U,
  0xbd4d9e5fbb1fab61U, 0xbe507c30bcab1b48U, 0xbcecd8db3c90b75fU, 0xbcc876dd3c7f3ed3U,
  0xbc9355433ba0728aU, 0xbbe6c667bc6f40a1U, 0xbc89564e3b086659U, 0xba7a21b13ca73b56U,
  0x3c2111d23cc04b29U, 0xbbf0d16f3a5fc34eU, 0xbb18826cbd21b06eU, 0x3c3573373d21b8a7U,
  0xbcd592973af0c162U, 0x3b7f3afdbc9d09baU, 0x3cbb2625bd0320ebU, 0xbce0acffbd51e985U,
  0xbcb9017fbb9a876dU, 0xbe6c3943bdb45628U, 0xbce439203c02eed0U, 0xbad6391fbc8e238fU,
  0x3b82147a3c1a70aaU, 0xbcd1d9b23b8c291aU, 0xbcca4757bd420b9fU, 0x3c8900f6bc8a9a66U,
  0xbd0da217bcf640daU, 0xbc36d2643c21b020U, 0xbcc56b52bd15421dU, 0x3c8ea58dbce7cf44U,
  0xbc75f3f5bc217890U, 0xbb1a05e93cdeefe6U, 0x3d12d0b53cb38a45U, 0x3c70cf8a3aec522eU,
  0x3ccb52f33ca17a97U, 0xbe1d733abce330d5U, 0xbd3d03243ce4ecd2U, 0x3b414b953c75683cU,
  0x3d231c013d14f263U, 0x3c1c4ffe3c6b5997U, 0xbb22e6793c44cee2U, 0xbb92c7c3bd2d7951U,
  0xbd1c827dbce67b84U, 0x3cd46288ba6bf92fU, 0xbbf92801bd5f71cdU, 0x3ce4af7d3c9a6b47U,
  0xbc7132f53b294281U, 0xbc2600663b43e0c0U, 0x3b149c283cc411deU, 0x3c8b56ed3c3dedd6U,
  0x3c9e3ab23cf1e970U, 0x3d3fff603c1f2dcbU, 0xbc11b715bccd5e16U, 0x3c2e5f0a3c011120U,
  0x3c884e6ebd44951eU, 0xbba6e43bbdc6f46dU, 0xbb68f465bd2cc9c4U, 0xbde15eb43d1c21c3U,
  0x3d0116473ca357c9U, 0x3ce4fe2c3cafd482U, 0x3c28ce81bbfee496U, 0xbdba1da23c2fa7b3U,
  0x3ba543c33c2b2e6fU, 0x3b017fae3c041341U, 0xbc7e92d6bcae2a45U, 0xbb94320cbc0a84caU,
  0x3c8655703bf8a215U, 0x3c9ffddcbbfb5ac1U, 0xbcf7180fbcc2f1fbU, 0xbb1c722a39b47416U,
  0xbc226618bd12b557U, 0xbd09e1dcbe0528beU, 0xbb59b589bd2209baU, 0xbdaa07f33c9d1321U,
  0x3c4871423b313645U, 0x3c81be1fbc14bb60U, 0x3caa2b4e3bf2fa15U, 0xbdb01668bc5505e7U,
  0xbbd5b62bbb23216fU, 0x3c8eb4a03b834800U, 0x3b657372bd0408afU, 0xbc264b5fbbff0a93U,
  0x3c7de0353c8dadffU, 0x3c9e9c04bc291422U, 0xbce6bdd0bc802324U, 0x3c6d509f3cf7eb60U,
  0x3cd67717bccabb29U, 0xbc95af71be0400ebU, 0xbc1cac64bc33d339U, 0xbd9a3c573cf4dcabU,
  0xbb468cf83c2e811eU, 0x3bf6f32e3c5cd7f9U, 0x3ca137bd3bbca65fU, 0xbda49d063b05bbdeU,
  0x3dfb5e5c3e9c6b31U, 0x3e7594a63e1b30acU, 0x3ee220ac3e8fb6d4U, 0x3e419cd13e196f4cU,
  0xbb2e44403e4acc36U, 0x3e70c8bf3e37af7dU, 0x3eaf78e43f89d6d7U, 0x3eec64d93f0663feU,
  0x3ee89fd83e4ff70cU, 0x3e5ccf6f3e84017cU, 0x3e58dac73e6023b2U, 0x3f2500d23f1f4e26U,
  0x3e85ecce3d1e10c6U, 0x3f22c5623e6fef48U, 0x3e788fb03dd3c6ccU, 0x3ed373b93f0e7b29U,
  0xbdca100a3e8193c7U, 0xbe75f82a3dc3da98U, 0xbdc95d7f3c42dd0aU, 0x3e619a793dcef97dU,
  0xbe008805be425b5dU, 0x3eb847b93c051991U, 0xbdad17753d9e6880U, 0xbe7beab73e9057feU,
  0xbef19f0abe817f15U, 0xb97df754be18ba6eU, 0x3e973f76beb44030U, 0x3ed635483d6b9b85U,
  0x3eb0ba4cbeba5acdU, 0x3e1fe6223d919577U, 0xbe995c353d49d510U, 0xbf09661a3ea76434U,
  0xbd8b09a4bc120e40U, 0xbef82d243d3b3ab6U, 0x3c38d304bbf6efb6U, 0xbe106636be2adca6U,
  0xbd30a0bc3cbf7077U, 0x3d502ab83db6346eU, 0x3e58e76a3d8dad40U, 0xbda80f633c2ee4f9U,
  0xbe0610c0bdb4ec36U, 0x3e344521be22027aU, 0xbd550144be9f85c9U, 0x3dfdcd4fbe1e9f2cU,
  0x3d8821223dd9866fU, 0xbe123b1dbd4390b8U, 0xbe346a8fbeaf1411U, 0x3dfb1a8dbc72dfbbU,
  0xbe897d93be37d4a0U, 0xbde41c70bed09f6cU, 0x3d980732be4d45f5U, 0xbe4e4520bef3bd06U,
  0xba4496143eaca1c4U, 0xbe5cef8dbe9eb306U, 0x3be84c53bd2ec645U, 0x3dbd99c2be6043f4U,
  0x3ecfd6633e46d8b8U, 0x3d840f0fbe2e6262U, 0xbef47fbe3da96160U, 0xbeb728a6bdfccd28U,
  0xbee351833e42790fU, 0xbdcf774abe2fdc80U, 0x3e1dcdd5be870152U, 0x3ecf88dcbf02985dU,
  0xbe0282fbbdca4695U, 0xbda712cf3dda3d9dU, 0x3a80a0a53c3ca252U, 0x3d339c373e884202U,
  0x3e1d5856bd071354U, 0x3ea72d243dddb321U, 0xbdc53074bd9beca3U, 0xbdf3cf89bde08e62U,
  0xbe234f44bdafa57bU, 0xbeada6c3bd296951U, 0x3e91ac53be0d3caaU, 0x3d96109d3c9e4222U,
  0x3cad51d33db8bbe3U, 0xbcb4a3bdbd6ae518U, 0xbe2e3086be35857fU, 0xbe487b45bc6c6a45U,
  0x3d419664bd3fe053U, 0x3e18809abdd6c6c8U, 0xbe46fe063db852bcU, 0xbd6bcd73bd4b0fbaU,
  0x3e1cb4e63c7bfb54U, 0xbe06b2a4bde9ae9fU, 0x3e2423ed3dd8f156U, 0xbc6305c8bd3f8e57U,
  0x3d4f7429bcf218daU, 0x3b611a10bbfad86bU, 0x3e1d3f96bdb4035aU, 0xbcdb702e3caab1edU,
  0x3e61f129bddd3f91U, 0xbddec8e4bc827d6fU, 0x3dbcd1e23e268720U, 0xbe1a9a853e19255bU,
  0x3e3681783c0c1063U, 0xbd063b14bdee97a6U, 0xbda12479be0b2948U, 0xbeb1c895bc10de85U,
  0xbc91a3df3d910286U, 0xbebc94e6bd0dcd67U, 0x3de869253e738d29U, 0x3d2e8de0bd4b9ec3U,
  0x3e30f77abd90a2d5U, 0x3df7d9adbd5b01c9U, 0xbb3a356fbd59a3f0U, 0xbe16f521bda53276U,
  0x3e170fe5be4b374bU, 0xbe2338e1bcbf1639U, 0x3d90dc333c9c25ffU, 0xb8ea7eac3dbcd888U,
  0x3e9c4c1cbcf33662U, 0x3ebb2c333c8fd151U, 0x3d2709d63e29c3e1U, 0xbdc16a42bda3785fU,
  0x3f2c20f63de9f265U, 0x3e8ccbeabc0fcfbcU, 0x3e51c1ccbe039cd0U, 0xbdc97694bd45498eU,
  0x3ecf50e53e272c65U, 0x3dc89f34bee0a24bU, 0x3daa7418be2bc8c7U, 0xbe96debfbe33f4e1U,
  0xbe70d0e83db9a859U, 0xbed5c377bd880bedU, 0xbd070d9a3e4af4b0U, 0xbcae4927be2aac45U,
  0x3d98bba73d9e9a0eU, 0xbc6ea949bbcccee1U, 0xbe93b50f3d4d5957U, 0xbe012369be7289fbU,
  0x3b5202c63d52e1a9U, 0xbec9082b3ccadcdeU, 0xbdf21e893db96086U, 0x3e023b023d53e296U,
  0x3c9d8b35bdc60c7cU, 0xbe2c98ccbf02750eU, 0x3da9297cbe8d1723U, 0x3e4072c4bde91115U,
  0x3e9eed4bbe426976U, 0x3cab4dadbd90f959U, 0xbd5db119bdce61bbU, 0xbbb74a583cb390a7U,
  0xbccc9a9a3e0a1622U, 0xbd9461063c5637feU, 0xbec00082bc1b9e6eU, 0xbd032d9abf317027U,
  0xbf3583ff3b37632bU, 0xbe34a97cbda9e1c1U, 0xbe5fee113e93e8e7U, 0x3db1c2e13ecb0fa9U,
  0xbf235436bcf7494cU, 0xbf0628c7beb177e4U, 0xbd95eb21be7bd477U, 0x3f1ee5153de5f2e1U,
  0x3eba4199bea516beU, 0x3e8b8c693c86226fU, 0xbec8e2debf17ed8bU, 0x3e622d023e87cec7U,
  0xbe8cad55be321849U, 0xbeb3e21f3e1d7620U, 0x3e2a6a013e18abd7U, 0x3c4daf13be500d1eU,
  0x3ccd9df7be6baf1dU, 0x3e7badfe3d89cbdcU, 0xbd185ae1bd362d48U, 0xbe2c63b3be059cddU,
  0x3c98cafb3d707a55U, 0xbe0535ebbccbdc06U, 0x3e1e3fbf3d92c0aeU, 0x3e06eda2be113b45U,
  0xbe9105b3bbf77c7eU, 0xbcf0f555bea3767cU, 0x3e44adc2bcd34389U, 0xbe0a7d3d3d8ab1b4U,
  0x3c4fd4f53e09507dU, 0xbdd203e43d9664fbU, 0x3e1149ac3e0c3aa6U, 0xbe22a05fbde8e9f5U,
  0xbe1c5e95be77608dU, 0xbd82f4b93e0f9f85U, 0x3e3b33183d793594U, 0xbe28d9063d0e2d4cU,
  0xbd4f82cabe986c2cU, 0x3e1965e6be04d3a1U, 0x3d6879ebbd92bab7U, 0xbd028f0c3c634b0eU,
  0xbdedee8ebea9e75bU, 0xbdf74d9fbe216023U, 0x3dae5a233db8ff75U, 0xbe39b2aa3ec6fd83U,
  0x3ec378503e95367dU, 0xbdda356ebd4d1075U, 0xbdad8d433e32a4d9U, 0xbe543e7ebd5faebbU,
  0xbe5d6345bf16f52eU, 0xbeb46c71bd242843U, 0x3e03e6e63ced657cU, 0xbe852767be61c5c4U,
  0xbbc742b6bef123a5U, 0x3e8772acbbb2b814U, 0xbe0e0012be545a1dU, 0xbe509940be1c95fbU,
  0xbd4fd43fbf41e5dfU, 0xbdd03e9fbdfb3b08U, 0xbdfc00df3eb074feU, 0xbe8508b33f0e2be0U,
  0x3d238db03de12b4fU, 0xbe67cdf43bcdfa98U, 0x3ea57f12bf13493fU, 0xbf28dabfbc9fd155U,
  0xbcc410f1be41e08cU, 0xbded4512bd2ba23eU, 0xbf397a7a3df0d6b7U, 0xbdd0a067be2251afU,
  0x3e78af0ebf085544U, 0xbe2002c6be72186bU, 0xbc23c5633e7d1155U, 0xbebf50d03e47344aU,
  0x3e926f2fbe92dbbcU, 0x3e9e3edbbe4a94fcU, 0x3f01a564bb9ee0a4U, 0xbd6bc0e7be131b8fU,
  0x3d0a36463df64470U, 0xbb98385f3dfdce3bU, 0xbe17c8d6be5cd0a0U, 0xbe28f4b3bed4aa98U,
  0x3c15cc68bed84dedU, 0x3cf1b74e3dba102bU, 0xbe5ae59f3e2a3486U, 0xbe622d66bddf9710U,
  0xbbf6f7fcbef9c66bU, 0xbdd9b2e3be5a827eU, 0xbe3910c03be3d822U, 0x3c0937063e777f9eU,
  0x3e64a1fcbef9f2b4U, 0x3e740ce3be3977dcU, 0x3e0fa5533e206355U, 0xbe3613bc3d35a6a1U,
  0x3e5ff3bb3ca76518U, 0x3cfad3a0bc413028U, 0xbf6f9e1cbe4b521eU, 0x3e9c2fc8be558c9aU,
  0x3d2bdab7beb48307U, 0x3c8c87c8bf34db34U, 0xbe1ba62dbe178112U, 0xbda092d13ddc8928U,
  0xbebc9f4abf05d51fU, 0xbe194ef3be053e55U, 0x3d03f214be9db90fU, 0x3ee9f53f3e223800U,
  0x3c3b08ebbf1ef0dcU, 0x3ce01b53be142c0fU, 0xbe758538bda97ffcU, 0xbd3ccda03e43ae88U,
  0xbe7493c23e397a51U, 0xbda50799bd4f5b83U, 0xbe350734be7d3189U, 0x3d02cb0bbef2a897U,
  0xbe41b4903e8be939U, 0xbe07792abe61291fU, 0xbf0136fb3e508ab2U, 0x3e069bcfbeea4788U,
  0x3ca82c243e80acecU, 0xbed4c596bdf193aeU, 0x3e7201b63eb660fbU, 0xbf0051413dcc1697U,
  0xbec14beabd169434U, 0x3e0bead7be17f93dU, 0x3edba16dbddee9d6U, 0xbcce503dbeae6cbdU,
  0xbe3e9a013c759460U, 0xbeb6df9dbd95bcc7U, 0xbdfa3490bde306e9U, 0xbe24ab023e206838U,
  0xbe651ae23ee23b7eU, 0xbe0fb2acbd2c6141U, 0xbda105883e152879U, 0x3e5507d3bed4cdadU,
  0xbe92cb853eb653d7U, 0xbe9714edbea9bb96U, 0x3d97a2403ec8d729U, 0xbec954e83eadb6feU,
  0xbc233b0bbe63b679U, 0x3e3350dabe2cb205U, 0x3e0252fabe4167ccU, 0x3e1864cfbe99fab0U,
  0xbe2c865a3f0d48a0U, 0xbdefb1f43ea06545U, 0xbeca321abd71b1a5U, 0xbe45429ebf3e6cacU,
  0xbe2dfce73edb68a6U, 0xbe4e5ee5be6a3005U, 0xbea45dac3e072c2dU, 0xbead3d8dbe4c42d7U,
  0xbf16e61a3f0da28bU, 0xbf1a9384beb4e561U, 0x3bb7ef893eeadb80U, 0xbdc09cd73f3aafc2U,
  0x3f489b1dbf0df579U, 0x3e5aa4013d6b6323U, 0xbd4856ccbe8e8d7aU, 0xbcf42aae3db62dd5U,
  0x3ee8f1193e1789ccU, 0xbe8a371abe76a613U, 0xbe556b343e4411eeU, 0x3d179fd4be346b9aU,
  0xbe6dc9bbbdfa7763U, 0xbeb1332e3d9a39b2U, 0x3ed85b493cc811aeU, 0x3e6aa40ebe9ec521U,
  0xbd5b54c0bd496c97U, 0x3ed07badbdb8d989U, 0xbe40237dbe631316U, 0x3d73814dbeb19041U,
  0x3e4678a9be092d24U, 0xbeb77157bcdc0f38U, 0xbe13de2b3eb938e2U, 0x3e79b13b3ec0b779U,
  0xbd84e4b03dac7ce1U, 0xbeb404d0bbc1fe74U, 0xbc5430d9bb2da7f9U, 0xbda9822cbedf55ecU,
  0xbe1173acbec9449aU, 0x3e6128eebdb0081fU, 0xbcd0208e3ab357dfU, 0xbed0870cbeb386e4U,
  0xbebf5faabe7f0858U, 0xbdf71a4bbdab4693U, 0x3ebe9f45be044e39U, 0x3cb6f549bd5a47c6U,
  0x3c91ed20beb40491U, 0x3d28038cbd1bc7b7U, 0xbd9b2fa13d96d12dU, 0xbf3d805a3e89ea54U,
  0xbf0750573e0f1a4fU, 0xbe6b35eb3d9d3e57U, 0x3edf1eccbeaacd4eU, 0xbe083289bee96400U,
  0xbdf10748be85b541U, 0x3e39d96b3e23b139U, 0xbf1147fd3cf0e842U, 0xbe7db851be698826U,
  0x3e41a845be3377edU, 0xbf09f8863e612049U, 0x3de770553e1b0675U, 0xbe228cec3ee9abddU,
  0xbe52b6013d4b660bU, 0x3eceb076bd8cefbeU, 0x3ed60263be892d6cU, 0xbed1cd94be740b0eU,
  0x3dc1aeabbd056ae6U, 0xbf115b82be2824cdU, 0xbe4cb2f0bb8503c9U, 0x3e284586bed69695U,
  0xbe11ac44bdc93c6dU, 0x3ce61799bddabfadU, 0xbcad5268beb11688U, 0x3dee730a3df081d3U,
  0xbe502bafbe5bbf94U, 0xbca14db53d20625dU, 0x3c1be66dbe8bb826U, 0x3f000356be05d90fU,
  0xbdf2bc89bcfd9166U, 0x3d3ddad33d0b6df2U, 0xbf02ad34be000ceeU, 0xbe0a6cb23df8bfb9U,
  0xbed511a33d000a08U, 0xbef0b7a1bf24fb86U, 0x3d8c2d193e7cf912U, 0xbecb1c5cbf649b06U,
  0xbe590f9cbca74216U, 0x3d8089503e021736U, 0x3d22f221be61ef41U, 0xbe0e7cb6bc18d162U,
  0x3da7a42fbe04e84bU, 0x3e21a4a8bcb19d4eU, 0xbe9679adbea15e1bU, 0x3c9ad1f43cd24450U,
  0xbe61eaeb3dd7248eU, 0xbe7e521f3c73916dU, 0xbe443cccbdae6173U, 0xbe5d3511bdfe5126U,
  0xbdfd47013ef29c52U, 0xbebe6183bf03654eU, 0x3de17501be5e46f1U, 0xbf2ebc00bf20a698U,
  0xbeb3a8e23e722569U, 0xbd2b435e3eeaefb2U, 0xbe8d47f53c0f04d1U, 0x3d50a985be9e1063U,
  0x3d9c8aed3f1c7429U, 0x3df81cc3be8d3b77U, 0xbea2dc8f3e7557c5U, 0xbeedcef03f2acd9aU,
  0x3df4d2333e314946U, 0xbdebd2f73c6da649U, 0x3ebcbeacbe7f5b4bU, 0xbe7c98b03dccdf0eU,
  0xbf363f06bf7a3025U, 0x3d623b57be538109U, 0x3d648d663d64435aU, 0x3eb845143e0186d5U,
  0xbce5dc263f3f25d9U, 0xbeb4de5bbe44631eU, 0x3cb0607bbd8d07c3U, 0x3db494ecbdd1b2fbU,
  0x3df64cba3ed65de3U, 0xbd9b227cbf25b663U, 0xbeed3d553e97beeeU, 0xbe8e6cdfbd886af2U,
  0xbf001cbe3dd1c0ecU, 0xbeb9a61abf652ae5U, 0x3eb3ddb9bebd7da2U, 0x3e8b5807be8a8a67U,
  0xbeda916cbf35ac84U, 0x3d8ecd8c3d2885ecU, 0xbe622382bea17a68U, 0x3d8c3a803dce88daU,
  0xbeaa713f3f83ead8U, 0xbe9dbeb1be9524ccU, 0xbe2afe2f3e960f19U, 0x3eaf8ff0bbba82b9U,
  0x3d6bf8c83f0e695bU, 0xbe990023bf04f23dU, 0xbef4cfc83eba674bU, 0x3d95d3923e61b6a0U,
  0xbeabd2823ca72d08U, 0x3de3b089bf0c69eeU, 0x3dfcdd9ebef16a19U, 0x3f5cfa4bbf19b3e3U,
  0x3f5630283edc5d4eU, 0xbeb56e893db529e9U, 0xbeda548a3e7610e1U, 0x3be57913be98132eU,
  0xbf270c5d3f31abafU, 0xbea625023d984be9U, 0xbdaefac03efeeab0U, 0x3da6065b3f0db394U,
  0xbef0899f3ec4695bU, 0xbe3041a63ebbd6acU, 0x3e0bba82be9f2602U, 0x3e9788d7be535358U,
  0x3e7e5387beac1cf1U, 0x3e11cfb43f545bd5U, 0xbe5b2d383d439d87U, 0x3eb97ee13f0c1848U,
  0x3e9121273effbbd5U, 0xbf34fb56beac8978U, 0xbe8805d6bf5a3afeU, 0xbf94e481bdd9190cU,
  0xbeac93b63e182937U, 0xbf1c67b4be7ec71dU, 0xbea31fe5befc2dbaU, 0xbdb88964bebcb231U,
  0xbe9935e9bd7c5305U, 0xbc08d17d3dba5c68U, 0xbf2440b5bdf1f7f7U, 0xbf5ffde4bd73eb4aU,
  0xbdef568bbf5520e2U, 0xbf70bbfd3f1ea340U, 0x3e713215bda66296U, 0xbcc526bc3ecac125U,
  0x3e9f81383f18c287U, 0xbf65f6a5beb9ef8bU, 0x3ed77d4a3c7edc0fU, 0x3e5466f9bf653703U,
  0xbe9489da3dc120efU, 0x3e6e04273e978da5U, 0x3e577f5a3fa7d429U, 0x3ee05a45beda2361U,
  0x3e3195de3f580c47U, 0xbd7da7c63e4abd4fU, 0x3e4f1a803f3aa473U, 0xbe1034733f3fca6cU,
  0x3e94151a3e23fd25U, 0x3f56dd593ee46c84U, 0x3fa59d233d03c173U, 0xbdd1e16cbebc1eeeU,
  0xbf909807be205160U, 0xbe8769363dfd5e7cU, 0xbeee9c0a3e8b6ba1U, 0x3e51866a3c2a807fU,
  0x3e837a12bdda87a6U, 0xbb14ea803e8dc192U, 0x3cadbbefbf3606b8U, 0x3ec6818e3e55cf5aU,
  0xbeb647a2bf8ba889U, 0xbe1b68ba3e7a4de1U, 0xbdbe113dbf20d562U, 0x3e9bed95be5391d4U,
  0xbed9d30ebd5df2b6U, 0xbe66ba37bccdcff0U, 0xbfa91c91be18dea5U, 0xbee89aa9bdde5731U,
  0x3d8423523d941de1U, 0xbe46a9dabc3e84faU, 0xbd9968883d90f6eaU, 0x3d96dcce3cb3be2eU,
  0xbdb347273c7a17c2U, 0xbe6297c7bb6bee3cU, 0xbcdfa3a73da7a623U, 0x3dbb8e933e27cf21U,
  0xbbd9c3323c97c9a9U, 0xbd053c0ebe022eabU, 0x3d2ac5913c08d26aU, 0x3d8aefacbd8cc6e5U,
  0xbd59f7a2bdeeb31cU, 0x3cffd3003d737d15U, 0xbd9113dfbdc640caU, 0x3d7e91d13e923b50U,
  0x3d352a79bb24f017U, 0xbcc1ee1dbd9c5122U, 0xbd12ac79bd6185ccU, 0xbd4136433c21eae2U,
  0xbdbf6c163d215af9U, 0xbe5f134abc2b3b26U, 0xbcf0bc583d832a3dU, 0xbb6141743ddcc848U,
  0x3bd73e333d3528b7U, 0xbcc5b962bd8e338eU, 0xbb051ada3d669d16U, 0x3dabaf69bdf1ae29U,
  0xbbc8a11cbe8a5f31U, 0xbd2a090c3c5665c7U, 0xbd4d7b83be23da06U, 0x3d0620ab3e1e2aa4U,
  0x3cb9c315bb9e73b8U, 0x3cf3e1a6bd952a53U, 0xbdc604c1bd6f4317U, 0xbd95c733be6cd5a3U,
  0xbe81b9b43c266ddaU, 0xbe5c3eabbd6981c0U, 0xbe09dc4e3e021498U, 0xbdbd91bb3dfb9ae2U,
  0xbd4300303da16a31U, 0xbe2fb94abe6299e2U, 0xbd33f4063d020974U, 0x3d99924b3d4ec49eU,
  0x3bb090e9beb02891U, 0x3e4b7ad5bc55ad97U, 0x3c09f540be3c0714U, 0x3ce52ce33e446a9cU,
  0x3cf8a5d1bd914713U, 0xbe07d3e53c457e13U, 0xbe15b1b7bd8aa5ddU, 0xbe1208fdbe0f9b28U,
  0x3e0174d93cbe39eaU, 0xbe9af1b73cb3e070U, 0x3df01e79be1cb957U, 0x3caee387bda1e175U,
  0xbd308283bdea8b58U, 0x3b4782d6bc26158cU, 0xbe05c763bcc19b9eU, 0xbe2c2cf5bdaa6050U,
  0xbdf36e40bcc31aa2U, 0xbd9d499bbd276b19U, 0x3d898d353cf6187dU, 0x3dbfa74bbd8387bdU,
  0x3dcd2fedbd18a893U, 0xbe24152d3e0503bbU, 0xbe220053be280bbcU, 0xbac0d764bd85feeaU,
  0x3e0f0ecbbc7cf331U, 0xbe96942e3b4c0724U, 0x3dc9de79bdd19abeU, 0xbc8bba40bd878265U,
  0xbd8770d9bd578462U, 0xbd45658fbc0b3576U, 0xbcb50bc7bd13481bU, 0xbe33a19ebd56b40cU,
  0xbc24a6cc3cbb63b0U, 0x392b6fbcbc39b047U, 0xbceb846dbd03af07U, 0xbdf254aabe07de77U,
  0xbd52c4d83c5a29e5U, 0x3d56e8a33d98643bU, 0xbde62ad7bd2822c9U, 0x3e8920003d32bc16U,
  0x3e2d5a2bbd5c6d43U, 0xbcf2a73dbd106b88U, 0x3cc2d663bda80be4U, 0xbd6b9b963cbd5bd7U,
  0xbe42c981bcbcd678U, 0x3db160943abf95faU, 0xbab957e23c4aaf80U, 0xbde82b39bd94b334U,
  0xbc8970f43d1abe14U, 0x3e20ed36ba8cd44aU, 0xbd803a7f3d51ba63U, 0xbe05673cbd6be274U,
  0xbd9b6899bd3d806fU, 0xbce1b547ba96af80U, 0xbebe88da3a14396cU, 0x3d5396b7bd94e759U,
  0x3dff9ebfbdab0a77U, 0x3ddb54bebbbe8ecbU, 0xbdf205d1be350344U, 0xbe3a940fbdff292bU,
  0xbcf7e1c8bd062fe7U, 0xbd7a2acabd5b64c6U, 0x3d920e21bdaac57cU, 0xbe3179febe3e80d7U,
  0xbc1825e4bd2e8616U, 0xbd924cdbbc776decU, 0xbdaaefdbbd0b2104U, 0xbd75e2edbd982deaU,
  0xbd9b4b8e3c8738b5U, 0xbd9443ee3d8a9e0fU, 0xbe4b2ec4bd64c84aU, 0xbceebef8bd0e763dU,
  0x3d8812debd83dd30U, 0x3d1c0c0ebe1c0c27U, 0xbdd55fda3c2ee0d0U, 0xbe11d8ebbe06b9a2U,
  0xbcc52d4ebdc5eed0U, 0xbc40afc93d43d689U, 0x3c4ee749bdda0979U, 0xbe134124bdf080bcU,
  0xbe0fcc48bdf54c5eU, 0x3dc5e343bc9e582dU, 0xbd7b9ad33c280b14U, 0xbda562a93d4775b4U,
  0xbe0361a63dbd9b10U, 0x3bca775c3dde1ddeU, 0xbe166d4dbe037e58U, 0x3bd608dabe0f6e5dU,
  0x3b66b65ebdf1959dU, 0xbc0251fcbd92344fU, 0xbdff93f9bbf7f54eU, 0xbdd5c0dfbe10267bU,
  0xbd00056cbddd0e23U, 0xbe137f71bbf794b8U, 0x3d72d8a0bdbe9094U, 0xbd956d95bda9e10fU,
  0xbe1a98bdbdc4f8f5U, 0x3de2fd14bd82188cU, 0xbcb7b7143c46ab8cU, 0xbe25da53bd3f28ebU,
  0xbe04d494bde02705U, 0xbe68f4773e0af8bfU, 0x3e8b3d42be7c50c3U, 0xbd8739bcbd71e830U,
  0xbdf16a783cb85034U, 0xbd85cf153e28977bU, 0xbe579a94bdbb291fU, 0x3e3ce0c2bde4209aU,
  0x3d8b2734be1604d6U, 0xbea92cb5bd0d4408U, 0xbc861d6d3de3d115U, 0x3dadebf33e9a4059U,
  0x3c58a2fc3e2f3e14U, 0x3ecf0fcc3bb4ab5cU, 0x3e08aceabecb6969U, 0xbe0d8954be485cf1U,
  0x3e60b70ebd04b6e5U, 0xbe2a7cbc3e0256d0U, 0xbe5754a7be30736cU, 0xbe512ec0bd110867U,
  0xbdd8ac06bd53689cU, 0xbeca59b3bde62be4U, 0x3d94a4ce3dbe86e4U, 0x3e5d319d3cbb95e2U,
  0x3e7211e4bc1faee5U, 0x3d9ff7ebbd9e982cU, 0x3bc884e03de15ce3U, 0x3ddff5173eb34ac8U,
  0x3e802ee0bddefef3U, 0x3eaaf3cdbc8c6951U, 0x3e476c7cbe8dce94U, 0x3e346104bd15df06U,
  0x3ef18a9e3bda2cbfU, 0xbe0f68d5bdad2008U, 0xbed7cd343e8d87e2U, 0xbc8791253e2236dfU,
  0x3dab5bfebe78c650U, 0xbcc93de0be78ccf6U, 0x3ebffedc3e56ce74U, 0x3ea97074bd3c295fU,
  0x3e3a94eabe26f6f2U, 0x3eabf9cdbb36ced2U, 0xbbf16dbdbe4f07ecU, 0xbd2150d9be81ac58U,
  0xbea6a24cbf12c910U, 0xbde97080bd1da18cU, 0xbeba3a033d82de17U, 0x3e84ed6d3eae5c4eU,
  0xbc9a3e6e3e1cde0aU, 0xbe1c33db3d95fb1cU, 0x3e099626be67f399U, 0xbe70ce41be05ac93U,
  0xbdcc9d76bbfed20fU, 0xbd6ffb3fbd6192beU, 0xbec37c753e72f5ebU, 0x3e30175ebc87c533U,
  0x3dd0b7773e9a9f93U, 0xbddd97cfbb6a40d5U, 0x3dd14f703efa211bU, 0xbea7bea03ebbd632U,
  0x3d1b77e0bdb2578cU, 0x3e97f5ea3d96e537U, 0x3ead22103d2d24ffU, 0xbe8eb08f3de79032U,
  0x3d3e3fcdbe128e03U, 0xbe7e466dbe79d205U, 0x3ed68b09be5e10a2U, 0xbece22f2bed79597U,
  0xbe37c8833de5250bU, 0xbc6e83a43e5377e6U, 0xbdef2e36be0491beU, 0x3ca17ababe22c80eU,
  0x3eb968943db8e4ecU, 0x3deedeab3c1b9b13U, 0xbeb8259a3e18ec1dU, 0x3d174e883c50f3cfU,
  0xbe826a953dca8999U, 0xbe14624fbd6cff2dU, 0xbc9d183dbe4cb877U, 0x3d9193d5be1e0fcaU,
  0x3e1a8449bdcd3904U, 0x3c8ea204bb71c9d3U, 0xbed2a8973e544319U, 0x3e3d06c9bedd5c9eU,
  0xbe76e4fabea5d094U, 0x3d08ab623a5830f4U, 0x3e98e2f4beb6d9a5U, 0xbe084bc73e26804aU,
  0xbecfd41cbe9d7e44U, 0x3e1607f53e7edd9fU, 0x3dd1cd50bef3648eU, 0x3ec5e89cbe3e9cceU,
  0xbded45633d9b4f2aU, 0xbecf086c3b28131aU, 0xbf1a49bebd68bf4eU, 0xbda77bd43e189adeU,
  0x3d33d9d6bd1a7ac8U, 0x3d8b21ff3e0e1014U, 0xbe92b47ebdbb8c67U, 0x3e1410adbe55cdefU,
  0xbdedd17c3dd744eaU, 0xbce11821be7f6722U, 0xbe2da4acbd7c8f01U, 0x3d2262c1be28b958U,
  0xbeb059343ea051d7U, 0xbebbc0cfbe5ec9a8U, 0x3e3fb3423e215107U, 0xbcccd065bd35e18eU,
  0x3e1f71303d49e495U, 0x3e4f2c95bded188eU, 0x3e03e02cbe14ca23U, 0xbd9f4c58bd8867e2U,
  0xbf0b553cbe9327a3U, 0x3e4c934e3ea3a3ceU, 0xbe0e0bc7be1386c1U, 0x3e5a26cabca77cefU,
  0xbe220d07be626c8aU, 0xbd1a602dbed4a2f7U, 0xbe5592e1bc153beeU, 0xbe6ca965bc18fbbbU,
  0xbe37674fbe70a1f7U, 0xbe8c6b3bbe26f357U, 0xbdaea872be81714fU, 0x3e2f4b7a3ee13318U,
  0x3e9603033cea46dcU, 0x3f03d9a9beffec58U, 0xbebeed3ebe6ba38fU, 0xbe504552bd9e4081U,
  0x3e5027c7bea7f7a0U, 0xbe6071d3be615925U, 0x3e8c0bddbc92d0baU, 0xbe84d2253ea2f1d6U,
  0x3e27bbd0bc4ca08cU, 0xbd5cb0743dd854ebU, 0x3e01a1713dd23461U, 0x3b8c73ac3e7b24dfU,
  0x3ec9d0fcbeb4f651U, 0x3e9b97d7bcaf99faU, 0xbdc83c613e19ae7eU, 0xbe0ab3ea3ec8b599U,
  0xbe104decbe1083e3U, 0x3d91dc61bd911fb0U, 0x3e8b48293c032039U, 0xbe9108533db951ebU,
  0x3e9d19db3e68f76fU, 0x3c7fbc2abdf3971cU, 0xbdc1b9f1be413982U, 0xbdeeca53bdb34726U,
  0xbe7496233d8cf8bfU, 0xbed7f6de3d072927U, 0xbe83672c3cefc2caU, 0x3d949f18bf5e49baU,
  0xbe2bb7793ec37f03U, 0xbe849774bf11d00dU, 0x3e16ba3e3e950f02U, 0xbf002fae3dd076dcU,
  0xbe25ed42be5037a0U, 0x3d978251bea72583U, 0x3f475f13bdcdd348U, 0xbe1e8528bea3ba32U,
  0x3f23c42e3f5e7ffcU, 0xbe98a3443e097df6U, 0x3e1a4cfcbe0e30e0U, 0xbee567fdbdfacc20U,
  0xbec7c4693e2a403cU, 0xbe3aaadbbe337e7bU, 0x39d9127d3f3c4fc4U, 0x3e34f15b3ee1ea65U,
  0xbe7709953ed84164U, 0xbe1a1f0cbd310077U, 0xbe2d1d91be47b2f2U, 0x3ed7649e3ef36b06U,
  0x3fc82c92be9bd2e0U, 0x3f1dc4963ed6e294U, 0xbf24cfebbea40845U, 0xbeb735ce3ebeb1c7U,
  0xbf7752b8bee02c2bU, 0xbe92822bbe956022U, 0x3e955f6b3e1efc95U, 0x3e12ac963e990d00U,
  0x3e37f46dbe3b0816U, 0x3e843e463e6fc989U, 0x3e56f8dfbe70e324U, 0x3c6fdfea3f1e7550U,
  0x3e277c17bf1caac4U, 0xbd9cf507be0b7361U, 0xbe8e71f43d9fe320U, 0xbe9b768e3eaaeadaU,
  0xbee727cc3e0f122eU, 0xbccec715beb309f2U, 0xbf2bd920bec66c59U, 0xbbd716b23dda6d3cU,
  0xbd84bcafbe03b30dU, 0x3c584f26bd0d8efcU, 0x3e542722bdba6f37U, 0xbe5745b9bdc7c4aaU,
  0xbd86238bbda4ed27U, 0x3b0eb5753d55104eU, 0xbe7b93d53cc68d5bU, 0xbcf42e303bd30a5aU,
  0x3e1f7733be1eeb00U, 0xbcf3b5ccbd3f3fc4U, 0xbdafb73abccce26aU, 0x3c6925a33bc5cb94U,
  0xbe2f6c643d609149U, 0x3d45c14fbd2fbdc3U, 0x3cd881a03d76ad74U, 0x3ce97c01bd8f236dU,
  0xba77e7babd31cf13U, 0xbdec055e3d0a6116U, 0x3c8270dcbd7eeffcU, 0xbc8a00edbd8f93f7U,
  0x3bb4268ebd8ea43cU, 0x3d29623a3c88b356U, 0x3d037b3abd9f99a8U, 0x3c20af543d2c4a29U,
  0x3d521197bd962ba4U, 0x3c2b6b46bbaa3cccU, 0x3d9d0e11bcc8e29cU, 0xbddc21b5bd3d6e68U,
  0xbd21dfe9bd900381U, 0x3a1e38523a89fcd0U, 0xbdf6832a3d49ea72U, 0xbdc4c109bcb2c823U,
  0xbd091a94bc6f3f03U, 0x3db176553dba1d4fU, 0xbebb617e3e2554aeU, 0x3ea8b3cd3e005770U,
  0x3d8da16fbd07351eU, 0x3d08a4debdc497fdU, 0x3e3c48d9bde4e381U, 0x3c286fb63c2b024aU,
  0xbe4491c7bcff695cU, 0xbdd335e83d075ac7U, 0x3dd0093abc6e051aU, 0x3d115358bdaed5aeU,
  0xbcd347f7bdc7894fU, 0xbe2a0793bb573a38U, 0xbe55ab88be0d7d5eU, 0xbe1500ccb9e05f9dU,
  0x3da6fd1e3e7d20efU, 0xbe160000bda1767bU, 0x3d3738033dc1f950U, 0xbe6f78d3be905559U,
  0x3deecd60bf1fe138U, 0x3e7506d83d6c6f4cU, 0x3cae2b67be4e05f4U, 0xbeec279bbe1a0f1dU,
  0xbd45e882be82dfe0U, 0x3e18fa03be0da31eU, 0x3e3ee704bdb7d995U, 0xbe0d3b93be42ebcbU,
  0xbe967a24bf255d7dU, 0xbe035e8bbe00b928U, 0xbd46e1103ed551d0U, 0xbed70a823e245082U,
  0x3ededa2c3ee73066U, 0xbe423f5fbe9f6b98U, 0xbe8f8ab6be0886b0U, 0xbe18f11fbbb1e63aU,
  0xbe674cb4be0b5e85U, 0xbea9131cbe06419eU, 0x3e37c1293e0f9acdU, 0xbd090cf4be31dd79U,
  0xbdc1b437be8983f1U, 0x3eb8ff4fbeafb4beU, 0xbde3cbe83c8148f3U, 0xbea6608d3d7ce3c8U,
  0xbe152444bf73cbe8U, 0xbdeba5a33de076c8U, 0xbdd9fcb23eafb4f0U, 0x3dd8d8ee3ea30f37U,
  0x3f1f25513f08db7fU, 0xbdd45f2ebe42b3faU, 0xbe790929bee78dbcU, 0xbe0e4e43be37619fU,
  0xbee3bbde3e3dc1fcU, 0xbf4ce1cdbe9fd4d8U, 0xbeb513883edab3c2U, 0x3e4b431cbe9683a8U,
  0x3c81eb683d5da529U, 0x3dc040a8bcbe3931U, 0xbc84ea823e2a159eU, 0xbe38a0f53e80c21bU,
  0x3e493ca0bf288cb7U, 0x3d253c57bcb73a77U, 0x3e783518bd9d87b3U, 0x3e95d8433e16fca1U,
  0x3d9cda673f8a75cdU, 0x3eb251b73e44bf9fU, 0xbe99b8a93dbc9d23U, 0xbe45f650bece5719U,
  0xbeac29683e732db1U, 0xbdee8df8be43f87aU, 0xbdb2b3c03ee1bfbeU, 0x3e1a61513eed24a9U,
  0xbe9a62243e33a457U, 0xbe9f1ad63f48da96U, 0xbe4fd1d9bda626daU, 0x3eb94c373f09e2caU,
  0x3eb71bf7be39307fU, 0x3ec5c2953f89bd2cU, 0xbea5c287beda7cb6U, 0x3eb1ad923f2e07eaU,
  0xbed86a513d997f32U, 0xbe8d69a53e6284c9U, 0xbf0a8fd2bcddeb54U, 0x3cc9959ebe8f2f13U,
  0xbe59b0a0be98f6aeU, 0xbde72c94beacfbd7U, 0x3e2c1adc3ccaee15U, 0xbe9fd3c03f122b29U,
  0xbf423ee4bef70852U, 0xbf22160abd6ec33bU, 0x3da69824bf08f9faU, 0x3f1625d13e9710c6U,
  0x3ea74823bde77311U, 0x3f25baad3d1f890eU, 0xbf70b174bd080797U, 0xbd069991ba900e9cU,
  0xbdd90ff9be765c3aU, 0xbec1ff76bd61a2e8U, 0xbdfe61ff3d478682U, 0xbdf6356abea78eddU,
  0x3e5ca136bea04099U, 0xbeca53ee3e1bb029U, 0x3e80ae4abf20f224U, 0xbe76ffacbeac0feeU,
  0x3da2bd28be20013eU, 0x3cf9f3303d6b4e17U, 0x3e38ed3dbe0ae99cU, 0xbf2330c2bee7d62cU,
  0xbf1a81de3c514ad1U, 0xbefd0bf1bd1c8443U, 0x3d21889a3deafba1U, 0x3e5272f8be7e671cU,
  0xbd70eb97bf21770dU, 0xbe3cfa42bebb36aaU, 0xbec2aede3dc0f877U, 0xbdf74012bf2c9d4bU,
  0x3c88fb4f3df7d5f5U, 0xbef23510bdef3e8aU, 0x3c13d8e7be83fe29U, 0xbda931793eee2df2U,
  0x3e0e5dcc3e8a4e19U, 0x3e28b506bef264a3U, 0x3e411a123e94e2d0U, 0x3cfcec95bde0d292U,
  0x3f1885cdbec7c3f9U, 0xbe0465fdbe922a89U, 0x3c0f1dd73ee89513U, 0x3d5cbdb9bf06663dU,
  0xbf09f5a9beea8858U, 0xbe826635bd7a05daU, 0xbdbaa6afbd559340U, 0xbe54c6e6bf257d9dU,
  0xbedd7a803ed0e1c5U, 0xbf08c213be235e33U, 0xbd0a0d1bbe5b07e1U, 0x3d0189763f4e61a2U,
  0xbe6c32153e7110dcU, 0x3dd0e358be517431U, 0xbebda38e3eff2fdcU, 0x3f0e12be3f7b6809U,
  0x3ea76f50be98f897U, 0xbda6fc5fbec8c734U, 0xbd6935f1bdd1e012U, 0x3d3c3fc0bedca22bU,
  0xbf4344cebf0ebbb5U, 0xbe45abef3ea8cda8U, 0x3c164fb03e2ea006U, 0xbe529b0dbebacc84U,
  0xbf1095843c338c90U, 0xbebfb266be3b9022U, 0xbecbffeabec75cbbU, 0xbe6346f93f1c53baU,
  0xbee24a2c3e45284bU, 0xbdd19219bf11b1a1U, 0xbeec6f0f3ee87905U, 0x3f804c683fbb5a75U,
  0x3efaeac5be741519U, 0xbd3e5318becdeee2U, 0xbea35063be4ec06cU, 0xbed08468beb24c49U,
  0x3d8c87f33eaf755cU, 0xbe3267d23db8888dU, 0xbe3ec824bdb5caecU, 0x3cce4fc93ea5c5efU,
  0xbe109fa83e1ee007U, 0xbde75573bdb3e902U, 0xbde85df93efc6cadU, 0x3e7ff9683e85cee3U,
  0xbea7dc083df77ec1U, 0xbdd1a72c3cd13fddU, 0xbe397e4f3cc159b0U, 0x3e0c17893e8dce64U,
  0x3e71df6cbee3f552U, 0x3ed887753e94d696U, 0x3d1c1b25bd1bca30U, 0x3d1366e33ef9ed76U,
  0xbe44c1b3be2558baU, 0x3c7dad133d99ef15U, 0xbf0387d2bdad770cU, 0x3dcd3b82bdc86742U,
  0xbe01464cbd2a6fdeU, 0xbc6325e9bea8553eU, 0xbd60892bbe19e708U, 0xbe374176bdf91a91U,
  0xbf30b83abd815afeU, 0xbeaa3fc8bdc3204eU, 0x3d911bccbdecb33eU, 0x3e0e114e3d0f6b08U,
  0xbe022291be1e9fbaU, 0x3de246b5be3454c7U, 0xbec30f94bda7441cU, 0xbdad68e23df2531dU,
  0xbebecf30bf0136abU, 0xbe79c4a83d87bf05U, 0xbecba4e6bcbf9774U, 0x3c2101743e826b3cU,
  0x3e1db2333e731374U, 0xbe3cff31be13395eU, 0x3dbd172c3d0a03b7U, 0xbb03e593be888002U,
  0xbec114bb3cdd289bU, 0xbe3a5855be451c61U, 0xbbc67eecbd166bf8U, 0xbe9ae40cbe61d9d9U,
  0xbec9a6a23cc1a9f2U, 0xbe183cadbec51136U, 0xbda06045bd373f15U, 0x3e9303c5be449b48U,
  0x3effd3903e4867b7U, 0xbdbcc7d5bea1e91dU, 0xbe0f41043d872f5fU, 0xbe87614d3e92eeedU,
  0xbe816c543e1b04c4U, 0xbf4812c33a2e29b3U, 0x3db5dc41be67816fU, 0x3ee140783d1c50f5U,
  0x3ddc862c3d6f691cU, 0x3e8276483ec1bbdeU, 0xbe6c7ffd3d6a39b6U, 0xbe2b6272bdb660baU,
  0xbdbb83d5be51f85aU, 0xbe22e9223e60c456U, 0x3e5196b0be0dd0fbU, 0x3efd8c093e8c4b22U,
  0x3e4a25a53e540ee8U, 0xbe50ee4a3dac9158U, 0xbed36b4e3e70a8f4U, 0x3dedbe11be711197U,
  0xbec215a5bdaedecaU, 0xbed49124bd8e8098U, 0x3e16cd00be71661aU, 0xbe891ca8be811cbbU,
  0xbebe4721bd5dd3bcU, 0x3d80563ebda15ef7U, 0xbb4f4eb8be2faea7U, 0x3c73c909be7a880eU,
  0xbd37bed9bede24faU, 0xbee0d9533e0422e6U, 0x3d85ca743ea9a014U, 0xbe7fab953e6bdab4U,
  0xbe9ea0323e43dd29U, 0x3daa5f833e71fe30U, 0xbe6160f03d701918U, 0xbe89dfdebeb51607U,
  0xbed3e042be55542fU, 0xbe168d9f3e362c89U, 0xbe990f6e3d1ed2b6U, 0xbeb359bcbe6c636bU,
  0xbef15dabbdab20d3U, 0xbea6fea53e1b9516U, 0x3e81f7b83bc63a26U, 0x3e52c5d33e0dc7c7U,
  0x3e1e0e6abe99793aU, 0x3e82a2d93d2c9683U, 0x3dd8147ebd739f03U, 0xbf035efb3e0764c4U,
  0xbe71909dbe3099b6U, 0x3d3e1b44be937244U, 0xbe58aa3d3e93e7f4U, 0xbdd2a527be378d66U,
  0xbea5664dbe35752fU, 0xbe38f7c7be98ece0U, 0x3e01e0783d404098U, 0xbdede3363f0b591bU,
  0xbe89d80dbebeab13U, 0xbe62d848be5a7154U, 0xbe91c8cdbde44f82U, 0x3eff44fe3dbf9034U,
  0x3d93a3a5bf05cc75U, 0x3d82e6e53d214280U, 0xbed45ec5bdbfabd6U, 0x3e25a7473eaf43c4U,
  0xbccd7adbbdb94453U, 0xbdc0fc98be47cee6U, 0xbe8380a33e4c093eU, 0xbde882fa3de0f123U,
  0x3d1403643d13f7f1U, 0xbee64c18be773a5fU, 0xbdb513b2be1e9402U, 0xbbb3631a3eeeb454U,
  0xbe1ddef1be6277d8U, 0xbe0eea27bb78b9bcU, 0xbe898bf7bcf52a5fU, 0x3f0d0fff3e24f9ecU,
  0x3e2aa956bf050bc5U, 0xbdfad9df3e0b754fU, 0xbe1308ccbe37b95bU, 0x3e73777abcf1ddc0U,
  0x3d83b76ebe1095bcU, 0xbe1a9f843d1726aeU, 0xbe41958cbeddd65aU, 0xbe095abf3e39c846U,
  0x3dfcf1bfbdae8ce9U, 0xbed7e667be36ba40U, 0xbeee6c09bcabca92U, 0x3b9e5017bdca6f4eU,
  0x3e34ba963dacf61dU, 0xbe7cb3c0bdf730feU, 0x3ef1c22f3e8ac1b6U, 0xbf00ca433ebddd92U,
  0x3e7aa0bf3c4754f3U, 0xbdd73be33ddaaf25U, 0x3f32ee60bcd823f9U, 0xbe956d8dbe8aa9c0U,
  0x3ea595a03f1e5d38U, 0x3b40487f3dcb2880U, 0x3df76d3e3dde2c18U, 0xbe82e9063e1276d3U,
  0xbf034f303f03d53aU, 0x3c6588103e1b0783U, 0x3dc258c03eb68aecU, 0x3ecd1b01be4af857U,
  0xbf0fdf9b3e40fabdU, 0x3d6030c3be8da645U, 0xbe423f483d7475a9U, 0xbe4254603f126bc5U,
  0x3bdd40a1bf258bd3U, 0x3e2b829f3e4a3bfeU, 0x3e306509be811eadU, 0x3e7184123eb9813aU,
  0xbd8e7a463e7da580U, 0xbf26b02e3e10fdc6U, 0xbdfdd4043aa31c35U, 0xbdf68012bed39a01U,
  0xbefb7e243eaa654cU, 0xbea523353e3e172aU, 0xbe39cbad3e70058bU, 0x3de05facbf66d042U,
  0xbee42ea93e3dbd73U, 0xbeb45ab7bf03d64fU, 0x3cc6e7b03de0a72dU, 0xbf21e92c3ee0e473U,
  0x3f1e3857bd6ddd27U, 0x3e35f07cbef796c2U, 0x3efaef67bee2bdfcU, 0xbe6cc35fbe85d8bbU,
  0xbd516a943d87459eU, 0xbf89523e3e97c267U, 0xbcd344ef3d029f04U, 0x3e50f813bdd162a5U,
  0xbdfe29ec3e2eff8fU, 0xbd3627a33e20b2c2U, 0xbd3bbdf8bdb91975U, 0x3b0750d1bf843cddU,
  0xbe3d13c6bdb24970U, 0x3d2d3ddebe4bf086U, 0x3e3ee095bdcc5ab7U, 0xbeaa565e3e0be26cU,
  0x3e552268bca1c58bU, 0x3d963183bd60258dU, 0x3d0ace30bdf7b9e5U, 0xbe468aeebef5f78dU,
  0xbd4fbc8a3de7346eU, 0xbe91d925bb96a9c4U, 0xbea2816b3e675b32U, 0x3d56a850beabc07eU,
  0x3d414384be6cd039U, 0x3e26e893bdf7e2cbU, 0x3df80005bae27ff8U, 0xbdb5ef3dbdc42a3cU,
  0xbe48edc5be96240dU, 0xbea8335fbe8f6ab0U, 0x3e627ae4be70cc8cU, 0x3e589d4abe937dfbU,
  0xbdb820f8be1d69dcU, 0xbe3c15f3bc9b214fU, 0xbe85c0febe756b9bU, 0x3d6448183e886b49U,
  0x3e5178233ea93e31U, 0xbecd6036be2511f6U, 0xbcdd0c9dbb30152cU, 0xbe47d02d3d12652bU,
  0xbe9cda183e006f06U, 0xbf079cd93dbfcc80U, 0x3d829d5ab9cdad76U, 0x3e3d4d293e84d67bU,
  0xbd579026bd9b0ae3U, 0x3cf7e063bdd2912dU, 0xbd22224d3b1e1cd2U, 0x3f0fc5ac3e1b2cdcU,
  0x3eabee1dbec59184U, 0xbeaef6303e67574dU, 0xbdc18c87be65e6c6U, 0x3e5c30aa3e30ddb0U,
  0xbe81d7f83ee2b9ffU, 0x3dfbfb36be8a2070U, 0x3e9e02babe7da161U, 0xbef6b3f63ef5f6f5U,
  0x3e0aa7443da304a6U, 0xbd5f70b93e79472fU, 0xbe78a08d3e2f7e66U, 0x3ef420073d9cb008U,
  0x3e92cd1fbec0f47aU, 0x3ba5b0c23d067639U, 0xbd697fab3d97277eU, 0x3e53c2f63d11e7e1U,
  0x3e29e4f6be540137U, 0xbbd3c5973f0deb44U, 0xbe8048f9be9dede7U, 0xbcdbccbe3eecf2a4U,
  0xbe7d9d8dbd5d702fU, 0xbe743632bc0738dfU, 0xbe781e65be702a59U, 0x3dbe11493da2f7d0U,
  0x3c0cceb13dd20358U, 0xbe23b1bebe35e857U, 0xbe111967bd709816U, 0x3dda06e1be2b47b6U,
  0xbe37e9563dddd086U, 0xbede20cdbde9aef0U, 0xbd524062bda955bbU, 0x3d1aa44a3e63ebf7U,
  0x3d9324f03d585641U, 0x3ea40ea0bdcd9b1dU, 0x3b00998fbec7f08dU, 0xbdc7ac1bbea8c46aU,
  0xbd3541fb3d379df0U, 0xbe3b74c13c137126U, 0xbec18b4ebe279cf3U, 0xbd2207b73e212728U,
  0xbaeb70dd3cb6e424U, 0xbdf895c1be739532U, 0xbe83ce4bbe27c948U, 0x3e4b5eb9bd9c3946U,
  0xbe827168bc307223U, 0xbebdb4423c171e8cU, 0xbe1745c7be154c7fU, 0x3d613f503ddb2096U,
  0x3d27f6733e0b6cdcU, 0x3e7f17583d561a9dU, 0xbe79b1c9be23edefU, 0xbe287015be99ef43U,
  0xbcc091543d9a6b3dU, 0xbe209acb3e404056U, 0xbea9491f3d505fcdU, 0x3d584dc63d929f1bU,
  0x3cb615f8bdf142f9U, 0xbbe3d387bba1848eU, 0xbd63d3d1be77b5b5U, 0x3d8d37ddbdda5e9cU,
  0xbeddfef6be465256U, 0xbeb527183e089c01U, 0x3e9d733fbe8cb2f3U, 0xbdda9a33bc092b1cU,
  0x3b1d01c7bdab360fU, 0x3db9790d3cc2c432U, 0xbeb6e99ebd55480bU, 0xbecb54163d1f7151U,
  0xbf0c332cbe3cd783U, 0x3d3a19cfbea163d7U, 0x3da8617a3e1ada3dU, 0xbcf3b6babe64eae8U,
  0x3da2a27cbec8bf39U, 0x3eafa0e33d95c1b4U, 0x3cee851fbe81dc65U, 0xbec5e89f3dddb5a5U,
  0xbe0b4ec2be6777b5U, 0xbe771e09bda3b2c5U, 0xbd7ec985bdd2057bU, 0x3e28999fbe3dbe60U,
  0xbee19c02bdf7d186U, 0xbd9beffcbd99d9a9U, 0x3e096509be7b81c3U, 0xbe9091d2bdc58b42U,
  0xbee656363e014f6eU, 0xbd874a9cbf2e2c39U, 0xbb35c1583dc61221U, 0xbec52c08beedfcc0U,
  0xbd89af10be26709dU, 0x3e3ddec03bb639e8U, 0x3e8ac0553e337daaU, 0xbe6e576c3d819315U,
  0xbe05e7efbd1d9471U, 0xbe33ec0bbf0318e4U, 0xbe8c8a5e3df36a11U, 0xbd8698ea3ea1d18dU,
  0xbe3b1558be9c1793U, 0xbe191b273c75345aU, 0x3f043f433cc60cceU, 0xbe54c30f3e648e34U,
  0x3ea014a53f1ccc26U, 0xbdde96edbdded3a7U, 0x3d9cc03dbd84984dU, 0xbec97e86be72516fU,
  0xbee6acda3e3d6833U, 0xbe3fc4073dc356aaU, 0x3d520c443ea02644U, 0xbd816b313e4c2438U,
  0xbee292603c6501e5U, 0xbc84511fbccb384fU, 0xbc8035e13c176319U, 0x3d2234913e651a00U,
  0x3e643917bf244837U, 0x3e1fe6823e9f14ebU, 0x3e89808e3df0b7cbU, 0xbc987f693f215c0cU,
  0x3e0a6b893e427cf9U, 0xbe33f7ac3ba07ceaU, 0xbee0ca50be3031f0U, 0x3d4aa5943ea68d62U,
  0xbd9d92433f015c18U, 0xbe8f1385be9e8b73U, 0xbe2bbd2c3dfc9caeU, 0x3ea3c5b03e3e1bdbU,
  0xbe8a66d63dd0fe77U, 0xbe9276de3e7c8337U, 0x3e2357553e8e130dU, 0x3ef32ce93eec4729U,
  0xbcbb2620beadb1a4U, 0x3e20367b3e5d9168U, 0x3e41dbe8bd35a96aU, 0x3d8b81edbd86236cU,
  0xbea1d731be8a14ebU, 0xbde1b984bed8dc2cU, 0x3bbd70d0bf1295b7U, 0xbec9b9a1be3bfebbU,
  0xbe45c8723edb5d09U, 0xbefce063be1c5c96U, 0xbebc04343e03fe72U, 0x3e48940db7ff77a1U,
  0x3e7e7cfe3ed29cc7U, 0xbe3e9e0f3dba2f23U, 0xbe3a31983eff20bdU, 0xbdbf4ed23eb5249eU,
  0xbe96018dbcde982aU, 0x3de469463cd5c44eU, 0x3e76714cbe44f1d2U, 0x3ec968cabefbffb1U,
  0xbee19dddbe94857bU, 0xbe1c3a0dbd362957U, 0x3ddf1a073e42ae3bU, 0x3da82fdcbd9dc120U,
  0xbe2e3f773f0854abU, 0x3d1febf13d78d3cfU, 0x3de57d76be96ceacU, 0x3ec356efbeec9af6U,
  0x3dd321493df0ab49U, 0xbe3a43e03dcef3f7U, 0x3cc156d93e7d95cdU, 0xbef19812be369186U,
  0xbec027b13e34211fU, 0xbe5a3755be38912aU, 0xbe84e132be9f32f1U, 0x3ece90a0bf1e70b9U,
  0x3f111dfe3eebadf3U, 0xbd603da8be450607U, 0xbda65f63be4a7e2aU, 0xbdf1f8eabdb185c9U,
  0xbdff8ecd3e07352cU, 0xbe2068fabe09ad85U, 0xbe191fe83ec1e3a5U, 0x3ebcbf3c3d2bbc9bU,
  0xbe5271203d64261aU, 0x3edef98f3b90bc6aU, 0xbe908b7a3e08c1bdU, 0xbd58e1cd3e7da210U,
  0x3e81a9abbf27b89dU, 0x3ccd68df3e993557U, 0xbe1044623e8f5954U, 0xbc75a3e43e9a2aadU,
  0x3da6c9bb3ead0dabU, 0xbd89d278be97e583U, 0x3df78d133dc527bcU, 0xbef0b20bbd80473fU,
  0xbdfe50d9beba0a73U, 0x3e2261613dd52421U, 0xbe066f5c3ea009d8U, 0xbe31c341be26c1cbU,
  0xbe2cd7f6bec913b7U, 0x3e7ba565bdcca164U, 0xbe60fb1abe282cf3U, 0xbe7926e33d7f1c3fU,
  0xbe3c880fbf4bcb76U, 0x3a8f9169bd00a607U, 0x3c1b635c3eff80fdU, 0xbf1884123ef3c65fU,
  0xbf46f259be50952cU, 0x3dc8e246be779f26U, 0x3eac1a143e2e2195U, 0x3cd17374bdc94639U,
  0xbd045c4fbef7d75dU, 0x3dcc74a33ed09c4bU, 0xbc1254d73d44ff6cU, 0xbe73719ebe1287dbU,
  0xbe36b61cbe880dcfU, 0xbe9f7f183e029ce6U, 0x3cefd704bd0e85f1U, 0xbe9574ad3d850063U,
  0xbe0ac3ac3d46010cU, 0x3df68d8fbd942842U, 0x3e0b9f37be6adb7cU, 0xbed421fbbe4539a0U,
  0x3ed54cd93f7ffdb0U, 0xbdf362fdbc063d4bU, 0xbda4975abe1908bdU, 0x3cbe50a9be0f8958U,
  0x3e1530823e1e5427U, 0x3ee5518d3d7599cdU, 0xbcff7353bdf913cbU, 0x3d2948883f5edf4eU,
  0xbeb3a3a23dd8e2c7U, 0xbe0bf6b03e9cf2b9U, 0xbe40af2abd3f89f3U, 0x3eca0f1c3c8fd894U,
  0x3e4ef7ddbeda7dc9U, 0xbe5797a73f92a966U, 0xbec89e063d7277a9U, 0xbd7a3b203f32dac6U,
  0x3f1d6ac93fd3e41eU, 0x3d636a6dbe4d3a8bU, 0xbe266e63bb8c94a1U, 0xbe1f5288bdae18b6U,
  0xbe885ec13e39a178U, 0xbe326aae3ecfa3f8U, 0x3d8c135bbd4d136cU, 0x3e78feaebf0bd38eU,
  0xbe1030ee3e2b1cfdU, 0x3e2904fa3eb5eaefU, 0xbe4edebe3ddec319U, 0xbe47bc4f3e6c01c5U,
  0x3ea85399bf2a4de9U, 0xbeba8e403fb9a767U, 0x3e1addf23e383e30U, 0x3df902513f8256b0U,
  0xbe63f7613f1232e5U, 0xbfab3b79bc04f620U, 0x3c9510403e05a175U, 0xbca8aa933e95375eU,
  0xbe0318123e3442a4U, 0x3e144f953b80446eU, 0xbd96d6c53ed3d74dU, 0x3e3a68e5bfa627faU,
  0x3d80003e3ef176bfU, 0xbe33e540bf266c2fU, 0xbe857cd43f0b1283U, 0xbf2ff0d13f294b47U,
  0xbd0a37b1bd1fdea0U, 0xbe39b40e3d23a3f2U, 0x3d8056b2be715fafU, 0xbe50d6593dde4203U,
  0xbdde4b95bc1beae0U, 0x3d072d53bd2e3301U, 0xbd8f0c84bddd7b73U, 0xbd91b4393c1ad25bU,
  0xbca5794d3ac989b0U, 0xbdc329633d7ccceeU, 0x3bccd9b8bd60300aU, 0xbe01c12dbdf5c10aU,
  0x3c503ba1bc894fc7U, 0xbd602257bce7aac8U, 0xbd782d703d86df5fU, 0xbe7822013d70a104U,
  0xbe0535a13de39afcU, 0x3df13c0dbc4e2a1dU, 0x3d62669f3e05f1edU, 0x3cd2a625be16f8a9U,
  0xbd28ac973d95a7bbU, 0x3dddcb46bde0a209U, 0x3e320ebfbdcc93e7U, 0xbe04e87cbe0239beU,
  0xbcef85203d638041U, 0x3c779e273da4a785U, 0xbcd820debdb98979U, 0xbd83641bbc92a71bU,
  0xbd2d80efbc67e24eU, 0x3e2a8150bbe245f3U, 0xbe57a3843da99241U, 0xbe21f87e3d63e18dU,
  0xbd4bbbc1bd6cf08aU, 0xbc82652739ca2d43U, 0x3cb56c5f3dbd5c08U, 0xbd0a47473bab3dc8U,
  0x3d937d073c8d0c2cU, 0xbe1b7107bd8522adU, 0x3e4760e2bd6023f7U, 0xbe19e873be055186U,
  0xbddf35f9bc5973a8U, 0xbd846c883d7958b5U, 0xbdbe0964bd6e1cc9U, 0xbe191c72bd3cd14fU,
  0xbdb22237bdb08e7bU, 0x3e19bd60bcc8b139U, 0xbd754df2bce28251U, 0xbe6b3477bdb9c90fU,
  0xbdb8da8bbdd70d8bU, 0xbe55a8c3bd52f6c2U, 0xbdf43819bcf8ff48U, 0x3d2d854abc60c6a0U,
  0x3e88ab643e4433dfU, 0xbe3bb6f1be31bab4U, 0x3db321fcbd20456bU, 0xbeee0158bda6aefbU,
  0xbeb3f17f3e1f6326U, 0xbef94b653aa0349eU, 0x3d5392283e253cd0U, 0x3e21d4343e004a34U,
  0xbe2cd9ea3e88f279U, 0xbbac50cb3ddb4dabU, 0xbedacba83d4834a8U, 0xbcf956123e9fa428U,
  0x3eb05c43bebc5067U, 0x3d45c5df3c84198cU, 0x3d02421abe8ccd64U, 0x3cdf7a453d19168bU,
  0xbc105e773db67339U, 0x3e686380bef77bc3U, 0x3cef6f133e64b628U, 0xbe5e90093dfe389aU,
  0xbe12241fbdbb266cU, 0xbd230f8c3d64dd85U, 0x3e54a53b3e8edcd0U, 0x3e647f5c3e792b8eU,
  0xbe868bbe3daa7f95U, 0xbb97daf73e89da2fU, 0xbe24b8e53de911beU, 0x3e0b820d3ec0a37bU,
  0x3ea3d16fbe5e8b17U, 0x3d3f93bd3caf1127U, 0xbed899d93bd67150U, 0xbe543b4b3e81e627U,
  0x3e5126f7be21c59aU, 0xbebf35233da715aaU, 0xbd12503c3e26d371U, 0x3d45fde3bc59b007U,
  0x3c51c2c7bd2acf5eU, 0xbd7c47513da5bfd4U, 0xbd9e7a1dbee5ebb2U, 0xbd525a1dbc866f8cU,
  0x3e173aa7be03f3a3U, 0xbcbfa1b33d230c23U, 0x3e5ddc96bdf544d8U, 0xbd6a5b89befe2fd8U,
  0xbee6dd48bde131a7U, 0xbef0598ebdc22756U, 0xbeb8b3e6bd4a1ac1U, 0x3cbbffa53e1dbf84U,
  0x3d8466ecbcdcaef9U, 0xbd2359a9be2c6b0cU, 0x3d1ade1ebe5e7a67U, 0xbe9c531fbe181897U,
  0x3d8097053eb6a640U, 0x3c99088ebc936047U, 0xbe4a9ffc3dcc7cbeU, 0xbdce8dddbe2e8782U,
  0x3e45d0ab3e60947eU, 0x3debc4783df78439U, 0xbd44e9f23defdf3cU, 0xbe1c1d333dcf5453U,
  0x3bce0a03be420b24U, 0xbd81f4cbbd08b1fdU, 0x3d10d5233e0860d9U, 0x3da0a1b13d8456f0U,
  0xbe14541cba3105adU, 0xbe121557be5fdc7eU, 0xbe0d8f6abede9ccbU, 0xbe702312be95fc8fU,
  0x3ca87aeb3ee09565U, 0x3d12671fbe53f68fU, 0xbe73b5e8bd8c0beaU, 0xbda1ead3be1fbd45U,
  0x3d36b8803e880fe8U, 0xb9eba85c3c944824U, 0xbea5c3dd3dfe5e67U, 0xbe30bc7b3e568605U,
  0xbe7f7a263dcdfeacU, 0xbc74183bbc43c00aU, 0xbc69b0bcbe835ad1U, 0x3e65e6493d0335ceU,
  0xbe43eac5bdace7b6U, 0x3dd15be1be2930ebU, 0xbc8d42dfbe80ae8bU, 0xbe5d5984be4001e9U,
  0xbe33f39f3ea92196U, 0xbe221ffcbe4e1b48U, 0xbeb3c651be8625d2U, 0xbe3a92a0be2df991U,
  0x3c3289473da9ec33U, 0xbe1e7992be312c3bU, 0xbecd83013e716fb1U, 0xbdfd4ff43e17aad4U,
  0xbec8c5da3cf8b152U, 0xbb456bc0bda580c0U, 0x3d339723be981128U, 0x3e6dcf5dbe6bfbcbU,
  0x3d16bca2bc6a74cfU, 0x3d51a38dbe6e670fU, 0xbe8226a5be15b382U, 0xbe70b7bebe97bb0fU,
  0xbe53b444bc653e5bU, 0xbe8f3f59be3a9a14U, 0xbe21975a3ed6bee8U, 0xbdfd79cd3da7e838U,
  0xbdf97db53d3914cdU, 0xbe2d0325be83579bU, 0xbccb0984bea3fbbaU, 0xbbdaa6763c472311U,
  0x3ddc3563be84c8eeU, 0x3dd28facbdb3362dU, 0x3c1bcfa6be13c3e1U, 0xbc7cf943bc756d5cU,
  0x3d8d59083e614e9fU, 0xbe541ed3bba53772U, 0x3dc594e1bd9145a4U, 0x3d7660d03d5b5a61U,
  0xbd8e33f93e3c8797U, 0xbc61f5ed3e3f18f4U, 0xbcf339253e915bb9U, 0x3ec29a153e2b2334U,
  0xbd9d3563bcd69238U, 0x3d824ec63cae49cbU, 0xbd4cc8b6be1e38e1U, 0xbd788ecd3e8aa49fU,
  0x3e9b2c7a3c75b580U, 0x3e4be2733e646663U, 0xbced2821bd5e8f85U, 0xbd5044253ed95353U,
  0xbeef0ed3bf42e540U, 0x3e005cabbdb128e2U, 0x3d403878be082e79U, 0x3da95176bdc77e1dU,
  0x3dde05d5bdf0ee7aU, 0x3db13dcebc59058aU, 0xbda464e6be97760eU, 0xbe831d72be7dcd0cU,
  0x3db12e19be09b7c4U, 0xbd3908a73dd77b1cU, 0x3d928199bdeb310eU, 0xbec38111beda9158U,
  0xbf1601763e4243bfU, 0xbe9a892dbf380014U, 0xbd3e7dae3d0be604U, 0xba48463bbe8599deU,
  0xbd7b3e4e3e5205f6U, 0xbe0cf5a3bd506b7cU, 0xbe2e23563ded9214U, 0x3de82cf43e862d6aU,
  0xbe2c0d133ea015acU, 0xbe47ac29be63a398U, 0x3e5137acbccb841aU, 0x3e0906dd3f319d22U,
  0xbeb1ec183ddc56c3U, 0xbe33461b3d886e39U, 0xbdb108f43e0774a9U, 0x3f60cdb13f097366U,
  0x3f2c58c6bee0ac65U, 0x3d01ebd53ec1ed69U, 0xbe9245efbea33c4bU, 0xbd080f7b3f0282b5U,
  0xbe383ef2be9f2470U, 0xbec4bc46bf0bc0a9U, 0x3c201222bbe900fbU, 0xbeb0a595bd22c8aeU,
  0xbe0cf87e3e76a357U, 0xbe68db2dbe1a8f86U, 0x3e84bb8ebdadf784U, 0x3ee27cdf3eb57d46U,
  0xbcf766963ea0a898U, 0xbd2909103da8169aU, 0xbedac1b83d899fe7U, 0x3d208e383ea6257fU,
  0x3e166defbe2a78a7U, 0xbdff18053d9c4ec3U, 0xbed61e6bbf0c82b7U, 0x3e8986c93d67579aU,
  0x3c66856dbe7f1006U, 0xbf653e21bea2386cU, 0xbdb613cabe8de4c3U, 0xbd421d3bbe8139ecU,
  0xbe9d813fbe1920fdU, 0xbe791c19bc83f749U, 0xbeb249043e546cf7U, 0x3e811935bf6363b0U,
  0x3de2712e3ef5d0fbU, 0x3d1bbc4fbe8897b9U, 0xbea4e61b3ece2398U, 0xbf9ae7213df9d940U,
  0xbeec2d2dbe1b8731U, 0x3e2f4388be074122U, 0x3e312209be23ab80U, 0x3e9fa357bea6542dU,
  0x3e9cdd3c3f3d3e99U, 0xbea10418be6a4c19U, 0x3e2dd04cbde90783U, 0xbeda815abd0c5245U,
  0xbeb823e33ebe535bU, 0xbe9121163ea2818aU, 0xbddc761b3e398db9U, 0x3f0dea1cbe2cfb2bU,
  0xbe951036be0e03dcU, 0x3d4e8eb1b8c5174bU, 0xbd6f1f77bda48034U, 0xbef6a7b23daff59bU,
  0x3d473a29bedbde85U, 0x3d8076f83e380a50U, 0x3e711bc4be7320c7U, 0x3e8839db3f7bd760U,
  0x3ed31ea03f8d1f30U, 0xbdc8d6bc3e819318U, 0xbd5086443e8c8d4aU, 0x3e20c6f2bd4841f8U,
