/**
  ******************************************************************************
  * @file    speech_data_params.c
  * @author  AST Embedded Analytics Research Platform
  * @date    Wed Dec 27 11:23:37 2023
  * @brief   AI Tool Automatic Code Generator for Embedded NN computing
  ******************************************************************************
  * Copyright (c) 2023 STMicroelectronics.
  * All rights reserved.
  *
  * This software is licensed under terms that can be found in the LICENSE file
  * in the root directory of this software component.
  * If no LICENSE file comes with this software, it is provided AS-IS.
  ******************************************************************************
  */

#include "speech_data_params.h"


/**  Activations Section  ****************************************************/
ai_handle g_speech_activations_table[1 + 2] = {
  AI_HANDLE_PTR(AI_MAGIC_MARKER),
  AI_HANDLE_PTR(NULL),
  AI_HANDLE_PTR(AI_MAGIC_MARKER),
};




/**  Weights Section  ********************************************************/
AI_ALIGNED(32)
const ai_u64 s_speech_weights_array_u64[13298] = {
  0x3d8732fb3ecff870U, 0xbe901814bf471dceU, 0x3f06f32a3ef28547U, 0xbf0f747abe97b1ecU,
  0x3ee656d13eb72619U, 0xbf3a569e3e2b3ef0U, 0x3ebdf180be883e5bU, 0xbf14177c3dc6ae22U,
  0x3fa50ad13d4218eeU, 0xbfb6d68c3f373546U, 0x3e442405c029a888U, 0x402026fe405cf4a4U,
  0xc0853f74c014e0f4U, 0x4081b7ebbf3e29f6U, 0xbfcaead340535d95U, 0xbfda830ac09053bbU,
  0x408a3344403b8629U, 0xc05b72213edeb1cfU, 0xbe2af15bc06c7229U, 0x4044538540403074U,
  0xbff099b33f57971bU, 0xc006acc2c02cefdeU, 0x403fb3883c3edaebU, 0x3f976a75407c424eU,
  0xc0aa2ba7c06d8aecU, 0x408b125dbfb96de7U, 0x3f8624eb40abcda1U, 0xc092644dc07da1e6U,
  0x404f9c59bf234f4dU, 0x3deaa9a5405892a8U, 0xbfe0c665c0183b36U, 0x3f9c76fb3e04e8c3U,
  0xbe44969b3ec15e06U, 0x3f1a3dd13d82f8ccU, 0xbf6213603d5d6c1eU, 0x3d4a3922bf8cdd2aU,
  0x3f8240de3fc82edaU, 0xbfc843f7be8f4fb2U, 0x3ed78e8cbed4e513U, 0xbeafcf9d3f78f445U,
  0xbf3ba368bee887baU, 0xbe7af10dbf0a1a5aU, 0x3ee6f1173e4e22c8U, 0x3f0bed3b3ef46228U,
  0x3ef0a1523f1ec4e5U, 0xbf7f73f1be4f62ccU, 0xbf00beafbfa8702aU, 0x3f248bc03e90199fU,
  0xbe0ecc393effbaf9U, 0xbeed33d7be329a75U, 0xbf06dc8ebf325696U, 0x3f005d0e3db2291cU,
  0x3eea28c93f142312U, 0xbf24ae8abd770ed3U, 0xbd571094bef4eec0U, 0x3f1117db3eb51dcfU,
  0xbd9e6b423ec0b022U, 0x3ecd536fbb6c1e00U, 0x3efc93c03f296863U, 0x3ea7b6963ec5aa23U,
  0x3d2b91053eb8ff9cU, 0xbf3f0032bf3c6691U, 0x3f05ecbebd307e75U, 0xbe914c3f3e60b140U,
  0x3f1b75b8bcab6361U, 0xbe39af4b3ec9476fU, 0xbeb6c25bbf0ea222U, 0xbecc0f5ebe45ce47U,
  0xbfaa6b7ebfadb7d1U, 0x3f62765bbe850ffdU, 0x3f49aa7f3f43bda2U, 0x3e989b0d3f0b089cU,
  0x3e4a70633efd96f7U, 0xbe070e20be6e3dc2U, 0x3ec7d5f63ea64a5aU, 0xbefa5888beeab8faU,
  0x3ebd92a83d1b8b6cU, 0x3d8959fb3ee0d0d9U, 0xbc149300beae1e29U, 0xbe87fc513d61f70fU,
  0xbe949319becdf120U, 0x3ec9ddf1bdc7b974U, 0x3f0075a83ec72707U, 0xbc4da9553ed7404dU,
  0xbf565363bf55a4d0U, 0x3ec3201bbeb4d1cfU, 0x3f0b2bbd3ef55540U, 0xbe2ec4e03df49091U,
  0x3dab6953beb1391cU, 0x3e63b34bbcc2b55eU, 0xbe20b9a93df6e6faU, 0xbf0f5f64bf4200b3U,
  0x3e7bfdccbe2776c2U, 0x3f11375b3e3bde4eU, 0x3f54d0203f69c5a7U, 0xbf3fbb91bdeaa189U,
  0xbf4ac6abbf92b3adU, 0x3e9b8732be97cb15U, 0x3f230e1e3f161450U, 0x3ebfad383f2ec174U,
  0xbedd9a1fbd6247e6U, 0xbef1947abf0c4bb1U, 0x3d836374beaa2a16U, 0xbdec6f4ebdc30ee2U,
  0x3f0abe88bd9930a3U, 0x3f3fabe93f1bd245U, 0x3cad0d9d3ed4491aU, 0xbf829872bf135564U,
  0xbf01e1fcbf9bbc87U, 0x3f4ea99e3e5d8747U, 0x3f9603123fa39ac3U, 0xbe7fb9cf3f39f118U,
  0xbfa9dd76bf67c1eeU, 0xbef959a2bf971395U, 0x3f8107eb3e74e1a6U, 0x3f6d10183f98dcf5U,
  0xbe88681b3e4cec65U, 0xbf4502c7bf4a78c7U, 0x3e0e5a94bf2f5209U, 0x3f25b81e3f0ca152U,
  0x3efae3be3f5f7218U, 0xbd7d98643e5d5276U, 0xbe2e75f1bea2ca58U, 0xbedc1c85bea4bf3eU,
  0xbe9ba6d3bee14690U, 0xbddb59e8be82474bU, 0x3e686eeb3eacaf44U, 0x3e8120ae3eb03171U,
  0x3eaa19c53ecd4a88U, 0x3e28ebfd3e844df9U, 0xbd85260fbcb56589U, 0xbf0ee7bfbec5b80cU,
  0xbf1bfd62beb23884U, 0xbe0e3e49bf3073c9U, 0x3daf8184bdd82fddU, 0x3f1842953e4de156U,
  0x3f3c0efe3f349826U, 0x3f131b763f4553c6U, 0xbdf8880a3eac8ca4U, 0xbf5647edbf07f062U,
  0xbf5fcd1abf67ee17U, 0xbf178498bf739ca4U, 0x3e9bcb34bd9506e2U, 0x3f44b0b73f1d6f6fU,
  0x3fab597e3f8a6fbcU, 0x3e70a6f73f21f4f1U, 0xbf0610b739a8bd78U, 0xbf739775bf7e5e2cU,
  0xbf098be8bf23a5c9U, 0xbe5627afbf0139b7U, 0x3e5c297fbe284904U, 0x3f6ea3f73f36ccf4U,
  0x3f06da0a3f3cb023U, 0x3e993b983f0dac9bU, 0xbe9ec9c4bdfb0696U, 0xbec4d3acbed6c9ddU,
  0xbf1c22d1bf25b573U, 0xbe12fb15be97a86eU, 0x3e47062ebdd0b30bU, 0x3f4da07e3f1d5f00U,
  0xbef0e7c5bee4827fU, 0xbe42e848beb14966U, 0x3e748ae53e3ac916U, 0x3f16d4dd3efee39bU,
  0x3ebd1dfd3f31f361U, 0xbdf07ed4bdb1ff3aU, 0xbf2527b8bed20694U, 0xbf0940c1bf2a8e69U,
  0x3dcf200fbdd8493cU, 0x3ea3eaf53e9fd65fU, 0x3f2f834c3f207218U, 0x3e790e053ecb8e5cU,
  0xbdaf42ac3e2a2c11U, 0xbf1b2d7abed1d66aU, 0xbf191f63bf46322eU, 0xbe25add1bea39c8dU,
  0x3dfdbf13b94b26caU, 0x3f2392fd3f0a3551U, 0x3ef3b6273f11ddcfU, 0x3ec185423e92909eU,
  0xbe8a37bf3dc5a1c1U, 0xbe9b3de7becd1584U, 0xbf220827bed68b30U, 0xbcf7b16ebeb1e035U,
  0x3cdbd351bc9cc9ebU, 0x3ececa9c3e88d6e1U, 0x3f064ec23f049fe3U, 0x3e10e4563e266ef6U,
  0xbc4a190abc4922d0U, 0xbe9c3eecbe8142a8U, 0xbedaf1d3bea2875bU, 0xbcac31f6be33c5ceU,
  0x3e0d4635bd8e282cU, 0x3e99936b3ec45a43U, 0x3e834faf3ebeb701U, 0x3cd4c6143ed18373U,
  0xbe20c114be37091aU, 0xbe6d3764be78b44cU, 0xbe241fe4bee6e537U, 0xbcc9bcd2bcc5a169U,
  0x3cc3a9e1bd66972dU, 0x3db49c963e45b0c4U, 0x3c5f1f7e3e29577eU, 0x3d0580823daa1082U,
  0x3e829e973d893dd4U, 0xbd7969943d9a5fbdU, 0xbdc3bf763d3171acU, 0xbecd5fecbe43f7e1U,
  0xbe8e1176bed68dd4U, 0xbe822448be483ed8U, 0xbe3ae7e5beb96815U, 0x3e62a5da3dd4732bU,
  0x3e142ad33b78b7baU, 0x3e73d7273e6aa1b5U, 0x3ef366383eaf6f42U, 0x3e765a723f014bfdU,
  0x3db517a13ea1a325U, 0x3def40dc3dc58072U, 0x3d8e4d1b3d8ce718U, 0xbe5860ae389859bfU,
  0xbe67c4b0be9db97eU, 0xbeda67e8bedab486U, 0xbea9178cbec9b7c5U, 0xbeb64056bebec228U,
  0xbea4459ebecc3e18U, 0xbc4b75adbe408c41U, 0x3e9599ca3e045ed1U, 0x3ed927fd3ed94807U,
  0x3efc2df43ea124a0U, 0x3f070c783f00d4b9U, 0x3e5b14183edb88beU, 0x3d2566493da5bb30U,
  0xbe9d3909bdfb8b3cU, 0xbeb1c1b9be87ad31U, 0xbe78f97cbe52d0baU, 0xbe41c289bea71cf7U,
  0xbdb9a3f2bd6c5ed4U, 0xbe2fd808be788703U, 0x3e53a6af3d950d86U, 0x3ea606033ddcb1b9U,
  0xbcd1b64b3cd535b0U, 0xbd85b51bbe4236eeU, 0xbe97eeebbe3f8ae9U, 0xbe49860fbd81f1b4U,
  0xbc14dc1a3d302221U, 0xbd82f649be3b1324U, 0x3dcc72babc928d28U, 0x3e3b71ae3e162b71U,
  0x3dbb16183e104aa1U, 0x3d92fd653e4a03c3U, 0x3d8e96ffbd57592eU, 0x3c4d9f603e776245U,
  0x3de0b7113d8049d3U, 0xbd412c78bd2a000aU, 0xbd54ae4cbdb83e16U, 0xbdd331d2bbf57955U,
  0xbd9a8713bdf350fdU, 0x3d3eec3a3b0f5798U, 0x3e1968e43e20bb4fU, 0x3ea079973e845f00U,
  0x3e73d8f33e08472dU, 0xbce92f833e0b2855U, 0xbe048a703d235043U, 0xbebc696cbe4e3fbdU,
  0xbe687108beaf773dU, 0xbe85e0cdbe95b30dU, 0xbd14c117bcd3dcf8U, 0x3e739b0fbb237e83U,
  0x3ea0e8693eaf0fd5U, 0x3ec907283ec521b3U, 0x3e4ca48e3e9be2dcU, 0xbe437fc7bd8f30e0U,
  0xbf017d0ebe9317f9U, 0xbeda9506bed1485dU, 0xbe9922a0bf005e77U, 0xbd7d29f6be6d0019U,
  0x3e3eff4f3df0f5b3U, 0x3e411bd83e45f9edU, 0x3ec619683eb62ba7U, 0x3e60ece93e159e59U,
  0x3e13b6b93e8984b0U, 0x3e58e0593e0537a8U, 0x3e022eda3e769383U, 0x3eaab5493ea8d33cU,
  0x3e4c43703edc504cU, 0x3e98e0d63d9f1be3U, 0x3e22c8d2bc6ca196U, 0x3e1461823e4d12e0U,
  0xbcbe15f83d90a963U, 0xbe00e577be841bc6U, 0xbe327263be188968U, 0xbeccce09bec49c52U,
  0xbf0dcd33bef9ecbcU, 0xbefa7d0abf16c45bU, 0xbf4da2a0bf2b98d0U, 0xbeffd801bf18d290U,
  0xbee3d6a6be3de7ebU, 0xbf078e65beff51fdU, 0xbc2994dcbe8779e1U, 0x3db058be3c3b9f40U,
  0x3e1a46673e49eab1U, 0x3eaf221c3e801fe0U, 0x3ec042903e80747bU, 0x3f13e4ad3f180c2aU,
  0x3f024ac63f2d1e6dU, 0x3f139ba83ecd0fe3U, 0x3ee07f2e3ed6db73U, 0x3e5bd5483efb2033U,
  0x3e74da763eb26739U, 0x3ec09bbe3e247488U, 0x3df4dae63d3e0ba1U, 0xbe302426be110b99U,
  0xbdab5af03d390cc5U, 0xbe938cdbbe0487f7U, 0xbe1ff28abeb93b97U, 0xbe7121c4be3272e2U,
  0xbe0dc70ebe74b9fdU, 0xbe5528a2bd889cf1U, 0xbf064fc6be2424b8U, 0xbe00251dbe31568eU,
  0xbf04eaae3f251df8U, 0xc04b515dbf1d695aU, 0xbf26b53d40ff59efU, 0x3f1edd8bc0fe62aaU,
  0x3fab3c8540b06c4cU, 0x3dbd4f79c0643299U, 0x407e0c38c006e0e8U, 0xbfa24545bf9a65edU,
  0xc01b6755402af423U, 0x3f0a1a4ebf67455cU, 0x400439ca403f01cfU, 0x403310fcc0fb616aU,
  0x4100a256bfb6f4e4U, 0xbf140bdac0be62e4U, 0x41144f36c052c669U, 0xc079cb5ec04014dfU,
  0x412eb72bc085a916U, 0xbebdd83ac044dcf3U, 0x401a72a1c0b12a45U, 0xc0665fb640a9f111U,
  0xc082a0af40025602U, 0x40d00dccc0376ddaU, 0xc11b775f40bd5c81U, 0x4008919fbf874a11U,
  0x402b8f273fbab7edU, 0xc08b7f39c01b9190U, 0x3f496fda40a151abU, 0x3f7d0967c06e8d8bU,
  0xc09f13e140404c1bU, 0xc0611b41409c6111U, 0x3f587dc83fc9edddU, 0x4089bc58c06dcf74U,
  0xc11297f53f7cbbdaU, 0x40be9a3e40ea7a98U, 0xc0a5cf86c10ce388U, 0xbfb2e19941409f40U,
  0xbe5d2d4cc0df0517U, 0xbf9b3d0140e2aeb8U, 0xc06f8120c034bae2U, 0xc05def5440f8bd20U,
  0x3e0e0b4e3cfab459U, 0x3cf86de63e3374b6U, 0xbe9963abbe666246U, 0xbddbe59fbe889a16U,
  0xbe0a6176bcdbfb47U, 0xbe2e4512be35bcfaU, 0xbde0a73ebdc1e8b5U, 0x3e8151013de16379U,
  0x3f086dc43eabcbaeU, 0x3de8c1943f3dcbfdU, 0xbfaa421abf4cbb62U, 0xbec51a4ebf3366e7U,
  0xbdd798fabee05130U, 0x3efbeba13e93b130U, 0x3f100fb33f17c78fU, 0xbd48e88d3e6ed0edU,
  0xbe0a11cebe91eff0U, 0xbe924f2cbd60ceb8U, 0xbd8b083dbde35c51U, 0x3dce226c3d896fecU,
  0x3f10b8993debd049U, 0x3e7526cf3f109164U, 0xbe448916bde430aaU, 0xbea1567dbe3790c4U,
  0xbe30cbd9be074836U, 0xbd47341cbe2cbbd6U, 0x3e03993f3c5d0ddaU, 0x3ea732963d8dd794U,
  0x3e9328723ee3bf18U, 0xbe1cb3e73e51f1e9U, 0xbec207d7be372890U, 0xbdeac8f5befece39U,
  0x3f2ddded3e942cc2U, 0xbd5bd7c63eeb9d13U, 0xbf119bc1be8026c3U, 0xbee5cbe8bf2a2d7bU,
  0x3ebd3e73bc5640b6U, 0x3f839d273f3afefcU, 0x3ed4c0053f582ac1U, 0xbed3d941bc9f61a1U,
  0xbe84c379be90ef6fU, 0xbe8cc28ebe6bbf5bU, 0xbecdaf7abe8d3c5fU, 0xbe2fa274be7f8874U,
  0xbe101434be0cd982U, 0xbe9ddeb5bec25bd8U, 0xbcff0754bd135b20U, 0x3e0a4bdf3de12b8aU,
  0x3e2023623e0768f7U, 0x3e4eaf913d8c9ab8U, 0x3e8773903e9e632dU, 0x3e09b3193e8b9e17U,
  0xbd803ecd3d893602U, 0x3eb1fe773ddf5bc8U, 0x3ee2c1293e9e1421U, 0x3eb0aaa63e9b6a34U,
  0x3c5f32f23e2369dfU, 0x3d2419513d3c49d4U, 0x3de5995e3e3cdd67U, 0xbd9df3423d40d978U,
  0xbe87a248be4e407cU, 0xbdf2e683be37644cU, 0xbe129c3ebe2d46acU, 0xbd0e02d6bd80632cU,
  0x3b4afabdbdf60762U, 0x3d7dde3a3d5d8225U, 0x3cccb2bb3db4c5e5U, 0x3da859ba3c909a6cU,
  0xbda54b0abdca7e59U, 0xbdf22f43bd638089U, 0x3d485f753d135ffbU, 0x3ccd51703e41a85eU,
  0xbe7ccb4e3d333477U, 0xbe274e08be75d79dU, 0x3e3a0d0a3cc2ddc6U, 0xbd0b962b3e086883U,
  0xbe116477be0ad0c4U, 0xbda96234bd123cf4U, 0x3df6102c3d820708U, 0x3d88618b3e7b2c14U,
  0xbe4e8ea7be0129daU, 0xbe936cc1be9cbe55U, 0xbe8e9134be953215U, 0x3e55388dbd93bc58U,
  0x3eea1cd93e17122eU, 0x3f425b243ed826a9U, 0x3f000a153f14f943U, 0xbded317e3eab47ffU,
  0xbf4104d6beaac1c7U, 0xbf280063bf2be062U, 0xbee62c68bf2ec89bU, 0xbdae29bdbd50cef8U,
  0x3f1f91b33e904528U, 0x3f4df2413f201b21U, 0x3f3fcd763f48c730U, 0xbd4e6d023ef17dcfU,
  0xbf0cf4f3be7c1812U, 0xbf324afdbf03ba24U, 0xbf32f97dbf6f3576U, 0xbc6744b2bf1805bbU,
  0x3eed34443e29a481U, 0x3f5a03783f27c33dU, 0x3f1bd7fb3f3089b4U, 0x3ebfcab63f0bccb0U,
  0xbec06c28bd0446a7U, 0xbf2e9a9cbee4b1ddU, 0xbf430361bf6e0b43U, 0xbec893c2bf1d8e7fU,
  0x3eddae9abd8f5ccaU, 0x3ef2352e3f1d86d0U, 0x3f41e4253ed1150fU, 0x3e1d0fec3f07e7efU,
  0xbc0061efbd79d7c4U, 0xbf13b345be263865U, 0xbebb6131beb15ef5U, 0xbefe2e49be9ea5e6U,
  0x3d738d36be115514U, 0x3ecf6aa83dd02164U, 0x3e430dad3ee0bb2cU, 0xbe2ea57d3e8a76a8U,
  0x3ea6691a3e743897U, 0x3ed3ed013efab788U, 0xbdc0935ebceb84d2U, 0xbee5be9bbe67e040U,
  0xbe8c20f9bee082cfU, 0xbed80b6fbf22f323U, 0xbeb70d7ebe9e36bdU, 0x3cf3b694be7276eeU,
  0x3ef04bea3e955518U, 0x3f14a49d3f30e7d4U, 0x3f1e238e3f1638d2U, 0x3ebb90bb3f3d6898U,
  0x3d54eb603ccaebb0U, 0xbebc2b6dbe3c599cU, 0xbf1268d9becd373aU, 0xbf2b348dbf23a608U,
  0xbf0fd5e5bf1cee7fU, 0xbe959e8fbef0f691U, 0x3e532356bdba9ad9U, 0x3f00ff833ee304c6U,
  0x3f091cd13e346153U, 0x3ec9bdc33edd1dbcU, 0x3ead38cd3eef03a8U, 0x3ea44dab3e854d28U,
  0xbe2f34043dc02f75U, 0xbe998151babd29aaU, 0xbe79c733beb1f083U, 0xbf154c21bedcddf9U,
  0xbe975da7beb96da8U, 0xbe4c0991bef12878U, 0x3e3d5fa83db39f85U, 0x3e231c9a3d58a6c9U,
  0x3cd126c33cfeb52eU, 0x3f0cb7a63ef160ceU, 0x3e1d4ccd3e98b0c7U, 0xbc4bb9343e806614U,
  0x3c222f65bd2bd263U, 0xbe90fda63c86ea75U, 0xbdaf6907be867e04U, 0xbe0d92dcbe333660U,
  0xbdc8c0e6beec8d57U, 0x3e02e2803b363290U, 0x3e9961f03e6fca6fU, 0x3e91c9fa3ea65eb8U,
  0x3e3e43483eb75cb5U, 0x3d5e27393d21804dU, 0xbef865cabe4a37e0U, 0xbf0c2704bed5b284U,
  0xbdffc0acbec21c79U, 0x3d1554653d35d072U, 0x3f0158c43ed99b8eU, 0x3ed350bf3ed0f267U,
  0x3eab49463ea29b6fU, 0xbe5ed9e93e8b1671U, 0xbf08215bbebaaa40U, 0xbed18b8dbeffab12U,
  0xbe5eb53ebeceff0eU, 0xbd856fdcbdf17822U, 0x3ec0aaa23e963fadU, 0x3ecf5fc53ea9747eU,
  0x3e9c1ded3f0dac5dU, 0x3e0717e83d742673U, 0xbe54d7323dac57b0U, 0xbec7d3babeb8d5d1U,
  0xbf10e2c7beaa2c48U, 0xbdc9e24ebefd7feaU, 0x3e86f08b3dd27301U, 0x3e873b3a3db7f263U,
  0x3ea257493eb982c3U, 0x3e3dc4c33e0a9916U, 0xbd85502b3e4dde49U, 0xbdd13285be0767ffU,
  0xbe856653be24a588U, 0xbca7ff24bca6ddb9U, 0xbdad6ea4bdec68a4U, 0x3dbff7433d0d6bdeU,
  0x3dfd6ef43e3b53cbU, 0x3ea0b2493e15cee3U, 0x3d8f7bf73c95685cU, 0xbd7f2f47bc8fce5bU,
  0xbecafe36bf33a12dU, 0x3ef9eb0fbd3891fdU, 0x3ef542023e9237fdU, 0x3ec315193f185156U,
  0xbe7eb7c5be9497b4U, 0xbeeac0bfbebd12c1U, 0xbef4694dbf24164bU, 0x3f33e2373ecf34b5U,
  0x3ecc6af63f1528deU, 0xbdbb60c43e885dd7U, 0xbf09a5e7be970ee3U, 0xbe9789ebbec5654fU,
  0x3d5a1d8cbe01cef8U, 0x3eb55da43eeb4027U, 0x3ddb6b873ef1efdfU, 0xbe160b103df41297U,
  0xbf0cdf61be9e9293U, 0xbec612b8bef32f10U, 0x3d080df1be5c32c1U, 0x3f1fe7623eec8019U,
  0x3ec1db8f3f0b0d59U, 0xbe3584383eb0b00eU, 0xbf620b1abf2cd034U, 0xbde51dc3becdfb42U,
  0x3eba74e23e8a1e61U, 0x3e9044023e953838U, 0xbccf13b03e20a6b9U, 0xbd18a6d33d838c1fU,
  0xbf0b46fcbeb04691U, 0xbe75c87fbefbc7eeU, 0x3e7b4b793e7e03f9U, 0x3ea8d84b3e80584bU,
  0x3e927c463ed8e2e4U, 0xbe8f1f84be15ea28U, 0xbf0f501bbec61b0bU, 0x3d01fe84bedcad8aU,
  0x3ef73d5e3ea52267U, 0x3e0521983eb7eb1fU, 0xbe0afb063d7d734eU, 0xbeaa3652be1ec215U,
  0xbd34d133bdaf4cc4U, 0x3e1339fe3e40d8d1U, 0x3cbb8b6dbd38d47cU, 0x3d52cb333bb2c292U,
  0x3dbc9b293cf35508U, 0x3ab14cb43e5e4d5dU, 0xbde252d8bd98d96cU, 0xbd40224ebda5c1e4U,
  0x3dbcc5b23c64e7e3U, 0xbd3585f93bf9c1b6U, 0xbead00b8be0eabe1U, 0xbe97fde7bec7f88eU,
  0xbd7388adbe112564U, 0xbd3d4253bdade126U, 0xbd9d8297bdfc2db4U, 0xbe28f05fbe7ae446U,
  0x3dce5790bde00d07U, 0x3d8f9e583e72ccafU, 0x3cafb2a43d602cedU, 0x3e1d7c4b3d6733edU,
  0x3e29eb0e3dd8d540U, 0x3e9720ee3e8ba031U, 0x3e478e313e9217c4U, 0x3e8caf623e899e0cU,
  0x3e6c00163e7b2dcdU, 0x3df39b6b3e04aa03U, 0x3cd102253e1805e5U, 0xbe56c2b2bdc8ea2aU,
  0xbe74687ebe4348c4U, 0xbf0163fcbee746bfU, 0xbe7512b3bef12beeU, 0x3e159b9fbdb64ddcU,
  0x3e3407763e22da46U, 0xbc3365ec3e69cd80U, 0xbf045042be5288ccU, 0xbe9563e7bf11e720U,
  0x3d38c55ebe10c43cU, 0x3ead173e3db014f1U, 0xbcaf1c683e8eec78U, 0x3e54eddf3e58d4e8U,
  0xbef8b235beb75c2eU, 0xbe67f7fcbe2c6797U, 0xbe20e8bcbe82da18U, 0x3ed498943e6e7eacU,
  0x3ed066463ebd0c82U, 0xbc468ae53e33fd57U, 0x3cb71b06bce65faaU, 0xbdb443e4bd00c8caU,
  0x3e05aa003de4897bU, 0xbe0054e5bdba59baU, 0x3e07f6453ddfb28eU, 0x3e4a73e23ce2b843U,
  0x3ed876753e86246bU, 0x3c7acfef3e86a529U, 0xbea74ce6be11e734U, 0xbd98d976bd816e06U,
  0xbd9b76ebbe86af30U, 0xbe134322be2ae35cU, 0xbdcc5eb03d902974U, 0xbdcb2863be412925U,
  0xbcbd443f3dd1ac0dU, 0x3c9965153d651e94U, 0x3ccd7feabe126b7bU, 0xbcd0853c3cf479c6U,
  0xbdcca505bb5b6c14U, 0xbc48165dbd20854aU, 0x3e5604843c9202a4U, 0x3e7b7ef73dff1878U,
  0x3e94976f3e995239U, 0xbc8513fa3e7ef0fcU, 0x3e0998ddbcc8d009U, 0x3dc86d523e262a4eU,
  0x3e220fba3dec8533U, 0x3da104a33e3223f4U, 0xbe535462bd92b6a4U, 0xbdc69fdbbe07a893U,
  0xbc88562dbd501ee8U, 0xbe51cb08bdf3d9ccU, 0xbe99f2f7be84fa9aU, 0xbe7dc61abe5f3815U,
  0xbc91863bbde2c44cU, 0xbcfc49173e9ca303U, 0xbed1c05d3c828b31U, 0xbc4c2075bd5e6f61U,
  0x3d84b6283ecdf917U, 0xbf017ae03da213e0U, 0x3e412a2dbe1c26e5U, 0xbc99e7093ed7d313U,
  0xbf1fc1ce3d429481U, 0x3cda34ec3cfe1228U, 0x3e7a5ed43f41fa92U, 0xbf4e329fbded3ef3U,
  0xbe467b4abf72edc9U, 0x3fcf684c3f27b21cU, 0xbcc8f5e43f413c23U, 0xbfce2b56bfcfbcbfU,
  0x3f712f02bf794b3aU, 0x40065fe54000ad2dU, 0xbfb495fb3ece2194U, 0xbfedef89c02bb85dU,
  0x40036e7dbe71825aU, 0x4004082b402f8f2cU, 0xc0262b05bf1db5f2U, 0xbf8fb646c030c6e1U,
  0x400ffce13f936ba3U, 0x3f369001401452fbU, 0xc01d5e29bf6043d7U, 0xbf1fb6c7bfe24ae9U,
  0x3fee03293f9ba6beU, 0x3ed2fb213fc2465cU, 0xbfc2ebb1bf86a2adU, 0xbe788b99bfa1bc96U,
  0x3fa45f713f5fc669U, 0xbb7e57fd3f80ce29U, 0xbf82b9e6bf5ee0a7U, 0x3e83f505bed0b689U,
  0x3f2be4ee3f037237U, 0x3d84233c3ca007b4U, 0xbdb6c48abf23b5b0U, 0x3e9b1276be224b2dU,
  0xbc00f8593e85bef1U, 0x3d8c7c28bd87865dU, 0x3efe86c23d49932fU, 0x3e9f11953e9101d4U,
  0xbdd1b9823e09e7adU, 0x3e6f530c3cd2297fU, 0x3f1bbd6e3eb2e5acU, 0x3ea9ab653f176abfU,
  0x3b3777d83ea70a93U, 0x3e28fed6bd01152aU, 0x3ed866ea3e934e36U, 0x3f1f04153f0382c3U,
  0x3ec8b13d3f0029a1U, 0xbce010d73d860259U, 0x3e6685b1be94c80eU, 0x3f30a1583ed5e8ffU,
  0x3f14ce743f68c884U, 0xbe499543bd5645e1U, 0xbe5703b2be90c6f3U, 0x3ec017f73db6edf6U,
  0x3e3185263ea70d95U, 0xbd1b792f3dc9ca9cU, 0xbe5ae19bbd84ff47U, 0xbeba14d2be56bafaU,
  0x3db5d7b8bedf41b8U, 0x3e5cdc1dbc78dd98U, 0xbe658be63e8281aeU, 0xbe9b1c4dbe16811fU,
  0xbefd3539bed026e5U, 0xbdb0d7b1be2d1469U, 0x3ea839793e7e8d5eU, 0xbe8abfe13e7565f9U,
  0xbf53231bbeae4559U, 0xbc562befbee6f740U, 0x3f0925293eab779dU, 0xbe1687e63e6c2963U,
  0xbf02a76abecd9022U, 0x3e665c9abee7684eU, 0x3ed4016d3ddddd82U, 0xbe401a3ebcdcee06U,
  0x3e26b8a53ec604e3U, 0xbf128a75be17a67bU, 0xbec90e8ebedd942aU, 0x3d27dfd0bea82cf3U,
  0x3f0151533e9ac9aeU, 0x3ec8842e3eec057dU, 0x3dc38db83eceb8b3U, 0xbeb44bbebe157e28U,
  0xbeae1493be9b6665U, 0xbf025db2beeec076U, 0xbe3836bfbeafab2aU, 0x3e8956943e0dc6bdU,
  0x3f1389d23f077231U, 0x3ec34ae63ee52b56U, 0xbd8d1cd93e2a746fU, 0xbeefbc32bec9d38eU,
  0xbf1975b6beebe47fU, 0xbec12810bef378f3U, 0x3ebb306c3e20865dU, 0x3ed35d773e9dd186U,
  0x3f1719b93f00d493U, 0x3da849c93e81020cU, 0xbf022eb4be722a7bU, 0xbf098f8dbf11c004U,
  0xbeec5c58bee0a9acU, 0x3c25061fbe6eaa09U, 0x3eabc7d83e822337U, 0x3f159e623ef54be9U,
  0x3e8b13903f195b09U, 0xbe5499a03da2e99cU, 0xbf2d95a4bf064cf2U, 0xbebbad0ebf238b72U,
  0xbdcd0d52be3436b1U, 0x3eeaa5603e8cb619U, 0x3eb181623f0af79eU, 0x3e5b0a2b3e76f5e2U,
  0xbc663fe93d77a073U, 0xbed25b54be9ab587U, 0xbe24499cbede880cU, 0x3e8ab44d3de8301cU,
  0x3e16cf183e2531a3U, 0x3d6e69f03e57d768U, 0x3d506e623c0c5c32U, 0x3e29b0c73e156d8eU,
  0x3d54b4093e81d7adU, 0xbe21116fbdbb4c26U, 0xbe2fdcfbbe074bc5U, 0xbe8996b2be4a7925U,
  0xbe7cb988be5632eaU, 0xbc3876f2be22e603U, 0x3e4029d5bd8f0032U, 0x3df1ae923e4b9bc4U,
  0x3e36e3d93e446c17U, 0x3e83a0493dcc8a52U, 0x3e09029c3e6a3262U, 0xbdfa055c3be75cc1U,
  0xbe4e64cabccb12fcU, 0xbd0a2de8bd9e2766U, 0x3b86a4a4be0affdcU, 0xbde86c84bd770b7fU,
  0xbdb18ae7bd404c24U, 0xbdd13779be1d41c5U, 0xbd8c3828bc5de4dbU, 0xbd66eb23bd56a65aU,
  0xbd9e1025bdc07bacU, 0xbd02f233bdc044a0U, 0x3de8bc4a3dbe90ddU, 0x3e9a3b793e77a705U,
  0x3e95d5d03e8d3770U, 0x3e5cdedb3e934d0aU, 0x3db257f03e49d53dU, 0xbe0969f0bc80afa3U,
  0xbecf3bd3be99c1e9U, 0xbeae7475beb9adbaU, 0xbe04c461be5768a9U, 0x3ce21a0abdbd9a5eU,
  0x3e6275693e0b4e1dU, 0x3e813c773e3267f1U, 0x3e70c35e3e69525aU, 0x3d371d593e08ac9fU,
  0x3f20fc663eb9e5e9U, 0x3cefbc7c3f10eb9cU, 0xbf7a90a8bf3bbe78U, 0xbe8e24a0bf50cdaaU,
  0x3f52ee773e793b50U, 0x3f4ac8a23f8c267aU, 0xbe92af513ea1f8c0U, 0xbf3142d6bed1dc38U,
  0xbf1845e7bf42fba0U, 0x3f19f5f6be256fb3U, 0x3f23c4433f7ff268U, 0xbe04170a3e16b6bbU,
  0xbebcea83bebb0b82U, 0xbeb508e1befacaf2U, 0x3edabdf33d897a9cU, 0x3e9be5793eef5b09U,
  0xbe1d333e3e0b33d9U, 0xbf48894cbf157226U, 0x3e24decdbf1b47d2U, 0x3f1abb4f3f1a4237U,
  0x3f5d442d3f42535aU, 0xbe927d7a3f0cc5e3U, 0xbf62e4bdbf2d868fU, 0xbf5e64cabf3c2d46U,
  0x3ee8ee803cacf197U, 0x3f45ed6a3f482ae9U, 0x3edf53c33f8319f5U, 0xbf363d07be9bc481U,
  0xbe97b136bf032f30U, 0xbeb3144fbe8f2388U, 0x3e1265febd24b28aU, 0x3f20bb503efc0332U,
  0x3ee7985b3f30b2edU, 0xbe944dc9bd50b8caU, 0xbf283b9dbf15c3e1U, 0x3cce6039beca691fU,
  0x3e2f785e3cbdb8c3U, 0x3e7de59b3eaf9c52U, 0x3d95f8b5ba0d8fbcU, 0xbdc566903df66dd0U,
  0xbc2a4d5bbdfa07a9U, 0xbd2c1cfcbcc3dc3fU, 0xbc45f1edbcf1ac07U, 0x3c2340e8bd912b74U,
  0x3e4637e33d30a4b7U, 0x3d18fd873d477422U, 0xbda8e01bbd882806U, 0x3c8e5ab83da940f4U,
  0xbb82c459be313a4dU, 0xbc865bc23da2798cU, 0xbeb27661be2292fcU, 0xbe8c5fefbe9a790bU,
  0xbcb48d1fbe025cb1U, 0x3e7430763e231af7U, 0x3e24b5053e21b00fU, 0x3ec8f4bf3ea13965U,
  0x3ef2b04b3effd130U, 0x3e33c5c63e99685aU, 0x3dec697a3e20777bU, 0xbe6c2bf83cf1527bU,
  0xbd524e86be35b1d7U, 0xbe64c1c83d92ebe9U, 0xbee89dd9becde3eaU, 0xbe8b2543bee8e80fU,
  0xbe6e413cbe655bd4U, 0xbe1085b6beaf41c8U, 0xbe2fb8f6be7705a6U, 0xbe089e75bdc2aefbU,
  0x3c553103be3bc483U, 0x3ecde42c3e6b9cccU, 0x3e9374c43ecdfeb0U, 0x3ee0f6593ee8755dU,
  0x3f1313c83f16b826U, 0x3eb648c23f098229U, 0x3da57bd33e243602U, 0xbe8f747d3d92485bU,
  0xbec29630bf10a421U, 0xbefb877abece48cbU, 0xbe9ede18beb05e5bU, 0xbea7f04cbea84a2bU,
  0xbe21f1b8bd96b6a9U, 0xbd750061be19b07eU, 0xbea950cebeb4764aU, 0xbe9ad452bd456b1bU,
  0xbef30a58bee4ff09U, 0xbdfc2e78be89139dU, 0xbc8f1469be0e53e7U, 0x3e5045d03d00859fU,
  0x3ea76a633dea7eb7U, 0x3eca7dd03ebed45aU, 0x3e48330b3eda5ad7U, 0x3ebfcca13eced89fU,
  0x3ed26c723ead086dU, 0x3ec0a6163e037c2fU, 0x3d428ab13e4bfd1eU, 0x3cac11143e059bf1U,
  0xbeef08eebe95c144U, 0xbebd0770beac54fcU, 0xbf275a75bf0595f3U, 0xbf1a744dbf1e9d3cU,
  0xbf0e348abf0ba7e9U, 0xbd393b85be9ab334U, 0x3d033fffbcdf0131U, 0x3e44117a3e24a484U,
  0x3f0caa333ebb97a9U, 0x3ed584553e9b57e2U, 0x3ed4d35d3ea88288U, 0x3eb183a53ec60e4dU,
  0x3e5b3f923de2e2d1U, 0x3e9bc1053ec12b5fU, 0x3b45b5453e91c3bfU, 0xbd2da9d9be61237aU,
  0xbe7f9109be045d6fU, 0xbec68b1cbe21facbU, 0xbee01c7fbee56d63U, 0xbea31aa3be829bb5U,
  0xbe50d435beb5cda1U, 0xbd8a22503c3b930eU, 0x3ca486793d06defaU, 0x3e3b38793deac7cfU,
  0x3e5da04c3daadb28U, 0x3e180c213e13dd1fU, 0x3c8657da3c884740U, 0x3e8aa8ffbca6a77dU,
  0x3d6f34593e634eb6U, 0x3ec2e7ff3e8ffcc3U, 0x3e1dddeeb917e660U, 0x3db7564e3df92371U,
  0x3d9f03a73e9d765aU, 0xbe491c1c3dc1c0b7U, 0xbea0a357bebc2601U, 0xbe48acc8bebe8972U,
  0x3e342b24bd83f21dU, 0x3d6f77f43dfd41b1U, 0x3d8ab7213e2562c2U, 0xbe1cee3abcb28b2cU,
  0x3da293563ce8f9d7U, 0xbd39036cbe2f81efU, 0xba5809ed3d202fc2U, 0x3dae40b53d9161f5U,
  0x3e968e003eafbe18U, 0x3e8cc5843e66b12eU, 0xbe300e7abc9ef57bU, 0xbe312432be6270a3U,
  0xbe887952bdd74c42U, 0x3ddd55ac3d4f55aaU, 0xbe3af536be18f68bU, 0xbec036a3be9d9091U,
  0xbda443f8be2d3935U, 0xbdf3e243bdaf53adU, 0xbe28be1cbcefcffeU, 0xbe029946be32b34aU,
  0x3dd4c6afbb8231d7U, 0x3d40788b3e0cfea9U, 0x3e3cc3c63e716908U, 0x3e9c371e3de7a397U,
  0x3eb09b803eb3d052U, 0x3ef2b22c3ec02123U, 0x3cbf55323e52068cU, 0x3e1046b33e28ae39U,
  0xbc1b3e1ebe798ac5U, 0x3d62d8e03c27b282U, 0x3e57047e3eacc7a8U, 0xbe14da653ce6fa9eU,
  0xbe1351dfbdc39abeU, 0xbf12d6ecbea6c26cU, 0xbe5fbbfbbeb6ad75U, 0x3ea4404a3dff7bc2U,
  0x3f325c8b3ee31be8U, 0x3e5a4cb23f29ff7eU, 0xbeed8828be4f0247U, 0xbf1e81e1bee3fb54U,
  0xbef68ba9bf785d3dU, 0x3f0a69803dd1fc5bU, 0x3f17071b3ed54720U, 0x3f4c68fb3f1e7930U,
  0xbe419c923ec52583U, 0xbf48241abf2a8734U, 0xbf594bd8bf4430f2U, 0x3de06c72bf04d9abU,
  0x3f3a00f73f278ee2U, 0x3f14e4133f32ef24U, 0x3e2485093f0b3730U, 0xbf3ef82bbed5b140U,
  0xbf18aabbbf34d521U, 0xbee1aa49bec7a266U, 0x3eaaf692be1c4613U, 0x3f609a643f3a29a4U,
  0x3e8767c13f08e6fcU, 0xbe2e0ccf3e18e6a5U, 0xbee9d03ebeafb505U, 0xbf24b822bf25fd42U,
  0x3d4ff43bbe929b41U, 0x3f11fd9b3e9a59d8U, 0x3f0659343f288001U, 0x3c69a29f3e30cdbeU,
  0xbe9776c8be5a91fdU, 0xbecf56c5bf09ac75U, 0x3d83e05bbeaebbc9U, 0x3ef511123eb84dddU,
  0x3e5c2f9fbe028713U, 0x3de93a0abb2d1cc6U, 0x3d514e4d3d2871faU, 0xbcfa5613bda5bc36U,
  0xbe1e9cc63b046b0aU, 0xbe86f365be00851fU, 0xbf04620fbe9b1c0aU, 0xbe92a54ebe85d67fU,
  0xbd3a25633df5557bU, 0x3df78dd23e04eb5dU, 0xbc3f35463dc412b3U, 0xbe238b59be31bd87U,
  0xbe46592c3d81e4d5U, 0xbdfccb523d94eb45U, 0xbd1baf72bd40ff34U, 0xb9fb948ebb5cbedaU,
  0xbe6e04dfbe2bf8ccU, 0xbe6a84d6be39f8b2U, 0x3b923076bdc0f6f1U, 0x3e0aa4923e3b5b77U,
  0xbdc343b93d15287bU, 0xbe839b86be793918U, 0xbddff5a8be0e12b7U, 0xbe214a44bdd88696U,
  0xbe1f7ebabe9df268U, 0xbe02240abe570130U, 0xbb14b750bdd78b00U, 0x3d09b29f3c30575bU,
  0x3c250823bd47e882U, 0xbe487052be30e751U, 0xbece584cbe150cdfU, 0xbe974c3fbe81d745U,
  0xbbd89780bdac5170U, 0x3e55cc5a3db16c58U, 0x3cbcbbb73c9d340eU, 0x3dc8b527be56a0f4U,
  0x3ce60c49bcb980e6U, 0xbe10193abd452a3cU, 0xbeeee863be9243e7U, 0xbf06d295bf045adeU,
  0xbce1f887bbd611beU, 0x3e47d31f3e0c2dbbU, 0x3e859b4f3e3160f4U, 0x3dea37663e32a664U,
  0xbd717986bda089d3U, 0xbe6b8ff1be2c3800U, 0xbe8ebb4abe2dcfdbU, 0xbe03b67fbea46593U,
  0xbe8d2893be2e99b0U, 0xbe87cb63beac1458U, 0xbe5cf2a4be82ef3fU, 0x3d0910fdbda44f94U,
  0xbdeb9e343cca7334U, 0xbd8f1c8f3d9e9615U, 0x3e862043be40cf8aU, 0x3efde0833e4fb9eeU,
  0x3ed9bebf3f1abba1U, 0x3eb662383eeeed95U, 0x3e31d2ad3e9c0c9dU, 0x3dc7b4e23dc87cf0U,
  0xbe15cf4fbe05e89cU, 0xbe02e93a3bc3a5d5U, 0xbe759625be86cdc8U, 0xbe019e89bd82c529U,
  0xbe82dbe5bed7e0b4U, 0xbe72ab52bebfc05bU, 0xbe96d120be5beabbU, 0xbe78bfa8be846ab1U,
  0xbdc8bc3dbc62c6feU, 0xbda772ffbd5b7ca0U, 0x3df2b769bda8123fU, 0x3e7848df3e63308bU,
  0x3eb60cb93e9c5c46U, 0x3d0e106d3e754461U, 0x3e2952a13e2cbe24U, 0x3df875503e278e1cU,
  0x3d8d97d13d69c28eU, 0x3c808d903dee041bU, 0xbdc31b2fbdffa3c7U, 0xbdb3e0b9bda003feU,
  0xbd232af0bc68a30eU, 0x3d2cd1a6bc0f177bU, 0xbde0a0a83dba22c2U, 0xbe07e482bdd905b3U,
  0xbdadb883bdaa8ebcU, 0x3c938029bdb34986U, 0x3db520d23e0b14ddU, 0x3e9aac7d3e9d03d9U,
  0x3e5f00d23e1f9f99U, 0x3d822d9f3e1d3020U, 0x3d857d1f3d76ed7fU, 0xbd138b9f3da22f73U,
  0xbd9eaf22be002a05U, 0xbea5e3cabe7484cfU, 0xbe88c9c2bea9d629U, 0x3e605b36bd88a133U,
  0x3e0474013dbd8d8dU, 0x3d0f8ac13de1c9f9U, 0x3c99aeac3de72cd2U, 0x3bf6e8f33ca269a1U,
  0x3c76cd8fbd8e442aU, 0xbcff5d01bd09c948U, 0xbc8497cebdfc8177U, 0xbda881b13c558501U,
  0x3d8bc6c5bc10485cU, 0x3dba56ce3e342772U, 0x3d7763823da2c908U, 0xbc38c0b7bbf843b7U,
  0xbd9ab2b9bd8863ccU, 0xbd47eb6cbd38572dU, 0xbd9e5a3fbd29c120U, 0xbd02b684be0d630cU,
  0xbcdb6cd33c50bb8bU, 0x3a414bd2bbf1275eU, 0x3e131ba73daface4U, 0x3e08460d3ab7672fU,
  0x3e4e1f233e3880b4U, 0x3cbeac703c879861U, 0x3d11c37e3bbd685fU, 0x3ddffc5f3dd4fb4aU,
  0xbe7dafdabd7967feU, 0xbdc2c3f4be5bb745U, 0x3eeba0193f09c977U, 0xbe983f483ed97fc2U,
  0xbf221160bf06d467U, 0x3dd22be43d7de79cU, 0x3e23053e3ed282d1U, 0xbe852816bdd027f9U,
  0xbde8be03bea49e7fU, 0x3f43eaf73d326540U, 0x3d7a86e13f20b227U, 0xbf642588bf6f01a9U,
  0x3e5238f6bf1ae9a1U, 0x3f2d98193e2b42a2U, 0x3fadd9473f710c2eU, 0xbf94364dbe182c02U,
  0xbf5ae79ebfca31cdU, 0x3f2ac7d0bee6ec8fU, 0x3fb48b4d3f9395f3U, 0x3f101f0c3f8d93b4U,
  0xbfe88e58bf5079f8U, 0xbf683566bfffa877U, 0x3faf40e33eb421feU, 0x3fe700373fd1456bU,
  0xbf4025703f7a3da7U, 0xbff313e6c00b8055U, 0xbd78340ebf9b79deU, 0x401903ad3f71bc6dU,
  0x3f1981ce400b995eU, 0xc00260bebf8867ccU, 0xbf3b65acbfd0ac03U, 0x3f6221983e01fff8U,
  0x3fafcdf83fcfd8afU, 0xbf341e053f1ae1ecU, 0xbf869448bfb07181U, 0x3e06c262bddb6732U,
  0x3f14f2953e8e34a1U, 0x3c2128203f1fbbaaU, 0xbde0881fbdf1c271U, 0xbec1cffdbd06bff4U,
  0xbe500287bd6d19d1U, 0xbe244babbd995e62U, 0x3c7d41debcd4af4eU, 0xbc3b3e32be1f5938U,
  0x3d4ef8e3bc68421dU, 0x3dfd59173e0b673fU, 0x3e503c50bdd492aaU, 0x3e7a83533e96cd8fU,
  0x3da5e36ebcdb5199U, 0xbd82d82f3e9b64a4U, 0xbdd9b6babdad987eU, 0xbeddd318be78cdfcU,
  0xbee2c810bf134cb4U, 0xbebbae44be597c3bU, 0x3e3e7a17bd0a1a32U, 0x3e067e5b3dd825deU,
  0x3ecfae773e2e3d0aU, 0x3f1fb5ff3ef52a7cU, 0x3f08f5fe3f4a90abU, 0xbe3a07e63ea7529fU,
  0xbebdb12cbe4999c5U, 0xbf4c9793bf337f21U, 0xbf0b413fbf45520aU, 0xbee10077bf042bceU,
  0x3db7c699bdcfb14dU, 0x3edcf1d93ec64d7fU, 0x3f3b00283f111eb8U, 0x3f0def7d3f4e4115U,
  0x3e9abf453f0cab90U, 0xbead9aa13d6b4e9aU, 0xbee15e1abebf7955U, 0xbf417916bf18a718U,
  0xbeda18e6beca6c52U, 0x3d122890be40fddaU, 0x3eced0cc3dbb7260U, 0x3e9459343ea7adf3U,
  0x3e369fd63ebcf4d8U, 0xbd4b65b53c8f5868U, 0xbd8376113dd0bb81U, 0xbe9d7cc2be4ba001U,
  0x3f7a4f30bf52a1baU, 0x4074d30fc0171e7eU, 0x403da106c069fc8fU, 0x4056fac3c0613930U,
  0x3fedb8d5c052a4dfU, 0xbf5221a13fbe91bcU, 0xbf958bfc3e2b3f8cU, 0xbf43fcdc3ddd205cU,
  0xbf7de4553fb5bf3dU, 0xbf5946223fa9eb25U, 0xc007f7233f5783fbU, 0xbf6dbd36400810c3U,
  0xbe24268b3dcaeb87U, 0x3f16631f3e9b4bcdU, 0x40092b1dc029d82cU, 0x3f950476bfc0b4bbU,
  0x3e9e6ceabd89ffb8U, 0xbf9b4dcd3f32f6baU, 0xbffd1db03f598f27U, 0xbf8436973f8d88c6U,
  0xbfad24de400b2d14U, 0xc00909a23fb7d718U, 0xc08a54004005c91eU, 0xc022bb1c40a5d9acU,
  0xbf58dc943fc6ee93U, 0xc041dc823fcfc049U, 0xc0191f8a40528e0eU, 0xbea24faf3f868d71U,
  0xbf4d69b4be9965beU, 0x3e16bc993feb7bd9U, 0x3f9b64e1bf67fd39U, 0x3dee09febfe75d33U,
  0x3fa4d0a43eaf6d48U, 0x40583fe0bfec9243U, 0x3f0846a7c0493139U, 0x3ed3a2f93d8fc977U,
  0x3fbec0b6bf2fcedfU, 0x3ef5e31fbf9c3a2bU, 0x401b29b4bf8d6ef1U, 0x405425c0c06a8e2fU,
  0xbf7093f037584310U, 0xbc10986ab8f2f6e4U, 0x3d68e02bbc3800ccU, 0x3e5d34a6b96a9089U,
  0xbed510713a9bb1b1U, 0xbc1a328a3db8701cU, 0xbb1821dc3dc31595U, 0x3d3e6fab3e04c6e7U,
  0xbbbc30df3dd6ed24U, 0xbb0190a03c32f816U, 0x3ec8028a3d4e47caU, 0x3e25a08a3dfac361U,
  0x3e86db423e5b09f4U, 0x3dabac323b5b5474U, 0x3b1a0ef03df22e0dU, 0x3dc4cda43bc2c871U,
  0xbd09cc67be00c394U, 0xbcef45bcbd9a4959U, 0xbcafa07abd215f3aU, 0x3ce676733d3149d4U,
  0xbc10370f3c841687U, 0xbcd190c33c10067fU, 0xbc0b8dda3c700fe0U, 0x3d0966ffbcda421cU,
  0xbd20a74b3c548a53U, 0xbc9d56a83ca21495U, 0xbd661ca0b8ec210bU, 0x3a600c21bd147f85U,
  0xbd20629a3cdd9e21U, 0xbbfb62dfbc95e5faU, 0xbe030cab3b640dc3U, 0xbd08c9f43cfb149eU,
  0xbcda7abbbe09dfe6U, 0xbcd9dbf6bdacc9e5U, 0xbcc2bcadbd12ea6bU, 0x3d0de1df3b8ca665U,
  0xbd1f3fcb3cc68515U, 0x3c9061d43d24abc5U, 0xbaf6c531bcef56b8U, 0x3d1a5e48bbdf5d42U,
  0xbcec63d63ca78abeU, 0xbd3337133c8b73e0U, 0xbdb6b36d3cdc057dU, 0x3cb6be68bc171323U,
  0xbd86442a3bc2b379U, 0x3d3fff5eb9b4f5c3U, 0xbe125503bab5f0eeU, 0x3cf897243bed7be7U,
  0x3b159cf4be07dbe9U, 0xbd696423bdfb7811U, 0x3caa4adfbca837deU, 0x3cfba106bcc64369U,
  0xbcd70088bafd2635U, 0xbd6f10b73c90f95eU, 0x3cd39bfdbc67ef87U, 0x3cb2f73cbd54074bU,
  0xbd5a59cc3d166e81U, 0xbdd26db4bae6dc92U, 0xbded8ec5bc62ae7fU, 0x3ccc5ec03cf61784U,
  0xbddb35c7bb8c5b92U, 0x3d10eb973c8541a8U, 0xbdd5051e3d0fcaefU, 0x3bce6b74bbbe71ecU,
  0x3bbbecb63db48f32U, 0xbb8f6849bd3f0eb3U, 0xbdb7d60dbc404d9aU, 0xbe0f23c6bd5b6bf9U,
  0xbc3536083d845d8eU, 0xbd7a76f2bd4e3fb1U, 0xbc5c2430bd639e79U, 0xbdc3a133bc22809cU,
  0x3c081d42bd764c92U, 0xbb4303933b1983c8U, 0xbd21060cbd67c3e9U, 0xbddfd253be1eab99U,
  0xbcde1a56bda165dcU, 0xbe179c80bd0a2da1U, 0xbc91a79fbca938e2U, 0xb960da04bd9809f9U,
  0xbd169e00bc64dc09U, 0xbd8b785abdf27c25U, 0x3c39628ebbd4f58cU, 0xbd9f168d3cdcbfafU,
  0xbd305a25bd14564aU, 0xbd0c3bffbdab7960U, 0xbda7ebebbcfcf4edU, 0xbd3321fabd9beca4U,
  0xbdb97a8ebb7f2ce9U, 0xbd282fa9bd22e3f0U, 0xbd98c160bc1ccb81U, 0xbda949963bf0b0f6U,
  0xbddc7e5ebd131ea6U, 0xbd3d154dbd932b9bU, 0xbd9c3048bd9c4324U, 0xbd1d137bbdcb3f2eU,
  0xbdfb03b1bc84cf70U, 0x3da9039cbcad7ff7U, 0x3d8fcc0a3d5e9e87U, 0x3dec66483d476878U,
  0xbd027831bc2a9fc7U, 0x3d98aef13d265a99U, 0xbc81740e3d50199eU, 0x3d1affaf3cb84a0aU,
  0xbc53b139bc1192b7U, 0x3c8a3c86bd8d9245U, 0xbae88e463dbb7a4fU, 0x3d5a8f873dd1e382U,
  0x3ba846a73c73f950U, 0x3cbca3743ca34176U, 0x3b65ae753a5eb7f5U, 0xbd1b06883daa4e24U,
  0xbd3eee3d3cf9983fU, 0xbc981522bd22fc4aU, 0xbc8c506cbc8a5b62U, 0x3b6c56653d02f918U,
  0xbc869011bc9bdf7bU, 0x3cce41c6bc40c580U, 0xbb5d7e803cdf6643U, 0xbd62d743bda460ceU,
  0x3d25341abd0a5202U, 0xbd0386d3bc1962e7U, 0xbda8297fbb09267fU, 0x3c088e5bbc8ef93cU,
  0xbd96818ebc9b63b3U, 0xbc8072283c48c057U, 0xbc5f5c37bcc0f9a9U, 0xbcffb8d2bbd9cda4U,
  0xbcdb1c7a3c809c04U, 0x3c743a8fbd740b33U, 0xbc1ba9363c75d4afU, 0x3c6849b03cc4b0f4U,
  0xbd5152c8bc9158ffU, 0x3d33f7b2bc306cd5U, 0x3d28be803cd463a1U, 0xbd1f1b06bdaca6eaU,
  0xbc022ac3bcb6e0b6U, 0xbd2bc9443b83df94U, 0xbdc6494b3bba7f0eU, 0x3c8dde623c02ebcfU,
  0xbdd5e56fbca94104U, 0xbc06ffd93bab96caU, 0xbd2f4217bcae72c3U, 0xbc504aa83caae643U,
  0xbd4ec6573d64a2b7U, 0x3d3d5c62bd9ab411U, 0x3cd4126e3c8b5153U, 0x3cdeb4ce3d5e974cU,
  0xbd09bd3cbb73a984U, 0x3d53cf2e3c2f2634U, 0x3d07fc0b3d542a45U, 0xbcb9aca4bd69dd86U,
  0x3cbb7257bb6f97e0U, 0x3d0c9d803c4695d1U, 0xbd5525713d0188c4U, 0x3cec08be3bf3a90aU,
  0xbd66e6c93d143507U, 0x3ce9d0f03cb28c96U, 0xbd0d56303bab5493U, 0xbce0ad5b3d7fd3c5U,
  0xbb5bba593bdea531U, 0x3c20dfeabc852ad0U, 0xbc16f45dbc0a7804U, 0xbca2c5773c395dc8U,
  0xbbcf369d3c81386fU, 0xbbb7db27bc97fa36U, 0x3cb611623b6fc34eU, 0xbb9b1fdc3b37d86bU,
  0x3baf6d50ba95569bU, 0xbc1d79cabc566212U, 0x3ae9bc7c3bae26ffU, 0xbc944354bbc13515U,
  0xbc756a75bc436bc0U, 0xbbbdeac0bc69168bU, 0x3b2f967a3b3cc9acU, 0xbcb426ae3c6dc0bfU,
  0x3b4e2fa5bb317302U, 0x3b5fac963b154924U, 0xbc53c897bc8fd4e3U, 0xbc947a013c1c63e9U,
  0x3baef4683ce49521U, 0x3b9089debc8d12dcU, 0x3b6de5bd3caf8627U, 0xbb842aeb3b0e4943U,
  0xbbb969fcbb1e47fdU, 0x3b00b475bc638ca0U, 0x3c84723bbb964915U, 0xbc3fae3abb7ba231U,
  0x3c3eed1bbc18f7cdU, 0xbae82c19bbc7c988U, 0x3b43f5d5bbb661d6U, 0xbc4141583c07c14aU,
  0xbbc7e1e93c871780U, 0x3a3356c03c042433U, 0xbb95af4bbb3796f8U, 0xbccbbf843c146dacU,
  0x3c8a2c743cefd7baU, 0x3b8e8c44bc5a871fU, 0x3987b30b3b9e7855U, 0xba4f477a3c605e2eU,
  0xbc85f723bb63ffa5U, 0xba994512bc71ca3eU, 0x3c9b67fbbc3532ddU, 0xbcc3553ebc218409U,
  0x3bce2f35ba7ddea5U, 0xbc4dc409bc3a0f9eU, 0x3bfc73533b80ce8fU, 0xbc2501573cb90b6dU,
  0xbd6336b9bdfe4a68U, 0x3c9086623d7dbc7eU, 0xbd2fecd03c18cdd9U, 0xbc5d0844bb25b2f1U,
  0xbd85f1b6be6ea25eU, 0xbc682f893c9fa246U, 0x3d0931bd3d2590cfU, 0xbd4d69b7bcf19596U,
  0xbc70ef55bc628256U, 0x3c4996513d1d140cU, 0xbcf5a0a8bd1687edU, 0x3c1dd063bcf2db60U,
  0x3b84cb333c7844ffU, 0xbceaa1e1bc1afcb2U, 0x3aafa007bd070f1cU, 0xbdd8d5f13c962b82U,
  0xbd9fabd9bd8aaf79U, 0x3b2ee4a43d85d121U, 0x3d4c92f9bbd41553U, 0x3d10742d3bf961beU,
  0xbd504451be81d1fdU, 0x3ca90c6a3c1bac0bU, 0xbc43fa77bd0b3a0cU, 0xbc175b143d4872b5U,
  0x3d1b7ca1bb09b4d5U, 0x3ca10efdbd18c430U, 0x3d74050f3d3e59d5U, 0xbcf0b8de3b2f7b9bU,
  0x3d3bba28bc987a7dU, 0xbc11c67dbd26b8b3U, 0x3dccf9a73b6e7939U, 0xbcfc884fbb1d3a54U,
  0xbbcdcbcb3c2bfee6U, 0x3c33ea21bcf437caU, 0x3ce592d03c08d743U, 0x3cfac4713b34d428U,
  0xbdacc189be434d6aU, 0x3ca573623ce320b4U, 0xbba4d5ea3d1c56c7U, 0xbc3a61123c61f175U,
  0x3d2eeab03ca831f1U, 0x3af97ce23c9dfbb0U, 0xbc3a9a4cbbe3b5dcU, 0x3d08e22e3d15f8abU,
  0x3c4fd1513c6650ebU, 0x3d17400fbcfb7e9aU, 0x39f58ab73bded75dU, 0x3ae8fab83b00144aU,
  0xbd415b12bd287890U, 0x3b9d587fbd174b7dU, 0xba52f075bb313eb9U, 0x3aae242cbc8022d1U,
  0xbc87f26a3dd614b5U, 0x39bdc91f3b338c8eU, 0xbb653822baccf601U, 0x3c773e8fbc3720e7U,
  0xbe118acebbd84adeU, 0xbb5f8c65bcfb336fU, 0xbc4c128c3b03dd0bU, 0x3c0133243bb73520U,
  0xbbf3a4813c606b08U, 0xba357e49bb67b5ecU, 0xbd9bbae0bb17607dU, 0xbc13464abc6198cfU,
  0xbd83764abc94d26aU, 0x3caed03bbcc83018U, 0xbc0f618e3cdc0bf1U, 0x3c196da2bc63e980U,
  0x3be0cda03d38bc22U, 0x3bbdb0e9bc7bd4f8U, 0xbb3e19d5bb141ddfU, 0x3c5910e83c7263e7U,
  0xbe097e35b9085284U, 0x3d2f37cdbd295f26U, 0xbbc7fd14bc950214U, 0x3c38e8043bdb7cadU,
  0x3c8cf0af3cce793cU, 0x3c55b9423c14dcd4U, 0xbdc317343be2cc47U, 0xbc0d6e443bb6352bU,
  0xbc784fdfbc70772dU, 0x3c8a6403bd188888U, 0x3a9f1bbf3cf533c5U, 0x3bb081e63b11aeddU,
  0x3c51bc2d3dd50955U, 0x3cca4a98bc69b09bU, 0xbb1cc5cbbc7a7682U, 0x3c9b0d863cdbb2aeU,
  0xbdff58023c309604U, 0x3b1d24c7bd88135cU, 0x3cb34751bc5dde5fU, 0xbbf4fbb0bc24ec1eU,
  0x3cf8a1983ca7acb3U, 0x3c6b21783af4cb59U, 0xbd8187ac3c30c413U, 0xbc896b763a58b5ffU,
  0xbdb3198abccce8ddU, 0xbe5524c0bc1e59f7U, 0x3d7ac5f3be16e60bU, 0x3d4e54e3bd11d13dU,
  0xbd9b528bbc8e1a1eU, 0xbe53a87a3c5b6832U, 0xbe21763b3c3d1529U, 0x3c2448f7bdd2d7e2U,
  0xbd1eee003b74755aU, 0xbdd248153d2d1745U, 0xbdf87497bc75c85eU, 0x3d7b8ebc3cd1cc59U,
  0xbe01b5293c3e12cdU, 0xbc2e75d53d0e1336U, 0xbd06fe2e3c029dcbU, 0x3c0ca99fbdfedb38U,
  0xbda31ce93cda167dU, 0xbe35ebe9bcce321dU, 0x3c8d1ef0bd99ae5eU, 0xbc545f88bd3cbbe4U,
  0xbd67395439e9852cU, 0xbe23778d3cb59d41U, 0xbd33afd3bd552f13U, 0xbcee7ed4bd5b9cf4U,
  0x3aa3c31dbc8715c5U, 0xbde981e73cde3f55U, 0xbd938dba3b94020cU, 0x3b8a849f3cc712adU,
  0xbd8e1d7bbced2763U, 0xba8d0e80bb396a3aU, 0xbbd2af22bc871387U, 0x3cccd3c3be14beffU,
  0x3b2a76c53d64f6f5U, 0xbd9f39dc3dab03cfU, 0x3d91599ebdc2e086U, 0xbd37bc20bcb5c264U,
  0xbc3521b13d13fcf4U, 0xbdcce4c9bb556a96U, 0xbda5e522ba8b124cU, 0xbc3aff163d3b9747U,
  0x3da35b65bd457533U, 0xbcdf84e23e008f89U, 0x3caf657bbb7db1f0U, 0x3d22558dbc24eb56U,
  0x3ce98a9a3b843d37U, 0x3cf03cdb3d05d2dfU, 0x3dc5db15bb722896U, 0x3d62f90abc2bfc8cU,
  0xbc86349bbc2278baU, 0x3ca32c743a7a682dU, 0x3c5ebfd63cd3d919U, 0x3cdf1225bbde4a1eU,
  0xbd477f42bb418fd7U, 0x3cf1c0063d1839a0U, 0x3cf55f813c84a32bU, 0x3c2ded653ca2e40dU,
  0x3cce824c3b8d1d70U, 0x3c5fe3443d43df1fU, 0x3cc52b023cc8caa4U, 0x3cbdc8153c5ae910U,
  0x3bdc77c1bc0966b6U, 0x3cd8284d3c90d5edU, 0x3d88a17e3cb82cd2U, 0x3cc15b08bc17f916U,
  0xbc81ccffbba5a0a5U, 0xbd135b74bb7f8721U, 0xbc45b52cbc692f1dU, 0x3c043b0ebb3eac54U,
  0xbc9bd2fdbc7de52fU, 0xbb760df33bf6f457U, 0xbc8ed63bbd0077b7U, 0xbcd39fc9bbf4072fU,
  0x3a71f7e7bccba1bbU, 0xbc1a4f7d3d34df29U, 0xbc8af6dfbc5ae390U, 0xbc1fa3263b9cacdbU,
  0x3c964375bbeb0754U, 0xbc40ff88bc1b242aU, 0x3d724aa6bb84caf7U, 0xbb34fa4abd1fc683U,
  0xbce20e50bc1e8b0dU, 0xbd6be7273c5a7908U, 0xbc8ab875bcc18f9dU, 0xbc5bebcabd36f0e8U,
  0xbc813a26bc6308c1U, 0xbd108846bc22e601U, 0xbd13927ebd0596c4U, 0xbca454803cd59a3cU,
  0x3d9efe82bc099251U, 0x3b01a8533c89cd01U, 0x3cb64a52bceed93aU, 0xbc28cdd93c71ca57U,
  0x3c1d0ac6bccea8eeU, 0xbcd378cabcc9fa0cU, 0x3d0f78a4bd023180U, 0x3b986447bd1cd118U,
  0xbbe9298fbb266e9eU, 0x3b148cbcba426a2fU, 0xbb1c40d13cbc1c15U, 0x3b78f885bc8b99d8U,
  0xbb2a9e37bb24ee8eU, 0x3a0979dd3afc56aaU, 0xbc0e93013bad50b3U, 0xb9a0033b3cd99ac4U,
  0x3ce4c4c0bc1f55f4U, 0x3bb768c43c858b8aU, 0x3c90b152bb93f3a2U, 0x3c1c4d8c3c58512dU,
  0x3cf88f3abc0671e9U, 0xbbfcd378ba2ac9f5U, 0x3cb553dd3c034af9U, 0x3c5267b23b8a31ebU,
  0xbcc47d2aba1ff462U, 0xbcc762dd3cbc89a8U, 0x3be395a73c6e7784U, 0xbbdfd5ecbc240a15U,
  0xbca976debc08a842U, 0xbc8b1c87baca23cdU, 0x3c34ef643c7bfbaaU, 0xbc8950143d2e3043U,
  0xbc8fcac1bc5ec1b8U, 0x3adfe7d43c37401dU, 0x3cbaee843b999f4cU, 0xbc86bef8bc1ff5aaU,
  0x3ce5c226bcc2fb4cU, 0xbc28d24c3c3e1eaeU, 0x3cbbcc38398695cdU, 0xbb521c953c652489U,
  0xbc6a5d09bc13cf6dU, 0xbc48c5373c5def76U, 0x3b5b504cb9b4865bU, 0xbbdcd73bba478e45U,
  0xbc252b79bc5c1d20U, 0xbc6d3bd63ba1d31bU, 0x3bd673df3c154f10U, 0xbc8fd7dc3c1b9373U,
  0xbc1aeb59bb416e3dU, 0xbadac6bf3b79119cU, 0xbc15c062bb28c4d8U, 0xbc456827bc2a0b47U,
  0xbc9fd85bbc91f85fU, 0xbb48dadeba693f79U, 0x3c4dad3f3bdd7d79U, 0x3bbbc3133c04ab9aU,
  0xbc627a90bd57b2d7U, 0x3c7838a3bb8a39aaU, 0xbc29acbb3c8c1a85U, 0x3bc8a485bc308fe1U,
  0x3bafab983bd04924U, 0x3d383d99bcc3a370U, 0x3b9404953c8d5c6eU, 0xbccbb4ef3a812df7U,
  0xbd234256bb6630d3U, 0x3d09cd4c3c389922U, 0xbc2e59b9bc0a17afU, 0xbce93cc8bd19f9d3U,
  0x3b5fa1e7b9e535dcU, 0xbc247b25bc79cb52U, 0xbcaf2443bcfba130U, 0xbc0215aabc825674U,
  0xbcba65f7bd420e3bU, 0x3d39fec53be25f71U, 0xbc98db5c3d315251U, 0xbb1881e53c49afa4U,
  0x3c2843bb3c6f4d3eU, 0x3cfc66cebcc35427U, 0x3cc013fe3abd4ab7U, 0xbc975ccbbcf4b9e8U,
  0xbc657a713c5f83a1U, 0x3d586301bc07d0d3U, 0x3d037b593aabb6b5U, 0xbc4bb6c3bc5c25e6U,
  0x3d13993d3bc2420cU, 0xbc40230a3c68569bU, 0xbc8d7823bcbf404bU, 0x3c4859403c45ba3dU,
  0xbc9937a9bc9ff182U, 0x3d5901823bd08613U, 0xbc7b272c3d38fb7bU, 0x3c8ebac63c361cb9U,
  0x3cc6a8b33bb212dbU, 0x3d43f5da3c0373d4U, 0x3ce941623bb09665U, 0x3c0e90e2bc316dd7U,
  0xbc83850a3ca8af44U, 0x3d7cd7483c7ee890U, 0x3d1274893ab6d2e7U, 0xbc5c7ee2bc85f26eU,
  0x3d7366f03b5ae82eU, 0xbad9d148bb9a8835U, 0xbb6339bcbbbeb924U, 0x3d14eb10bb0da00aU,
  0xbca8aad1bcf592d7U, 0xbc99584ebb045050U, 0xba2a069f3a73ae63U, 0x3c991aa5bc217f9cU,
  0xbc1b98303ddc708aU, 0xbc7e15223c24ecdfU, 0xbc2d2023bb3d4fa4U, 0xbb76a2493b3d7e15U,
  0xbce2c4c3bc37e084U, 0xbc8181663ccb9bbbU, 0x3c0602e23b392169U, 0x3c3f82553c39f8b4U,
  0x3aef383c3be73d8fU, 0x3c27d0cc3b58edbcU, 0xbc5b50c4ba30e8f2U, 0xbc140156bc05fbc0U,
  0xbcaabf30bcb951f2U, 0xbcace664bb4522deU, 0x3c06975dbc8e2b2fU, 0x3cbdd5a0bb3a2871U,
  0xbc1bab20bcc644cbU, 0xbc00ba40bbffddfbU, 0xbbf2d96e3aa25a3cU, 0xbb8e9798baf4a1ecU,
  0xbcb85b1fbba55f01U, 0xbc3b4b8f3ca234ddU, 0x3bb77e353a8b8471U, 0x3c966d023c52adfdU,
  0xbb6c02a13c7d080cU, 0x3a72b8d23c246d04U, 0xbbc45535bc1a0efbU, 0xbb8f290bbac146ddU,
  0xbc2c32e33a32d15aU, 0xbc416bd1bbc2b6ddU, 0x3c364daabbbcac07U, 0x3d227733bb84c26bU,
  0xbb4ac1653d809820U, 0xbba957683b193d9eU, 0xbc1cf4d03c150813U, 0x3c2039c43b258c93U,
  0xbd237dabbc33e152U, 0xbc2ad2593b21844aU, 0x3a5137eb3bab5a96U, 0x3c45b5a33b98e06bU,
  0xbb8c7d673ca74529U, 0x3c28b9dbbb2e05fbU, 0xbba10762bb32828aU, 0xbc069c983bff95dcU,
  0x3de2c5833c052ddbU, 0xbc163c8ebd322767U, 0xbdcc1e60bcd1c72aU, 0xbe716633bd5575f5U,
  0x3dc41ba9bccca54dU, 0xbd904784be2c260dU, 0xbd0d99b5be358f35U, 0xbd8c25f83c6ce91bU,
  0xbd84ee9fbdf495adU, 0xbba79675bdf68466U, 0xbd2916cebd2d0480U, 0xbe4a32f9be0e4a63U,
  0x3d5dfac3bdb5015cU, 0xbdea80993d06c1f7U, 0xbcfbf424bc9f6abbU, 0x3d17ff73be08a453U,
  0x3c15d67bba955cb6U, 0x3cc04badbc12af9cU, 0xbd917f00ba83a33cU, 0xbeaa0a053c30875cU,
  0x3d47af6339c5ce2fU, 0x3cd5bc77bdbda5d7U, 0xbd1a811fbe40347eU, 0xbdac04493d118637U,
  0xbcd1a82dbd8fa50bU, 0x3c926eb3bcc694b1U, 0xbbede09ebd143000U, 0xbe202c3cbda5f14aU,
  0x3d2f51dabdff0e4eU, 0xbe02e1ebbd414a93U, 0xbbf8c417bc75aaccU, 0x3d770075bdedf081U,
  0xbdec90733cdb7666U, 0x3d36d4053cc22bbcU, 0x3ba380183cfb6922U, 0xbe54636c3c8bf30cU,
  0xbd8167d6bce2c879U, 0x3bcbb09ebda24c5aU, 0xbd6919b3bdcf9f0fU, 0xbd3480693cc4916dU,
  0x3ce48712bdc81474U, 0xbbdc7472bc838573U, 0x3d11c9edbcb9ca2eU, 0xbe0799f5bd706d56U,
  0x3be9545abe268fb9U, 0xbd84db6a3d06b329U, 0x3d5b1088bd1e4b5fU, 0x3dda2b88bc4a7cafU,
  0xbd716d9bbbad4f62U, 0xbe03aa3d3d653accU, 0x3b585f15be19bc88U, 0x3d00a1f63bcd0521U,
  0x3c55229e3d03f9c2U, 0xbdd03f42bc9c6778U, 0xbd7e1ae73c1b468fU, 0xbd2843da3d1602caU,
  0x3ccd3c05bd19fb6dU, 0xbd7bc2a9bc18e988U, 0x3c9afe00bd353106U, 0xbc82e6f8bb3d9737U,
  0xbc2514cfbbcaad7cU, 0xbd27417abd2d9f0fU, 0x3da0df34bc952b67U, 0xbced13a3b88faf70U,
  0xbd334b593cc718a2U, 0xbdc27a093c2f8ab0U, 0x3ccd9f93bd97d5abU, 0x3c1d13363c01d4dbU,
  0xbd8eaf693cab97cfU, 0xbdbf7edbbabd0b85U, 0xbd5196da3d58e974U, 0xbb34921d3c2be6ffU,
  0x3c15e4e2bb88f484U, 0xbc4926f4bc1dff1dU, 0x3d5d5a30bbb58fbaU, 0x3d008d893cdb473fU,
  0xbd9fc116bbc20559U, 0x3c39a8b1bd34fccdU, 0x3d0e67b8bcc411a6U, 0x3bc5ae46bc12b985U,
  0xbcba8f8d3c42fbb5U, 0xbd27ed543cdad749U, 0x3cf591a0bd8369ddU, 0x3ce12fafbcba90e9U,
  0xb9d906843c0cf344U, 0xbdb26c88bb55e953U, 0xbd7ec2353d49493cU, 0xbc42521c3d1ac96aU,
  0x3cb064cdbcf4ba62U, 0xbaea3633bc8212a0U, 0x3c96fd55bc248a82U, 0x3d903d5b3d279ce9U,
  0x3c95d2933cafccd8U, 0x3cdb2883bd73a90aU, 0x3cc4f07e3be47cb7U, 0x3aff242a3b17f3b7U,
  0x3c4acf81bcd27ed1U, 0xbd1a480dbd9596c5U, 0x3cb02424bcd408d7U, 0xbcb1d1543c1e2e53U,
  0xbd0291af3d249a13U, 0xbb4064ba3a9e6a2eU, 0x3caf254f3cb79215U, 0x3c620d9dbd3ba9f7U,
  0xbc896e1bbb94e347U, 0xbc66e8bf3d290c8dU, 0xbdb5828d3caa15b3U, 0x3c4693e3bd038b33U,
  0xbdaa07343ce732c0U, 0xbbe8ced2bc82092bU, 0xbe0cc2e7bc27babbU, 0x3d54f1b2bc030f2fU,
  0xbc076f80bd959cf7U, 0xbccabb72bddf87b3U, 0x3c9de179bc5d1d74U, 0x3cad1c2f3cf4a905U,
  0xbd1ea2513d2604b8U, 0xbc6f3f033c71ba93U, 0xbcae97153d519151U, 0xbca40c4ebd766a28U,
  0xbd5d8b9bbd0d919dU, 0xbd22f2c43cb4103dU, 0xbd99e5353d1001b1U, 0x3cffee8e3ce67c27U,
  0xbca803073c85cb1dU, 0x3c3188bfbcde05a4U, 0xbe0b720b3c6bdb73U, 0x3ab1d591bbb75a4dU,
  0x3a4ffa9dbd91ca02U, 0x3c90b49dbe18e9f4U, 0x3cab233bba67464fU, 0xbc830d713cb8c6f8U,
  0xbc6203093d430e8cU, 0x3cd941d53bb90d79U, 0x3cde7c283d28153dU, 0x3cb93d5bbd4d72d5U,
  0xbdb1b2fcbc403677U, 0xbd823b4fba86421dU, 0xbdc24c443c9814c3U, 0xbc46fcc03c4c5ff6U,
  0xbd5cf79e3cee3220U, 0x3d05b4cebc448e16U, 0xbe2a82da3c86d050U, 0x3d3bf5643d2a1200U,
  0x3b36ceb83d1ab62aU, 0x3ca33a8d3aa2b873U, 0x3be0223c3b8d9088U, 0x3bc1745839f6077aU,
  0xbbffb29a3c11a3a0U, 0x3c0978843bb4c96eU, 0x3bd0117c3b5c7fcbU, 0xba5cec383c3e6df5U,
  0xbc6d74bc399619c9U, 0x3c13cbb73c6d64c3U, 0x3bd89edb3c1589a6U, 0x3aa93d5a3ba6c4c6U,
  0x3c00fbbb3bc71febU, 0xba8ca8dfbacc024aU, 0xbc8c1935baa4277fU, 0x3c621a10bb8603deU,
  0xbc1b5f333ca9d800U, 0x3c1750bbbc1ebd7cU, 0xbc03d732bbcc467eU, 0x3c823f0e3c41d395U,
  0x3c75f20abc18a698U, 0x3c2dc9c53b996069U, 0xbb32201d3b9bcf04U, 0xba2868f0bb0af67fU,
  0xbbe1ed49bbdc3ad4U, 0x3c2ad9653c311aacU, 0x3c10730f3b177bb9U, 0x3afac7dd3af4bb25U,
  0x3c40622a3c59b7eeU, 0xbc219505bbb69413U, 0xbd169457bbd507aeU, 0x3aef6d1ebb130be0U,
  0x3b6715e33ca71316U, 0x3bed3096bb4bccccU, 0x388d583abb25b3e7U, 0x3c7a1d403bdfa978U,
  0x3a9e64873b06efefU, 0x3b6d77de3af79097U, 0xbb91cd7c3c3653c0U, 0x3883f7c3bc11f4e4U,
  0xbcdac27bbb6a88b6U, 0x3bd355df3bd5e0d1U, 0xbc5e9b6abbaf0a32U, 0xb975705e388effc0U,
  0x3c1dbf783ba15ce9U, 0x3b7c60f0ba991e4bU, 0xbd1f57d13b3d1044U, 0xbbd6b075b93b2adaU,
  0x3b3532a0bcdd8483U, 0x3c6c340fbcfa60e4U, 0xbc82f1f7bbf9017cU, 0xbcad00743c8ff3f2U,
  0xbc97c20ebc12f055U, 0xbbb59b32bc1043b6U, 0x3b90d67f3c37d10aU, 0xbd0c0025bd249be4U,
  0x3c0e987cbc5bedcbU, 0xbcf424ad3c1c496dU, 0xbc299f0bbc41f5abU, 0xbc71bfb6bc3338dcU,
  0xbd36d7183b07b6ffU, 0xbc37b9e53c84470fU, 0x3c2aec7dbb647d9dU, 0xbb2681be3d046762U,
  0xbcd6b082bcd074a5U, 0x3d5a8d2fbcb85864U, 0x3bab6c783bd463d2U, 0xbc3a7f303d690ba5U,
  0xbc61f256bc911c9dU, 0x3d08b238bbc71360U, 0x3d8a592d3ca01fe4U, 0xbc354522bd2b2fd1U,
  0x3b4ae908bc8cc430U, 0xbc8f40d63baabb22U, 0xbca4a3d33bd923ccU, 0xbbd7d6e3bb240cd0U,
  0xbcc7f29e3ceb94beU, 0xbb6b01723c097aa0U, 0x3c6046e93cbd0c62U, 0x3b47e2bb3d850fb0U,
  0xbb872cc1bc9c8c7bU, 0x3d714809bcaafa14U, 0xbc1832b83cd99b2cU, 0x3c0623f13d14bddaU,
  0xbcd8c65ab9ea2d77U, 0x3d41af7f3c10e068U, 0x3d5c650c3d6d9d69U, 0xbb51897fbcfdce88U,
  0x3bd2f31fbbb77abdU, 0xbcb203ce3c53a35fU, 0xbca8b5703ab437f5U, 0xbaa1982e3c9bfb1dU,
  0xbc30022a3c92a6f5U, 0x3cd36c49ba18b93cU, 0x3be0b29e3c9b2461U, 0x3b67c3b23d876d1fU,
  0xbce1b796bcf60a92U, 0x3bb778293c933e2fU, 0xbcf66c7f3cccdd36U, 0x3c573003bd66792aU,
  0xbd80b273bbbb0a09U, 0xbcd5865d3a2a4807U, 0x3bc714f9bc5d5f64U, 0xbb3f375a3cb64632U,
  0x3d125d4abcd3ac54U, 0xbc850da43c826f72U, 0xbc9019e5bc35ab01U, 0xbad5bbf6babeafddU,
  0x3d0bb2b9bd060728U, 0x3c6f8eb9bc914981U, 0xbcc1edeebb1dd367U, 0xbcb706b039b2dc0fU,
  0xbd7bfaab3a61f7c3U, 0x3d75181939bb1666U, 0xbb64eb42bb48f9dfU, 0x3cb8e2ec3a5cdeacU,
  0xbde22913bbd8be76U, 0xbd0156683d394243U, 0xbd3fd0c8bb02f3e0U, 0xbbd88c003d811239U,
  0xbbea7f4fbce464abU, 0xbca25e0b3cf47fdcU, 0x3c8a86b5bc787ac0U, 0x3d2609163b0dfc1fU,
  0xbb322c29bc821653U, 0x3c4001ecbd00a12aU, 0xbcb87e6b3d0bb04fU, 0xbc923f29bca6a87eU,
  0xbdad1974bc40d59cU, 0x3bcabb9c3d6f05d9U, 0xbad80ef339a53702U, 0x3d1dfad5bcbf35e2U,
  0xbc32efb83acabb98U, 0x3d2f4dc43d0ef267U, 0xbd385548bba07a9bU, 0xbc9e72f43d4aa00fU,
  0x3ba8abe6bd2d6124U, 0x3dac966d3c9c492fU, 0x3d09bf01bcd20d88U, 0x3c20f98c3bad7fb8U,
  0x3dd43ae73c79e59fU, 0xb8fc3383bcfd9cafU, 0x3ca939e33c0c3885U, 0x3c040bc0bcef78d4U,
  0x3d2502a13cba1ea5U, 0x3ce0cadebcec498cU, 0xbbe5ef07bca31ad2U, 0xbd10dd733c1572b3U,
  0x3d6a9c0abeb96a1fU, 0x3d439cf1bccb3ec0U, 0xbcfe14343b4132d4U, 0x3cad61c13b8ac60aU,
  0x3c7ba521bba0585bU, 0x3bd72dc83d66b4b4U, 0x3b58c99dbbc4e3ebU, 0xbca7e76e3c812809U,
  0x3d2cd2cd3cd4f254U, 0x3baeaf89bd135546U, 0x3c82e2943d1fce88U, 0xbde313a93c8721f0U,
  0x3d40062ebd49e2ccU, 0xbd5dc5ccbd26b339U, 0xbba9631d3d3d5c24U, 0x3c59d2743d10e597U,
  0x3c8eab91befd8891U, 0xbd096af9bc420aa2U, 0xbbf13d3c3d16dc06U, 0x3afe03ed3cec5261U,
  0x39cb943fbc834c82U, 0xbcffc3babc7819e8U, 0xbc8d76983cb6ce69U, 0x3c1bf1c23c94f161U,
  0xbd9fb466bc96697eU, 0x3d4e0cbd3ccf335bU, 0xbd1e02243b62f6c9U, 0xbe4e6c753cbd6e6dU,
  0xbc62c1953bb5706cU, 0xbd5631e63c5b39f4U, 0xbd916609bc290678U, 0xbd3aa013bd5cd88cU,
  0x3d531241beae5706U, 0xbd6278123da7bd35U, 0xbd1ba60dbd00925cU, 0xbcac2d41bd13a038U,
  0x3d4a5ceb3cbd26a6U, 0x3c07a68b3d4eacc0U, 0xbb56b2a2bd6c575bU, 0xbc81346dba0b93e1U,
  0xbb3a5c85bd97e817U, 0xbbc5bfacbccba0a9U, 0xbaf89a04bce5191dU, 0xbe2d8b64bd16ef3dU,
  0x3ce0a9003cda00afU, 0xbd9e5ee0bd3126bfU, 0xbca6046cbd135db8U, 0xbda0efe63c96a97eU,
  0x3ccaef823c9d1e96U, 0xbdc482bb3a62640fU, 0xbca466393d13a516U, 0xbc44fc4dbd460a35U,
  0xbd2c92ae3cbf408fU, 0xbd2b868f3d2dc60eU, 0xbd91141dbc86ebb4U, 0x3c102d98bc0c446cU,
  0xbcb116b3bd0c6319U, 0x3b23d8b8bd8d5222U, 0xbd30eb33bcab9aedU, 0x3d9e56d2bc9588b3U,
  0x3d06e33ebb6f1fe8U, 0xbdb6697abd366e4eU, 0x3cdfc3b9bd3cc330U, 0x3cdc520fbc02f529U,
  0x3d0104e5bba2f9bfU, 0xbd8a9a6ebcf776e0U, 0x3c88f20c3d6d59aaU, 0x3b9698f6bca4d6ecU,
  0xbce8a4a3bba490acU, 0xbd548f243cd8c9a0U, 0xbda527d23b35e56fU, 0xbc27ee633d008bc2U,
  0xbd2d903bbd02073aU, 0x3c51988abd18b050U, 0xbd3f6bf3bcde1376U, 0x3d9fcf3cb9c59e7cU,
  0x3d4c0f8e3b16d9e6U, 0xbd839c46bd33f038U, 0x3cca1ab6bd870e19U, 0x3a9025dfbcd57e37U,
  0x3c9ae1c3bdb8aebeU, 0xbdb431bb3d15a850U, 0xbd4f3ac93ca45ebeU, 0x3d043917bd390e25U,
  0xbd02bca13b5d0e9cU, 0xbdc73c5fba8c7d04U, 0xbdb135aebc7d1a01U, 0xbc9bbb43bcd3b571U,
  0xbd5f889fbd239de1U, 0xbd0f3c97bda4fba7U, 0xbcfebf9bbc16c102U, 0x3dd7edffbb91fa62U,
  0xbd43b29dbe1d5e82U, 0x3ca7f5193a3d71f9U, 0x3d6e2acabc2a1d0dU, 0xbbfc76023d3b2533U,
  0x3b68a79dbcc2738bU, 0x3cc3e7523c6bc1e1U, 0xbbec6d133d1de81cU, 0x3ca374da3cb26c01U,
  0xbdae7d8bba6afb92U, 0xbcae89eebac0998cU, 0x3cbf4be13cb3bea8U, 0x3d3a7e163d87af56U,
  0x3c823d5c3bcd955dU, 0x3cc73d803d134ec5U, 0xbca4086b3cd8d614U, 0x3d311a57bc9c561aU,
  0xbce5e90fbe7823f3U, 0xbd210e77bc286b26U, 0x3c81ed9dbcfb7e11U, 0xbc2d516d3956e080U,
  0x3b1d1318bd181fd8U, 0xbd31e4863d05720aU, 0xbcf2906a3b939ec5U, 0x3c0e80063b0a9a4cU,
  0xbdbec9483be93927U, 0xbc281ff5bd2de2fcU, 0x3d094bc4bc33be26U, 0x3ae8b3c1bd3fe573U,
  0xbc41856b3c24091dU, 0xbcf61b3d3cf0bcfbU, 0xbd118cc9bb046311U, 0x3c5e5c503cc9515eU,
  0xbb864609be649a49U, 0x3c058eb93cc6eba0U, 0xbcb4f2833b5306a9U, 0xbc8486073b83f054U,
  0x3d0e6a49bcc62a7aU, 0xbcc4cc2abc9ce7b7U, 0xbca1eb08bd0e7969U, 0xbd1b79893d0d8041U,
  0xbd823040bd04abc3U, 0xbce4d63b3d1fac88U, 0x3d82d839bbf61b0eU, 0xbd97e271bbedf0f7U,
  0x3ccc9a8cbc795ffdU, 0xbcece7523ce071ffU, 0xbb53e6293bebe6c0U, 0x3d86a5d0bd375f75U,
  0xbd07d93f3dc6becbU, 0xb8e90af23c077c02U, 0xbc507b99bbae7affU, 0xbae5569bbc004143U,
  0xbc4ad30bbd08a815U, 0xba19f6bcbc38d8a0U, 0x3b9c62843b0e1abaU, 0x3c0ef4d8bc7ef298U,
  0x3c5d168bbc82737dU, 0x3c3d0bb63bbc2454U, 0xbc3c63f7bc077126U, 0x3bd00445bb1d38d3U,
  0xbb97f4f3bbbfe956U, 0xbc846d33bbb036b2U, 0xbc9d8121bbb8f1b3U, 0xbccad83f37c3545bU,
  0xbcaa01713d9d692fU, 0x3c1b76f9bce5c1fbU, 0xbc56e6333bc2c140U, 0xbbc26f98bbe6deeeU,
  0x3b9d5464bd1c29c1U, 0x3c15eaf2bba15a9fU, 0xbb7ee14c3c3802d8U, 0xbbe043fb399bf367U,
  0x3bd303c3bc37c775U, 0x3ca5801f3a2e0da2U, 0x3771c0adbc3c1923U, 0xbb94ae3eb9b3a76eU,
  0x3cd7e10cbc557fbdU, 0xbc617d16bca30c69U, 0xbc7ee65abbe04415U, 0xbcb343213bec38a7U,
  0xbab6bd833e20f373U, 0x3cac2e813bd37100U, 0xbb9c098b3c6d408bU, 0xbc3afab0bbbb45c3U,
  0xbb998960bd1384bbU, 0x3c26f5bf3c2a2320U, 0xbaff9d733c07d729U, 0x3b3b1d1e3c2696afU,
  0x3b5494ce3b8c97ecU, 0x3caaec2abb7d805cU, 0x3beb40363baedb0dU, 0xbbc661dcbc26e85dU,
  0x3cd4d508bb73c823U, 0x3b7803e9bcba91c0U, 0xbad548a73bbf2b9fU, 0xbce7474bbbd17ea7U,
  0xbbfa5fedbdcbab07U, 0xbc4bdd2bbb26f94cU, 0x3d70b635bd1fa57dU, 0x3d02629a3d1f335eU,
  0x3c86c3b3bd15e5aeU, 0x3cc1e3b13c5dfa1fU, 0x3cfdc0933d34be88U, 0x3d3f4ef039c0a172U,
  0x3c0e9eb83cde7d93U, 0xbd0590d13ca1a26dU, 0xbbae14c03c114e44U, 0x3cf0e82c3d3bd7a8U,
  0xbd0913273c2d8702U, 0x3c8bda433b17d2bcU, 0x3d4c69f43c9963adU, 0x3cb908d03d245d3cU,
  0xbceb75a7bdb2635cU, 0xbaa6d1a4baaa6726U, 0x3d063a57bd6964b5U, 0x3ca03d5abbe757b4U,
  0xbcf98425bda2aff4U, 0xbc26cd63bc6125b6U, 0xbcbfcc2a3c9f1465U, 0x3c29bc9cbc0211ecU,
  0xbd1c2f383a1819f4U, 0xbd95b186bcbdb75cU, 0x3c3c8d6e3d10494bU, 0x3ca6b91f3ce144b9U,
  0xbd72e2f03ca16060U, 0x3c371129bbda962aU, 0x3d0c64c53c19a9c9U, 0xbc4b99403adccd78U,
  0xbd23b0b0bdcd3b82U, 0xbd7e25c9bbfae12cU, 0x3c9b34fabd55d5eeU, 0x3cded65fbcdcd7f6U,
  0xbd1a79b0bd71d011U, 0xbce42222bbd4e084U, 0x3bf2a11a3b158ff6U, 0x3c9831083c1d3ae5U,
  0xbc5517333ce1b688U, 0xbda1ef4bbbd96d17U, 0xbc6e4cc63cbfaeb0U, 0x3d93dc2e3d441bc8U,
  0xbdb1a2073d23afeaU, 0x3d835bc23c56ba6dU, 0xbcc7bb8dbc7b58f8U, 0xbb9879353b9ba1c6U,
  0x3d14fab43c4cd111U, 0xbda24debbd0e29b1U, 0xbc404fc43dd036f2U, 0x3df3e8dbbca2ff96U,
  0xbd75eea73d3038abU, 0xbde303c03dcc2409U, 0xbd510b28be2b0cf7U, 0x3d874b633d74c260U,
  0x3db33fd03dfca005U, 0xbbb7fd303e03feb8U, 0x3c34c5eebd0edba2U, 0x3db1443f3d5f1095U,
  0x3c5bf4bc3d9e2d01U, 0x3d8af8a53d136b38U, 0x3d1012483da9f25fU, 0x3d9b4518be061100U,
  0xbd03f017bc23e757U, 0xbdd3b2de3ccebb59U, 0xbcc44177bd9e2c0dU, 0x3d64dbbabd43e8a1U,
  0xbd7ce19b3c48d884U, 0xbda7f4133d600824U, 0xbd75bdbdbe2b5ac5U, 0xbd394a643c9205ddU,
  0x3da1fc8fbd4cd1a3U, 0xbd17627d3d057e19U, 0x3c2ec99ebc7c4defU, 0xbb744239bcb4b274U,
  0xbd9f022a3c5c22deU, 0xbd151dca3e0cd03bU, 0x3c552a71bc6515e2U, 0xbc983b9fbde82c0bU,
  0xbd19f7803c25a8eeU, 0xbe49f515bbd75992U, 0xbdf32583bdd372d2U, 0xbcac236dbdce60edU,
  0xbd9e055a3cf8cd66U, 0xbe24930fbcbda9b7U, 0xbda45a5abe732975U, 0xbdc301e3bcf0137aU,
  0xbb5ccd2cbd5fe47fU, 0xbe0c195cbd1b23c4U, 0xbcc54aebbdc43970U, 0xbda9cceabdcbddefU,
  0xbd99882bbe0f7886U, 0xbda822d53bb42171U, 0x3d6e0247bd9942d4U, 0xbcbcc049be5f686bU,
  0xbae379d63c0bdb19U, 0xbb9cf9c23c5040c4U, 0x3c3f67f4bb84eb01U, 0x3c1165f03c996b42U,
  0x3b76d1773cb1f56cU, 0x3c2717563be7528fU, 0x3c86dd9f3bfcc126U, 0xbb53f5573c848f92U,
  0x3c85e4a43b55d860U, 0xbaf70960bb490bb3U, 0xbb676c353c8e0c97U, 0x3cca35263c9ecc54U,
  0x3c18ec503adc7efcU, 0x3b2619323c17dde2U, 0x3cba2d923bc46bf2U, 0x3cc0b7eb3c806991U,
  0x398a74773bef70c4U, 0x3b1985203bd1ba20U, 0x3bd9009abafd17beU, 0x3b9ee0c63c888c2dU,
  0xbbe372553c8ab09eU, 0x3c3d64773bbee9a9U, 0x3bae20e93bbf0a01U, 0xba15db45397d9866U,
  0x3c86d979bc012a49U, 0xbb4349c3bb164360U, 0xbac325573c268968U, 0x3cac5f743c95fd35U,
  0xbc1dca90bac1c578U, 0x3b3bde423c3eb27dU, 0x3b8c0746b9cc6685U, 0x3c7fd086bb45f236U,
  0xbbfcd718bbd95e39U, 0x3aff1abe3c11f107U, 0x3d17be35bb014c8aU, 0x3cd5b4103c9f86b1U,
  0x3c21bafe3b1ed582U, 0x3b6892953c6cb175U, 0x3c2e2d793c4a89a2U, 0x3c8d82693ac43c91U,
  0x3aaf46ea3ba3dae9U, 0x3bd98001bc84f99eU, 0x3d005eb33c115ad7U, 0x3cd9c5053cf40760U,
  0x3b1261353c0526feU, 0x3cac4c843c1b80a0U, 0x3c16a6ac3c3d60feU, 0x3c077ce73cb898f8U,
  0xbd49de8ebd012d24U, 0xbdf10bf1bd50e1f1U, 0xbd7f37f1bddf47d4U, 0xbe1620f8bd4ac378U,
  0xbd3b65d1bbfbe0efU, 0xbe1d5030bde811b0U, 0xbd9ef27bbde3e8a5U, 0xbdcd1b0abd160f03U,
  0xbd8f2f8fbd822952U, 0xbd9a5274bc5b61b1U, 0xbd863702bd141428U, 0xbe05f2a4bd77815eU,
  0xbda3b11bbce89d63U, 0xbdd542cb3cc94b51U, 0xbdbdc638bd98bbe6U, 0xbc6f0692bda4cbf9U,
  0x3d096c3bbb56d525U, 0xbae90d6cbd8153abU, 0xbc2166e9bd6c7428U, 0x3add70023cb60bd5U,
  0xbcb4d2c0bc0560a0U, 0xbd2403c1bcc7810aU, 0xbc8930f83d6775a5U, 0x3c3b47d73c618c89U,
  0xbd2bab8c3bdd8b4dU, 0xbd54d0523af7e188U, 0xbce736f23cd21009U, 0x3d1496bf3cf0eecdU,
  0xbc97eaf83d5b97b6U, 0x3d7500923ca29d68U, 0x3a608a4e3d0b0f7fU, 0xbca3c92e3be94519U,
  0xbd6f68a03d156331U, 0x3d82c7253caadbceU, 0x3db602c03d168c8fU, 0x3d6eb26d3daba35fU,
  0x3b38e9a73c31d3ccU, 0x3da9c7e63d1cb14eU, 0x3d025bc13da18085U, 0x3cee87a93b89bd68U,
  0x3cc59ac53d978969U, 0x3d95f0e43d87426eU, 0x3cc7bb1f3dab90b1U, 0x3da6f34f3df0d8faU,
  0x3d11d8703caa4f34U, 0x3d840c5d3d55ed12U, 0x3cd5a6e63cff3f6aU, 0x3c85cd603d8ae9acU,
  0x3bb99b8fbc3698a3U, 0x3cee28263ce9f45cU, 0x3cd244533bb1552aU, 0x3d0d5fa4ba443bcaU,
  0xbca57b5dbddbaa0fU, 0x3ceaa8153d00bee4U, 0xbad80c7c3cc816a1U, 0xbc4f78debc981ac8U,
  0x3d0992e83b9023cfU, 0x3ccc0d1a3c74fd4aU, 0xbc8782cc3c87b3efU, 0x3c1565e5bc8edc76U,
  0x3cfc2d74bc4bb7ecU, 0x3ca35d943c23a2abU, 0x3da269a7bc608ceeU, 0xbcdd43713ca48563U,
  0xbcab26e8bc744337U, 0xbc0707fbbd235e8bU, 0xbd1535e83cad3eb1U, 0xbc07c6b2bc412be0U,
  0x3d16a1febe08b5ceU, 0x3b2eab90bc7ca8e6U, 0xbc46ebc6bbb0ae86U, 0xbb9ccc93bb0b0111U,
  0x3e21f32abc9eaa60U, 0x3c01cd90ba982e44U, 0xbc5e85edbce6d084U, 0xbc62000539b98515U,
  0x3c9163a2b9b8b3cfU, 0xbcc2f4933c81c36aU, 0xbd49e015bd31bb00U, 0xbc4d219ebc966dcfU,
  0xbd70f17dbcc70a94U, 0x3cd1ad363bf91f41U, 0x3c26dedd3c3ddfc4U, 0x3c8bfd333c135e1bU,
  0xbb98dba1be0ac2dbU, 0x3b548248bcbe64f8U, 0xbc195be0bc90fdafU, 0xbc43f384bb830b50U,
  0x3d875e3bbd22836fU, 0x3afc1d41bc918cf8U, 0xbb8660983c2c0e44U, 0xbb504c2b3bcc9952U,
  0x3cae58cc3b8c02b9U, 0xbc7f8980bc91cd47U, 0xbc8bde0ebc92dae5U, 0xba8c1ebfbc23cd83U,
  0xb9de5deb3d28c4dcU, 0xbc945c263ccb9692U, 0x3aec154dbcbce76bU, 0xbcebd5413c9d83eeU,
  0xbbf4ae85bce53619U, 0x3bc957d6baef7514U, 0xbb97f0bf3ba8e54cU, 0xbc9a1944bc35cfb6U,
  0x3d0ebaadbb48fe0eU, 0xb960e3f9bcf6695bU, 0xbcbdb29e3bfd0dabU, 0xbb9147a7bade9121U,
  0xbcb70532bc7bdc07U, 0x3a90af31bb54380aU, 0x3a01dca7bbd848d2U, 0x3b90d3ab3c0d1c64U,
  0x3c1a131e3cb66ccdU, 0xbc3e5d043c54b814U, 0x3c8bbb2fbbe6a64fU, 0xbc6a46c43c4b9232U,
  0xbc8526c5bd0e8e61U, 0xbc5e999bbc1f6ba4U, 0xbb7f0d7b3c8e896aU, 0x3bcf8878bbca7486U,
  0x3c9302b2bb05a06eU, 0xbce36feabc8f2936U, 0xbbc42b983bd3143aU, 0x3c49e6cf3c624669U,
  0xbd17527f3aeff77cU, 0xb9a5e206bc522ee3U, 0x3c37476e3bafd419U, 0xbc3be37eba7302abU,
  0xbc2101d8b9a87b94U, 0xbb1ae155bc84d80aU, 0x3d2e0f2cbc5aecefU, 0x3c98b73c3ca975b2U,
  0x3b932903bd2e1bcbU, 0xbb8816813c9660e5U, 0xbbd4b2603c4d0b60U, 0x3c909c003abfd5caU,
  0x3beb437f3ccd7af8U, 0x3ac9cb68bbaf53f6U, 0x3b1650c63cc05ebaU, 0x3d5e5b1c3cff5bd4U,
  0xbc0e4ce13cb9b843U, 0x3d07f59abbcb9c0fU, 0x3c925f8b3b6fe997U, 0x3cb691ed3c65a40dU,
  0xbcab0a233bb8313aU, 0xbd4a5fedba47e3d2U, 0xbdb88371bc790c16U, 0xbc619eacbd33ac14U,
  0xbd228a8dbc076eb1U, 0xbd30c3acbbf7080bU, 0xbd2dd9a0bda87be3U, 0xbd4dbd8ebcbc31c7U,
  0xbccc3482bced6745U, 0xbc7d0a8f3cbb45a6U, 0xbb6aaac7bd3327d3U, 0xbd999d00bd51853dU,
  0xbcb17284bd35544aU, 0xbd1b02cebc7ceca1U, 0xbc26ec13bd139825U, 0xba6c007abd4e3e7cU,
  0xbd1a51873b9497b7U, 0x3c5408debc050517U, 0xbd14261db9d72eaaU, 0xbcbff763bcb8f487U,
  0xbb36f017bb9f0f47U, 0xbce57bc1bca12abeU, 0xbcf8997bbd347b79U, 0xbc4ae7963bacf916U,
  0x3cffa211bc406a85U, 0x3c5f9c163c6853c0U, 0x3c92be3bbc1a3f0cU, 0xbd5fb02bbcfb1525U,
  0x3c4caedabc8b4344U, 0xbd3286ed3c5f47abU, 0x3c478949bcc60049U, 0x3cf22dfbbd0c1b95U,
  0x3c01e8463c925ffbU, 0x3d5817133d71a37aU, 0xbc70868e3d5a954fU, 0xbc018c0f3d42fb21U,
  0x3bb209963cca2d9bU, 0x3d601b88bb39b790U, 0x3ce346793bf3faa6U, 0xbc1117793d01fb0dU,
  0x3d3cfb96bc25df54U, 0x3d2e89733ce9c19aU, 0x3d28d1923bad3a79U, 0x3c5453233c530920U,
  0x3d08aa503c8b7db1U, 0xbc72a2323d2be60dU, 0x3d70e71e3c789f1fU, 0x3d7eef443d378058U,
  0xbc769afc3cb0d078U, 0x3d7166643d865b6cU, 0x3da31d623d8d496eU, 0x3d123f973d6dd4f5U,
  0x3d16cead3d3231bdU, 0x3d1a5d863cb65f03U, 0x3d21f21d3d55cd66U, 0x3cde2d003d7f22daU,
  0xbc12f3e03c2b148eU, 0x3ceffb193c14a507U, 0x3da6572b3d688b40U, 0x3d10a7b83d9a4b10U,
  0x3d1dff0d3d271915U, 0x3b9f69743d8293f6U, 0x3b78c3b23d0fbe21U, 0x3d50f1fc3d10bc3cU,
  0xbd201422bcba8b95U, 0x3ccf028c3c7c9d2fU, 0x3d1dd1bb3c2f4b19U, 0xbc336c5c3c81d6f0U,
  0xbc9c10e23c81bdadU, 0x3b6c1d2c3ce3f4e6U, 0x3c9c18a03cf55379U, 0xbd3d16c63c835305U,
  0xbd06e717bd115aa8U, 0x3bcb9dbdbd5541fdU, 0x3af85a773cfc6379U, 0x3cc06d5a3c518742U,
  0x3aab53f23c55d37eU, 0xb9c697893bd93cc8U, 0xbd869dae3cbac3a3U, 0xbd07fd023bf88bdaU,
  0xbd7bd440bd76d9a5U, 0xbd6dfe84bcbbb078U, 0xbcc72a42bd5943a1U, 0xbd6b4bd4bd2e60eeU,
  0xbd3b197fbbe8efddU, 0xbd7e1717bd1f1fdaU, 0xbcfa9d77bc6ef764U, 0xbd9716a7bca57edaU,
  0xbd1a919fbd4a8df1U, 0xbd56a80bbdc42385U, 0xbd6029d5bd27e8a2U, 0xbd57e49fbd0ca365U,
  0xbd6df6d0bd23ad6aU, 0xbd78fe55bd03736fU, 0xbd948829bc891d45U, 0xbd83de89bd193552U,
  0xbcbbfff43d3db48eU, 0x3c8bd8f83d244b41U, 0x3d23d86a3cf62267U, 0x3d481cb4bcc89da0U,
  0x3d6e8f6cbca1c022U, 0x3ca35b333d1d6415U, 0xbca47672bc48a253U, 0x3d005bf83d63c650U,
  0xbd37265d3cc8c52eU, 0x3d0c4f66ba2fec7dU, 0x3d9a458f3a97ac4bU, 0x3d970f7c3c3d7f32U,
  0x3d8ad54c3d56fa26U, 0x3d52e9d93b87d9a6U, 0x3b8636e73cbbb606U, 0xbc9af833bd7a671bU,
  0xbd7fc6833be815a7U, 0xbd2bd5cf3d21d77fU, 0xbc4f4da63cf92aadU, 0x3b0579b5bd311b64U,
  0x3bd17b7dbc675269U, 0xbd74a9b03b85baecU, 0xbcd9ea41bd660242U, 0x3cb138bd3da31a31U,
  0xbc4bc8b53c7522e4U, 0x3d47ab6f3c37719cU, 0x3c7e7b62bd177478U, 0xbccb7f783b9f7f02U,
  0xbb9ba6e1bc74811dU, 0xbbc7db5ebcf62313U, 0xbcd937babcc2880eU, 0x3bd86aa4bd72ea13U,
  0xbce59a82bbe48107U, 0xbd216201bab5d964U, 0xbd856265bd6fb7aaU, 0xbc2b0e14bd2d94d7U,
  0x3b6464ec3cd928b4U, 0xbd776f98bca2edd4U, 0xbdaf07e6bdb8d640U, 0xbcbc0ce23ca7fb85U,
  0xbcda0059bd23fc45U, 0xbcb77bd8bcb90d01U, 0xbd1f49b1bd710dabU, 0xbcea4e5ebd6ef1d7U,
  0xbc9abdc0bca7e785U, 0xbce1de69bc0db6eeU, 0x3c4d9e2ebc55d168U, 0xbc4a3b9ebdc6ac44U,
  0xbd8cb56a3c4167d5U, 0x3d3fd3de3d3d9c34U, 0xbc368ba13d157e0eU, 0xbdd48b543cbd9197U,
  0xba1207db3d1bcf27U, 0x3daabc483c4c773dU, 0x3d475de63d19aa6dU, 0x3c121e833b80a939U,
  0x3ba1baaa3ca41f56U, 0x3cfaea393c105f01U, 0x3d021e083d4bc42aU, 0x3cd81fab3c9721e1U,
  0x3c498b7c3d4f835cU, 0xbcfa1a4c3d7ab003U, 0x3cb061123ca1908aU, 0x3d5542fe3d135085U,
  0xbcb6ff643c6b78b8U, 0x3d522f023cbf64d2U, 0xbd45dc4f3bdceae2U, 0xbe305399bcec057cU,
  0xbc324c203c490a3bU, 0xba41911bbce2a64cU, 0xb9dbe6c4bd228e42U, 0xbc288ba03d112510U,
  0x3cafc297bb34ecb2U, 0xbd06fe7fbcd0a070U, 0x3d04703bbc8aa1e8U, 0xbd9c936fbcbb4d3aU,
  0x3cb18c84bca96fa1U, 0xbcbc671a3d22e6a3U, 0x3cbf49cd3bc602a5U, 0x3d1d89963c6b359cU,
  0xbd79e60dbd0e2617U, 0xbd6c2ef8bd00a34fU, 0xbdb075b8bcb6fb37U, 0xbe526f38bcf6aa6fU,
  0xbcc2c9dabb08d550U, 0xbd323f16bdd2cdb6U, 0x3cde8b2cbd8af9eeU, 0xbda4e1cc3b1e7223U,
  0xbc979470bd4c7c72U, 0xbd372818bc3e7b14U, 0xbc4ae3a0bc3abaf7U, 0xbdf0138cbddea567U,
  0xbd1b337dbd5b9175U, 0xbda26f273d4ac605U, 0xbccf7f41bc9ef6bfU, 0xbc827a44bda3f919U,
  0xbcadb13c3da2f8e4U, 0xbccb83423ca6912fU, 0x3d240299bcfbb5fdU, 0x3d2d7eafbcd4f724U,
  0xbb562ab6bdb89711U, 0xbd5ed97e3d4303adU, 0xbc675e67bcb19572U, 0x3d1aad0d3bf9072bU,
  0x3b8b32f53cf5599dU, 0xbd54e289bb2d73dcU, 0xbc8a764c3d2295d3U, 0x3cfcbae73c9a477cU,
  0xbb8460303d02e776U, 0x3c34bc763d2b43b4U, 0xbc3a960d3b163f41U, 0xbcbd445bbd4bc73eU,
  0xbaec24193c9a64fdU, 0xbd898968bc65dd6fU, 0xbc186f6abd1187bbU, 0x3c5fac7cbd2e6a65U,
  0x3c0a5650bdef060eU, 0xbd5f0b4c3c04f9f9U, 0xbc9739d8bcd8bfa8U, 0x3c8dc8b43b0b1c20U,
  0x3c972d9d3c08249cU, 0xbcb3bd8d3d040d46U, 0xbb0ca3d7bcc45df9U, 0xbcc161ab3c63429bU,
  0xbd5eae573c434f1eU, 0x3d1b15c8ba0ef56cU, 0xbd020bc83ba2a7c3U, 0xbce49a51bd0757b9U,
  0xbd038d933cd6e434U, 0xbd604ee53c824e17U, 0x3b2c8e68bd707655U, 0x3cd8d107bbad4984U,
  0x3c30bb30bddc15adU, 0xbd3539073cb26ef7U, 0xbcadc48bbd4f437eU, 0x3d00c498bcb92ca4U,
  0xbbd74b2e3ac2cabcU, 0xbd0c77f3bb8aa495U, 0xbd0fbc603bd98cf5U, 0x3b9019fb3c7c4109U,
  0xbcafc35f3d1cf189U, 0xbc97a5823c5c69f4U, 0xbae54c41b83afb07U, 0xbc1af862bcd226b1U,
  0x3effd0043e947306U, 0x3e2628ae3f14811cU, 0x3e11b4a43d6f3238U, 0x3eca50c73ecc7a63U,
  0x3c1b2a603de950e8U, 0x3f5cf3ea3e8cfe5aU, 0x3ed647af3e778bd4U, 0x3f1cee0e3c3a0358U,
  0x3f0553ac3e1e974aU, 0x3f17e5de3ee08c8aU, 0x3de248d13e7bbcedU, 0xbdd33e303eabfd26U,
  0x3e9bdd643ec15ecbU, 0x3ec384443d4d9c90U, 0x3ee0a58d3d7a8229U, 0x3f45d56b3ee0292aU,
  0xbd98c388be2e8163U, 0x3dc4c4f23cbe6150U, 0xbebb3dd53e399ebeU, 0xbc81db6cbde8e0ebU,
  0xbe97f067bdf4b999U, 0xbd366ae8bd3c0caeU, 0xbe0bc109bdca5c1dU, 0x3de8951cbd1c7b95U,
  0x3e052f13be4b3cf7U, 0x3e07bf6fbb92f7fdU, 0x3ea984a9bde0001dU, 0x3cca8028be24f02bU,
  0xba93b49abe34b442U, 0xbe6e8dc13daee47aU, 0xbe99bfc5bd949d2fU, 0x3d34a554bda51d54U,
  0xbd83b30ebe7c186aU, 0x3d8ccbfebd87e61fU, 0xbe14553e3e3c1d50U, 0x3c3ce4cbbe660628U,
  0xbe3a975c3cc57db3U, 0xbda5a115bd9e15d2U, 0xbe5077cc3d716875U, 0xbcbc6110bcb0564cU,
  0x3e5f166ebdc4d52cU, 0x3e588e5e3de23dabU, 0x3da96d42bdfa1915U, 0xbcc192a4bb9bd207U,
  0xbd1a0cccbd3659beU, 0xbe64caa0bda52b22U, 0x3b7a68bfbe1aed94U, 0xbd396934bd921e93U,
  0x3d9ad886be60b8d4U, 0x3dc0b578be95d0feU, 0xbde881723de7b716U, 0xbe41a441bdcaceeeU,
  0xbe62a6febda3f9d2U, 0x3ddabf7cbe822914U, 0xbe2f94663aadd2e3U, 0xbe2c5a56bdc6e8ccU,
  0x3eefc21bbe712a4cU, 0x3f159c693e5a1014U, 0x3d6d6408be8d79d6U, 0xbe13dd943da8c6eeU,
  0xbe167875be3bd111U, 0xbe12eed4bdaa0577U, 0x3cf21f26bd5e2ddcU, 0xbd02b9d73d441e1fU,
  0x3deae377bd972c1dU, 0xbdc5b7e73d96dfcbU, 0x3d378a943df15e00U, 0xbda972aabe93048bU,
  0x3e06df2ebd44f6a3U, 0x3da82058be5f548cU, 0xbd22f9efbe865807U, 0x3dcc10f3be30c0afU,
  0x3ea5f94dbc03439cU, 0x3e3749103b9f86c6U, 0x3e62af2abf1385a3U, 0xbe222dd9bdb0c85cU,
  0x3cd66c83be1aa91dU, 0x3d07c928bd4e0651U, 0xbe5cc2cb3c27409dU, 0xbe8f264e3d994864U,
  0xbdc1b0ebbe68579aU, 0xbe257176be2eed1eU, 0xbe90c6f53e6b4788U, 0x3e993075be3c5aebU,
  0x3e814e2bbd9b6d63U, 0xbdd3a7a3be1f9551U, 0xbe941f36be508ef7U, 0xbc227e16be652584U,
  0x3d9ac15d3c61b0a1U, 0x3dea9020be000080U, 0x3e2b0a5abeba2f71U, 0xbe8125333de3443eU,
  0x3e42f132bead380dU, 0xbdbceac3bdb6fdd6U, 0x3d521cffbe4bd3c7U, 0xbe9b812b3d8a637aU,
  0xbd557a92be3df905U, 0xbe3dfe5e3d2fd4f9U, 0xbeb14294bdc42d74U, 0xbdb631073e034a18U,
  0xbeb652d5be4d7388U, 0x3c83d798bdf3a6beU, 0xbda24999bd5d35c2U, 0xbecad701bdbbd4a0U,
  0xbcd075e8be705d87U, 0xbedcd97a3c467ae7U, 0xbe29bad33e609882U, 0xbe932d763e93fc53U,
  0x3dbc2b9bbef5c49fU, 0xbeaa7814bd6b8843U, 0x3d6a8c88be4d2504U, 0x3eb900573e503599U,
  0xbdeb29f2be9f975bU, 0x3d129e8fba9128caU, 0xbd7ce5433db9bc0aU, 0x3db4d781bc5dbff5U,
  0x3d9dd49a3e1e9b8aU, 0xbeb36656be3e317fU, 0xbe7647e43e022d6eU, 0xbe0553b8bd0f5698U,
  0x3cdedd343d1d6f96U, 0xbe4fc99abe6a0d1dU, 0xbde335403e49aa29U, 0xbcdf538f3db1c213U,
  0x3cf8dbcfbe4eba7eU, 0x3e5a3fc8bd6c9157U, 0x3e29d746bd18f0a3U, 0x3d3b85d63dfad96cU,
  0xbdef0473bd409cd0U, 0xbddf96a3bdbc83a7U, 0xbebccf413db83672U, 0xbd01a4ce3de7c998U,
  0xbdbbb0093c5b5dacU, 0xbd4d6ab6be857cceU, 0xbe0ffeba3dc28818U, 0xbd81b044be5f5518U,
  0x3e03cb68bd8c501cU, 0x3df4a9b6bd77dc33U, 0x3e195651be56979bU, 0xbea2d8bc3e0e7867U,
  0xbd19cf4abdb3f74fU, 0xbd4ff6dfbe4432a6U, 0x3d956f83bd9074d2U, 0x3e56739fbc8cfa6eU,
  0x3eef2e963d7f9b34U, 0xbd96b1b13e60f41cU, 0xbe58c0c23e00ac9dU, 0xbe4def943ea03253U,
  0xbd5d58febb9bff85U, 0x3ea2600dbe1ee2c0U, 0xbd85d67bbc50d027U, 0x3e4cf3cfbd466339U,
  0x3f0ffb66be02d5c0U, 0x3ea8a3243d472950U, 0x3dcadde8bdedb0a7U, 0xbe2084d83e411f47U,
  0xbd36e8333ea1bb94U, 0xbe197d4c3c3a35c8U, 0xbdc3f7b23dcc0a1bU, 0x3ea8ec233e1b9d7bU,
  0x3d220265be4b1073U, 0xbe2779a23a364eccU, 0x3cd2b1b7bdc75999U, 0xbaa316253ebec615U,
  0xbe714763be1212fcU, 0x3e7a29373cb822a6U, 0x3da1f075b99d2831U, 0xbc8b913fbe3f91afU,
  0xbe0ee176be0df766U, 0x3dba3270bdc6fcdbU, 0xbe80bc3bbe077e61U, 0xbe8933273d434b9bU,
  0xbe4ce89e3e265673U, 0x3b9a3a90be164cacU, 0xbdcc77ffbc02b4b7U, 0xbe88c3883dcfd0a1U,
  0x3e9174e1be47c5a4U, 0xbe6bf3703df583d1U, 0x3cfec689befa9faeU, 0xbde2e7103dcba352U,
  0xbe87cdb0be4efc24U, 0x3e5b109ebca72efcU, 0x3de549af3d7bc2beU, 0xbe6cc3ddbe74d83dU,
  0xbf0d9828be81acdcU, 0xbe2178a23d52523eU, 0xbeeb13a4be37a743U, 0xbe98c9043dff01fdU,
  0xbee356093e8c0bc3U, 0xbdb4afd8bde09713U, 0xbdd1cf3dbdb4f122U, 0xbe7a89483eb623d8U,
  0x3e9b4f353c36559fU, 0xbd3eaf83be230035U, 0xbdadfa3f3e2688ddU, 0x3c13ef4d3dd460b0U,
  0xbd27c93ebd9449e1U, 0x3de41d4e3e03e324U, 0xbe212cdc3c1b0d30U, 0xbde15f15be4be826U,
  0xbecbdec63e3a4efcU, 0xbd6196533e9782b0U, 0xbd3c91f93db24e3bU, 0x3c997e793e148137U,
  0x3cb1c8b63e2523feU, 0x3c3a241ebb99aa0aU, 0x3d38abf7be965eaeU, 0x3e315b63bd1e5de7U,
  0xbdcbbbf63dcb691bU, 0xbe03227dbd471f7dU, 0x3d584493bdab3592U, 0xbd20fa973ddca548U,
  0xbe2b36c9bdf9b9f7U, 0x3da0a6b0bc1934ffU, 0x3e6c20073db4e7bfU, 0xbc5a6853bda07d4dU,
  0xbd00fd223c8adce1U, 0x3e3f57913c9f7288U, 0x3ccbcad3be4d0c52U, 0xbdd822c1bddda8feU,
  0xbe0406613cb2c8d0U, 0xbe6ca5593d6f9741U, 0xbb00eeedbd3c1a2fU, 0x3e578ebd3d477851U,
  0x3d0aa335be58854bU, 0xbe1f94bd3db8363dU, 0x3d502762be12fcadU, 0xbe1d7541be0d8454U,
  0x3e45ac9dbda91558U, 0xbde6e8b6bdafbb0bU, 0x3e26dfa5bdfe0388U, 0x3e3be879be45c560U,
  0xbd81498cbe4d86d2U, 0x3ea2fe693c9a1d2aU, 0xbe6e42ccbf2a8d10U, 0xbe918e24bdfb72b0U,
  0xbe878113bd625f4bU, 0xbe458d0ebe27d23aU, 0xbe6b97553de54c81U, 0xbec8ffdc3bedef41U,
  0x3d2c404fbe1355a6U, 0xbe0cf128be8478afU, 0x3df70e443e708928U, 0x3e1b99fdbe41d019U,
  0x3de72013bdcd656dU, 0xbe545fb9bcdc4115U, 0xbe3054d53de5025dU, 0x3dd80c2cbe81afadU,
  0x3cb746933e25b528U, 0x3e4e90e3bd87a00eU, 0xbe0a23e6bec17326U, 0xbe59aa11bd9c8e0bU,
  0xbd609d9e3d942141U, 0x3e0855ecbe473c31U, 0x3cc48432bdb8bcfcU, 0xbe87fbd0bbc1644dU,
  0x3de299a83d14bdf8U, 0xbd9eaebbbe816958U, 0xbdc2deac3ee143bfU, 0xbcafc29e3e338c29U,
  0x3d5c63febd2eab6eU, 0x3e21337fbe144744U, 0xbe0c6aa6bd3e0bf9U, 0xbde27257be1140d6U,
  0x3f0f51163cd0757fU, 0x3e802bff3dd7ccfaU, 0xbb335960be8ce1d8U, 0xbe6bb2983e26a1daU,
  0x3e9ad0b13e0332ceU, 0x3d04ac59bdc6b517U, 0xbdcc43d1be4ea05bU, 0x3ecb0b5d3e3d32c9U,
  0x3bcffb403e9731bfU, 0xbe4f26dbbc45de15U, 0x3d92f5a5be6a3bfdU, 0xbe23f6d53e08b050U,
  0x3e1b74bdbd603912U, 0x3dcee62a3c54148aU, 0x3e41d540bdd049c7U, 0xbcc575aebe20e68fU,
  0xbe2f3495bccb4e19U, 0x3d873c033bdaf11dU, 0x3e110978bf4b9cf7U, 0xbe1180cdbd8683beU,
  0xbe47139bbc5e5837U, 0xbdefa5a4be33de58U, 0xbe948a2c3cc6078bU, 0xbe04038f3e0931f4U,
  0xbd61acd0be220e3fU, 0xbd9bff953d27559cU, 0x3dc8fffebec559faU, 0x3da0fa3cbb85019cU,
  0x3d40ce9cbd4f4808U, 0xbe8962413e1a23c9U, 0x3e4ee78ebab3f490U, 0x3db864cbbe0fe3b5U,
  0xbf29365e3de7790fU, 0x3df81db1bd7a9cd1U, 0xbe02ef3ebe605eebU, 0xbdb2c508be1d7de0U,
  0xbea33976bcea7cd4U, 0x3d8db7c1be67f5b1U, 0xbd96c50ebdad1483U, 0xbe8d20b5be780544U,
  0x3e08550f3ed76879U, 0xbe49079dbd78f83aU, 0x3dab866bbeff2ec5U, 0xbdfe6427be94a10aU,
  0xbda6a42bbd167d76U, 0xbe9f25d33bd260f8U, 0x3ebc1be0bd84b345U, 0x3b707e3dbd543a8cU,
  0xbeedb967bc341242U, 0x3e0ac8703e4b7c32U, 0x3dfb872cbe41a7e7U, 0xbdb01ff3bedc1c0eU,
  0xbec33847bd2e4c56U, 0xbc8a88eb3cc94212U, 0xbdeec7da3d830bcfU, 0xbe9a4e41be5e7179U,
  0x3e1a38023eb47e3fU, 0xbe375a49bd2a99d4U, 0xbe187b1bbe51c896U, 0x3d9f41e53d598f9bU,
  0xbe21d869bd396e84U, 0x3d6f64bf3d19a0eaU, 0x3e63071d3cfe5521U, 0xbd18aecbbe3adaf0U,
  0xbcfb25dbbd2a4a55U, 0x3eecd7023e84f186U, 0x3df73a30beba019aU, 0xbe168eb5bdf1dbacU,
  0xbe1520923bcbac1fU, 0xbd257806bd84129aU, 0xbdfa748bbe41e439U, 0xbe48d214be29e367U,
  0x3d6babb13e828ddaU, 0xbe116f1ebd82834bU, 0xbcdcdcbbbddfd3e9U, 0x3d37f6353e169e96U,
  0xbe3f18a5bda8823bU, 0x3ec679bebe86a003U, 0x3e91ceee3d21f352U, 0xbe25a28fbe73d93fU,
  0x3dd9876dbe43b392U, 0x3e8c80f13eb31d74U, 0xbdb9abcabe4ac004U, 0xbe925ed43e275fa0U,
  0x3d68bc1bbe9080f4U, 0xbe5d6e57be1489d8U, 0xba578dcabe10fc7bU, 0xbe3d7be83d8ec881U,
  0x3d21c398bde46812U, 0x3bb4c21a3d114a77U, 0x3d9bd777bd058abbU, 0xbe2eceedbdec6346U,
  0x3c89fd0bbd2aa75dU, 0xbdadb57dbde62b74U, 0xbdcf707cbe003a8fU, 0x3ddc06a63bf3511dU,
  0x3d86afa2bd489048U, 0xbdad822fbc0887c4U, 0xbd8ca3d13df5919eU, 0x3c1a590fbe7fe673U,
  0x3d851837be1e9af5U, 0xbd08ee8dbd11d17eU, 0xbc7fdc523d40a04eU, 0xbe51763b3e1c7032U,
  0x3db48f05be02c5ddU, 0xbd9d82d73d9f5968U, 0x3de916413cf1070dU, 0xbe58ce62be702ffeU,
  0xbd1c347dbe0bca0eU, 0xbd4fa9ecbe47c35eU, 0xbe2b2520be928f49U, 0x3dfa56efbd804fabU,
  0x3db5a011bda478c8U, 0xbdb1e521bd672b92U, 0xbd86dae3399d95b4U, 0xbe3fa977be0a0f5eU,
  0x3d7ea676bce925c2U, 0xbe15b2b4bd99a56aU, 0xbe6b07c6bcf878b4U, 0xbd1251f63df84230U,
  0x3e4ded96bdd11035U, 0x3d537adb3d1616f9U, 0x3dff5d313d1c8dcfU, 0xbdad4762bddf703bU,
  0xbb5231fbbd8361baU, 0xbd2bb76dbe4e685dU, 0xbe8498e8bda7b102U, 0xbd1a470dbdd8bccbU,
  0x3e1553263bec5e58U, 0x3d29e839bda4bca9U, 0xbe1424093e22330cU, 0xbe527a943d35c864U,
  0x3d7be5563d2fac46U, 0x3e34df06bdd32332U, 0x3db0cf78bde2c0c5U, 0xbba0bea43e354a29U,
  0x3e1ba445bee315a1U, 0xbde92c18bdc5705cU, 0x3da24003bf3ff332U, 0x3d9a0d97bd804e36U,
  0x3c61abfb3e48a33aU, 0x3cec22d23d86ac88U, 0xbe9e7821bdba6755U, 0xbce86f113c94dbb9U,
  0xbf560c9d3e2c6b1bU, 0xbe9ce8b5bddeefeeU, 0xbf0f136fbc0cc27cU, 0xbd8f4b86be010853U,
  0xbe8aa015bd1f7422U, 0x3e23c2eebdc63b0aU, 0x3e41a6dfbcd4bb97U, 0xbebbe38f3e3c0208U,
  0x3da4061e3eab16d0U, 0xbdd95cec3e895d6bU, 0x3e8c4835bef4f96dU, 0xbeb7c5743e02a2f8U,
  0x3dddbb88be5b187cU, 0xbe01dc6cbe06005aU, 0x3ea41c10be2ab3ccU, 0x3e53ba2d3e364ff3U,
  0x3d733d1fbe3013d4U, 0x3f0af4803e97fe01U, 0x3e82b87c3e7e33eaU, 0xbd82da3dbedf8858U,
  0xbf0f2d66bef58cfcU, 0xbe923400bdaa618fU, 0xbdaddcbb3d5eb381U, 0x3ec7ef87be2f1a9aU,
  0x3e75f0203f025180U, 0xbc095c76be8d31beU, 0x3e34087f3eaabf88U, 0xbe8bb8793ea000b5U,
  0xbd2575dabe4a0eebU, 0x3e636a68beb74b08U, 0x3da2796abe22db8fU, 0xbebf1e29be468ec4U,
  0x3f9fa3253ddc3bdaU, 0x3f159bf63ea11343U, 0xb95eb1fabd9bb38aU, 0xbf0b92fdbd5465e1U,
  0x3e219f2a3e2d2ef6U, 0xbd122a88beb7a049U, 0x3e1a7d85be987039U, 0x3f188f47beb65aedU,
  0x3d8b2b593d93f6deU, 0xbe6091f6bd5aa728U, 0xbea0a2573ce1099aU, 0xbeb59a103c2c2c76U,
  0xbe96b10cbde987cfU, 0xbd8f6b07bd2430e5U, 0x3dc051c9bea0ee50U, 0xbe883827bd98e1c4U,
  0x3e03dbcebe515b32U, 0xbcd3c76f3e39f72aU, 0x3d420ca2beebe569U, 0xbe258fa7be9bd13aU,
  0x3dbd42acbdb2136dU, 0xbf184c50be033c4fU, 0xbebe3753bdd87192U, 0x3d5e5822be98ae11U,
  0xbecdb9343f22f529U, 0xbd002d883e1cc85fU, 0xbd94541abd8b8a67U, 0xbeaa6b4bbb9826efU,
  0xbe090c15bdd17099U, 0xbebdc3293e1df176U, 0x3efd46e1be5ca29bU, 0xbd179011bd4ee308U,
  0xbcc39ecbbd43254bU, 0x3dddf45f3ed05785U, 0x3f0811ebbe3683deU, 0xbe54ec8fbe69e069U,
  0xbed6a81ebd8d5a9aU, 0xbe57ab0ebd04ece9U, 0xbeef58dfbe222d8bU, 0x3e958eb0bd4ec31dU,
  0xbea16d56be94332bU, 0x3e4230c0be3dd8a6U, 0x3d988a94bdd91292U, 0x3e52f2eebdbb9e07U,
  0x3db19cc13e5b30f6U, 0xbc1d2b9dbd76c879U, 0xbddd57df3dfa9dc9U, 0xbd2b32583cc59ad6U,
  0xbd8cfc7e3e5ffc74U, 0xbc9eb8823e385276U, 0xbec725293e350ab5U, 0xbcda2155bd4071c8U,
  0xbd72eda43dce85b0U, 0x3b78a388be84c0e0U, 0x3df1b101bda40ac0U, 0xbe8ee3223e283f2bU,
  0x3ca4eed9be19d8b8U, 0xbac05f6d3cc7b6efU, 0xbcf9f1edbbdf4c83U, 0xbd0e6fa3bcc64219U,
  0xbc7664153bd83c3fU, 0xbd933919bd8c8cf3U, 0x3cc7a1963d835035U, 0xbd648bea3d13d7a7U,
  0xbe31f7283cb4610aU, 0xbe4514d3bd053bb4U, 0x3d525ab23e30fb55U, 0x3d55a7aabd7b55e6U,
  0x3b909584bd3f3a37U, 0x3cd6232e3c84e659U, 0xbc56c62c3c89d13eU, 0x3d3aa1b7bc8a6e80U,
  0x3d04eb77bde53901U, 0xbd08a6e23c3f791bU, 0xbeb711de3d870cfcU, 0xbca51b90bdb29309U,
  0x3b8373763d288c07U, 0xbdd90bf1be2297c7U, 0xbd8ffae4bdc5b0bdU, 0x3d1b4e60bb2e0765U,
  0x3d6cd4e83d2e933dU, 0xbdc19f713c353efeU, 0x3cc8a6583d7185c4U, 0xbc04a3e1bd78622aU,
  0x3d87e5463d35947dU, 0xbd2740f73d360746U, 0xbcfabc4b3c12d9e3U, 0x3d81d62fbc813969U,
  0x3d3445febcedad03U, 0xbd94d4a1bdb7b7e6U, 0xbeef10353e33f817U, 0xbcca68a4bdcc21f4U,
  0x3d8b5fd93d5c7cfaU, 0xbdcf77fabe5ee16dU, 0xbe19ad30be417360U, 0x3d36a516bd83424dU,
  0x3dc0a2b63c4f74f2U, 0x3c9448b13cfba81aU, 0x3dd68c4abd89b5f2U, 0xbca15bfbbdd11252U,
  0x3e52086ebd5be319U, 0xbe103b6c3da0a4f5U, 0xbdd5fff8bd75f843U, 0x3ba06ae7bda27fe0U,
  0xbde64d41be5dbd82U, 0x3e010d7abe244105U, 0xbca23fe7ba82aea6U, 0x3d4c2ed2bc2454e9U,
  0x3e1436d73d92931fU, 0x3d0779b33c092b31U, 0xbe7457b33cd13421U, 0xbda228cd3b07624fU,
  0xbd83d0833e20f074U, 0xbd90c0903ca3f559U, 0xbe75dbbd3d477bd1U, 0x3db2e5e63e20dc16U,
  0x3d33a0dbbe43e470U, 0x3e2c73f9bc9d2f79U, 0xbd345d4fbe322da2U, 0xbdf802963d32533bU,
  0xbd0b56853db80c04U, 0x3e10f82abd14fd33U, 0xbd9cd67abbec69bbU, 0xbcd91464bc37cba8U,
  0x3d8cb0a13dc70b0bU, 0x3c24119d3d88cb6cU, 0xbd11c16c3c4c13c4U, 0xbc2e91713e2151ffU,
  0x3d5468db3d8dfc8cU, 0xbdf4924c3dc4bd6aU, 0x3d0b2ccc3dd0f0b9U, 0x3e1e98e1be6bad5cU,
  0x3cdd6f38be65c212U, 0x3d2780693d1bcefcU, 0xbc2fb7b83e64a685U, 0x3c9b1f85bd8c5c85U,
  0x3d9b4e383e251bb6U, 0xbe71c6513e03637bU, 0xbe768ea93c070499U, 0xbe6e17513e4e2c51U,
  0xbee812f8be46e24dU, 0x3abf5a69bdd2952bU, 0x3da6de68bdee5037U, 0xbded360cbe0d0a2eU,
  0x3d13a668bead98f2U, 0x3e38c7f83e80e81aU, 0x3e44e3c5be2fae1aU, 0xbe8084ffbda5c717U,
  0x3cc124f63e393d3dU, 0xbefb7cbfbbca6760U, 0xbe3db3ef3bc915fcU, 0x3ecac3f0be0f135dU,
  0x3e3ebbcf3c60dc25U, 0x3caec7fdbe1a84e7U, 0xbf310a403f170112U, 0xbdf44af13d58f384U,
  0xbe1f1e64bd706cccU, 0x3ed99dd5bf20e80eU, 0x3d0fc9b3be89c000U, 0xbe22b84bbe310c24U,
  0x3fd888b8be151636U, 0x3f48807f3e02d562U, 0x3b8a137fbe96e0c6U, 0xbe7d3fb4be28fb4fU,
  0x3e5ff9d03ccc13f7U, 0xbe0fc039be40c28bU, 0xbd1786a8be7079bbU, 0x3edcdd57be16ec16U,
  0xbd7b13753d87c273U, 0x3ddea3e53d8bdb6bU, 0xbe12fdb2bd7df53dU, 0xbb82f2f1beaed666U,
  0x3dc71596bd7f13bdU, 0xbdb886a4bdcc7fd4U, 0x3e143d38bda1e7ccU, 0xbd0085d63e1d622fU,
  0x3f8d91353d9250faU, 0x3f0bb84ebe1a6700U, 0x3cb821e33dfd5ab9U, 0xbddfdf05bedc8b10U,
  0x3db85ed83e4ec04cU, 0x3d2f68babdcffc40U, 0xbe579babbd0fbf8eU, 0xbdba424ebec32350U,
  0xbe2131863d79e5bdU, 0xbd4a63743da0ee7eU, 0xbc08e48b3d9bb5f5U, 0xbda6ae233b9fc080U,
  0xbdcee0463d0ca62fU, 0xbe68bded3e5a6ddfU, 0x3de9920bbba658daU, 0xbd1333983deb6f58U,
  0xbe390c183d0a304aU, 0xbe43b536be35b109U, 0x3b3fa6263cc3d87dU, 0x3ddcbebdbee8d518U,
  0xbd7c707e3d88852bU, 0x3d9db806bd2bbab7U, 0xbe0bf148bdeeb93eU, 0x3d4b2bf9bef12487U,
  0xbc976e77be9ef186U, 0xbcfc4cf23cd11f27U, 0xbd3dbfd1bc6de52bU, 0x3d7043edbdf7a2a8U,
  0x3d8a35083e132bbcU, 0x3db49140be0e2e0aU, 0xbe137d46bb6de206U, 0xbb860f2bbcdc1f91U,
  0xbe056c0b3c2b1532U, 0x3cb12016bdcf8be3U, 0x3d2bfbfabe87712bU, 0x3c11781abd5738d9U,
  0xbd3507d3be519b01U, 0xbdf34f1fbd1f957eU, 0x3b871f103d884723U, 0xbd785f45bb9e1b8eU,
  0xbe0d59c2bd93e711U, 0xbd60d2693cb32f6eU, 0xbddde34cbd9cd3f7U, 0x3dd8c5ccbdd85d8dU,
  0xbdc4a5e9bc0b6f54U, 0xbd7ecdafbcb57537U, 0xbdccafa13d1d6ed0U, 0xbbca185ebd827ae5U,
  0xbd892a063c4b8b12U, 0xbd57c8bdbe067536U, 0xbd790db3be9ddbc7U, 0xbdbb00613e05c795U,
  0xbddd8b67be1aba4fU, 0xbcf85b49be105bc5U, 0xbd9ade54bddf19e0U, 0xbcbcdedfbd544547U,
  0xbde8b9b7be1b872cU, 0xbd4c5f41bdf140fbU, 0xbe8712afbd89384fU, 0x3da091ef3cb52986U,
  0xbe0deb6bba04c7b6U, 0x3d81a886bdc5a9e5U, 0xbe1b06c53e0fe047U, 0xbdfbab78be200575U,
  0xbcff35b6bb44549eU, 0x3e1afe0cbd880db6U, 0xbe28b8d7bf09d79eU, 0xbe05ffce3e12113bU,
  0xbe0edcfcbe37e019U, 0xbda204b3be2c83f0U, 0xbdcf5480be15baabU, 0xbda9aec9bd4f99c9U,
  0x3e22a1ce3f2c4365U, 0xbd492b8dbdb756acU, 0x3d903cc23f1d483aU, 0xbe3c6a21be888f14U,
  0x3e75484e3d4a62aaU, 0x3f90604dbe87fa2cU, 0x3e6f90173cd0314dU, 0x3e07ea573ca2a19cU,
  0x3ea496303e31a919U, 0x3eb0babe3edbf244U, 0x3cb305da3e080654U, 0xbd800431be56f062U,
  0x3e165b963dc6edd7U, 0xbe1f5d2f3de7a3edU, 0x3d1a8f16bec103d9U, 0xbe84c6d8bdd6937eU,
  0x3da10edb3e813fafU, 0xbed2080fbdf79060U, 0xbebc7413bef5a3ceU, 0x3d0326bebe08fc73U,
  0xbcbd82463d9a95ddU, 0x3f3ccff8be9716b7U, 0xbe885ad43da9049eU, 0x3d7af692bd984c1eU,
  0xbf3924e03ddb9a3aU, 0x3bd3f5eb3f233ad7U, 0xbd40773e3dbf4ae2U, 0xbe0cd5f43eba02a0U,
  0xbe86c92bbf034647U, 0xbeb816713e36251aU, 0xbe0b789cbef38b0eU, 0xbdcf1c9abebdcd97U,
  0x3e8b601b3e09d876U, 0xbec67c233d0f6cedU, 0xbe8415d3bfa0da50U, 0xbe13b84f3e02c967U,
  0xbe3c9da4bd0e7082U, 0x3f87fc99bea52831U, 0xbe1c5c8b3b6e5272U, 0x3ded33babe9bb95dU,
  0xbf8f3bf53c75c713U, 0x3ea7faae3f8a1d6dU, 0x3e4841f6bc65ee28U, 0xbf00fbdc3f100db6U,
  0x3a11a728be079938U, 0xbe84532b3e1fb604U, 0x3cd278cfbf3a3584U, 0x3e67fe3abddfb4e6U,
  0xbd881773bca2d1c6U, 0xbdc8619ebdbc17d0U, 0xbd59abaf3dec74e9U, 0x3cc46445bc6bb97eU,
  0x3d99601a3d8495f1U, 0xbe28c39dbcecbb7cU, 0xbcd99c573d33eb42U, 0xbdb9414fbd04dfcfU,
  0x3ca8636a3dcad8aeU, 0x3d236b20bd8fcb57U, 0x3d72f407bd34a2caU, 0xbce21f02bdb53cfdU,
  0x3da0616f3dbf46d8U, 0xbd0862923d00b83fU, 0x3d02c3f03d1625fcU, 0x3d62458ebced9e06U,
  0xbdad1edebe058b4cU, 0xbda80b27bd9c9916U, 0xbe3b6b8c3e054ec9U, 0x3b58dba93d329f8bU,
  0xbd91fd79bd095439U, 0xbde87eabbe33d88dU, 0xbdffa1a03d75654eU, 0xbe3b2e3cbd9df240U,
  0x3d9687c4bd15940eU, 0xbd2c78b6bda0a026U, 0xbdc0d5353d9bee68U, 0xbd83b4603b203adeU,
  0x3d0865b3bd634442U, 0xbd5f35ee3d56b805U, 0xbd981e41bd82143cU, 0x3dac1b273a6211e5U,
  0xbd25d2d7be1afe2dU, 0xbd4bd133bd4ee246U, 0xbdf7de8d3d85e03dU, 0xbd3d345a3e46c322U,
  0xbe2bfc56bd8f9e45U, 0xbcbffe063c48b3cbU, 0xbdf050ce3e44403aU, 0xbe8dca2fbdc6b1fcU,
  0x3dc1cb95bdc9da55U, 0xbe14172ebc163887U, 0xbe53e81e3d39e6cbU, 0xbe0a44bd3d65309eU,
  0x3abbf4e0be29d78fU, 0xbd1b02a5bd1a2e34U, 0xbced0cf4bde2e0a8U, 0x3c9e474cbc9fd116U,
  0x3e4117cc38a41ddeU, 0x3e8ed50cbd346d8aU, 0x3d2ba9aa3f0cec89U, 0xbdf98d49bdaf7109U,
  0xbde55ee8be0cc8e4U, 0x3ea35126be9c3ca3U, 0xbe9a7b73bd5b56dcU, 0xbea4cd7d3db7dec0U,
  0x3ffa09f6beabe25dU, 0xbd1a718dbd46089cU, 0xbe880562be447cffU, 0x3d98c4573c14f685U,
  0xbe66accf3e46d320U, 0xbe5ecc92be377fb4U, 0x3cf16f5abde379b8U, 0xbda421bbbeadaa32U,
  0x3d87e46abd636ecbU, 0x3ea9b45bbd3eaaa2U, 0x3e23b0c43d18e6acU, 0x3c182140bea921e1U,
  0xbd98379c3cffdff0U, 0x3d99a570bce92a8cU, 0x3db19bef3d8d8074U, 0xbe865d333e1f90aaU,
  0x3fd4521fbdad7bb5U, 0x3cbb004f3d3663d4U, 0x3d473db23cd0d63bU, 0x3e4bf6e03d3cb3f5U,
  0x3d53f582bdafa51dU, 0xbdb62220be36f0ffU, 0xbda9b829bba4e740U, 0x3c81176fbe4df6ecU,
  0x3e4ced5d3a7b80cdU, 0x3eb559b5bc82a813U, 0xbe7721403f32d905U, 0xbd03d130be010788U,
  0xbe25cc0cbbb2e180U, 0xbeaddfaebe4c6b82U, 0xbe704b8ebd6a25f7U, 0xbd4484383dae2b1eU,
  0x402df102bdf2198bU, 0x3e09795e3e152781U, 0x3df12838bd022d34U, 0x3d8ca26abe4f9a07U,
  0xbbc57896bd941248U, 0xbe8308fcbe222240U, 0x3d06a547bdada2b9U, 0x3e28d0c2be860f8dU,
  0xbdf237023e1b4f12U, 0xbd92e858bed9f83bU, 0xbe4e23093c7bd7beU, 0x3d75c613bde56073U,
  0xbdd38ad93e1a5353U, 0xbe02cb7ebcde431fU, 0xbe59e9f1be2433bfU, 0xbe5358cb3e479c60U,
  0xbe0143ee3d49371cU, 0xbca53c61bddf4ee3U, 0x3e3b77d03cae329bU, 0x3ddbb34f3da46cc2U,
  0xbe06da2cbe4a099dU, 0xbea38fa8be080306U, 0x3dc390d53ec30acdU, 0x3e1284063e418fb1U,
  0xbc52151f3c4fc46bU, 0xbd60be56be1a6193U, 0xbd8b869f3deb2b16U, 0xba901087bdffaef0U,
  0x3dbb2b55bc8312f2U, 0x3ea13d40be2b745dU, 0xbe2ab159be54bb65U, 0xbddd3bef3c967a41U,
  0x3cf0efe63d25b7a2U, 0x3d984f7cbdc6264dU, 0xbce73aa2bd762493U, 0xbde1f1233e520f64U,
  0xbdbb40df3d82bb16U, 0xbc20b62bbe35ae7fU, 0x3d67545a3d8e9b32U, 0x3e85e2c83e577b7bU,
  0x3d8db4f93e5a47f7U, 0xbdbed6eebda90b0eU, 0xbeb8035d3e03e3a8U, 0xbdf0448abe8a6b88U,
  0xbb6163fdbd20f50dU, 0x3e76072cbe9b9fbcU, 0xbdc3df5fbea9fcb2U, 0xbdd4fda63c115f5fU,
  0x3ecfac9e3ce5a88cU, 0x3e33f638bd31f9c3U, 0x3dda093bbda01166U, 0xbdfce117bc95955eU,
  0xbd85809dbeaa1559U, 0xbeb0f39bbd9600d5U, 0xbd2d1da4be2ab841U, 0x3ec10d9abb645eb1U,
  0xbdc725e43b5369baU, 0xbd23fd6abdc9a298U, 0x3c20a9d4bdbda3baU, 0x3ce18cfcbd7050e8U,
  0x3dad0d4c3d34d44dU, 0xbe83fc07bd7d19aeU, 0xbd94a5063c0d0d5fU, 0xbdc68c2d3d9e7cfdU,
  0xbd1ad69f3e0c9101U, 0xbd5e1eaabdad2139U, 0xbddb4e7bbd17a1b8U, 0x3ca81111bd5a5260U,
  0x3c9ad6393c5881ceU, 0x3d07fdbcbdea7440U, 0x3e2b37c23c9baab8U, 0x3c5ccbd7bdd1fa67U,
  0xbc8c7c913d492305U, 0xbccfb9653de0c536U, 0x3db157c63ce96d42U, 0xbd92ad96be01e4fcU,
  0x3e3128ea3c6a83feU, 0xbe20146abc414020U, 0x3d58e752beba9604U, 0x3dc4740e3de606b5U,
  0x3e2047d53d82cee5U, 0x3caafa273cb27b7fU, 0xbccfcc263d1d1731U, 0x3d1f01a8be506afcU,
  0x3db693adbe2d54c2U, 0xbcf5e2dfbd9aae48U, 0xbd58b767bb49b535U, 0xbdef5744bdc3acedU,
  0x3d8356673d4dcdf3U, 0xbd7388843dd99792U, 0x3c8299eebd8a42baU, 0xbdd26d193b33c541U,
  0xbe4cf114bdac8935U, 0xbc2578babcd8842dU, 0x3e47d880bdd5b614U, 0x3d72267ebc8d1515U,
  0x3e07eda4be38b40eU, 0x3d353b753dd0ec62U, 0x3d3e8299bdbf3a78U, 0xbde433c83beca8f0U,
  0xbc1c3b62bd5a1b9eU, 0xbe52196d3969ff2bU, 0xbe0d7d0e3d8bba98U, 0xbc3922dfbcece644U,
  0x3d1e7027bdb744fbU, 0xbd8256903d7dcd30U, 0xbd209e733de86303U, 0xbbc05a51bd521562U,
  0xbd8ff9103d9b9135U, 0x3b4909a4bd865e4cU, 0xbd4b7775bdf3b279U, 0x3d9a4f6bbd91c912U,
  0xbc624c4abdc5b9cdU, 0xbe10a8a43c24c214U, 0x3d3c19303d8f7a9eU, 0xb930fa86bcd7f06bU,
  0x3e2c5f8a3c3f779bU, 0xbbdc42733dee2532U, 0xbdcf611a3d51270dU, 0xbded73953debf92cU,
  0x3d598715bd4883feU, 0xbc83d8c8bd065b56U, 0xbe75ba713dcfe2afU, 0x3d808c6abdd0a38eU,
  0xbc0e15703b3cc639U, 0xbd5d68b2be276bf3U, 0xbddfa58dbe0d78c9U, 0x3ce0682dbe0a5841U,
  0xbc848810be2e88e5U, 0xbcd392b13d1488aaU, 0x3d7548a8be849556U, 0xbd4e42a6bdfbab63U,
  0xbc8c65dc3cd04ba9U, 0xbd8d45633d00e263U, 0xbe9dca9ebdf1eba6U, 0xbe365826bd65c471U,
  0x3d680fd1bcc0fa43U, 0xbbde85b4be0d6addU, 0xbde856603dabeabeU, 0xbda8d90dbdfc4d19U,
  0xbde59dddbd23e168U, 0x3d35a44bbdceebc9U, 0xbd92c6fcbd98a87dU, 0x3c6a1d88bdef287cU,
  0x3c2fe2acbdfba04bU, 0x3dadfa203dd307a6U, 0x3e1c97f5beb6cab0U, 0xbdee9115bbc7cf37U,
  0xbe2e37ddbd776abdU, 0xbdd55403bcfe07fdU, 0xbe288f75bd10c588U, 0xbe234fa6bcb6c0a7U,
  0xbe27d9f63d8d7969U, 0xbcd14957bd91699dU, 0xbd7f8691be2a74cfU, 0x3dca0f7ebdd7382aU,
  0xbdae35183d103b08U, 0xbd82345cbd38c6ccU, 0xbcfd159bbaa71e93U, 0xbdd692493d2f8fd2U,
  0xbd601376be77b429U, 0x3dc497f23c49d29cU, 0x3e14d30abdf6246cU, 0xbc5635633e072a22U,
  0x3cd51c1fbefdb047U, 0xbe899313bde5acf0U, 0x3e4a0df43e1de9baU, 0x3d92d83f3de54954U,
  0x3e7461f63decd74fU, 0xbd2cab803e059056U, 0xbb4b3905baf18f64U, 0xbdeb1c673cfc3dd1U,
  0xbdbd8790bde6da19U, 0x3e560f97bc3a82b8U, 0xbd492369bdb7d9d8U, 0x3ddd5b9bbcd3a7a4U,
  0x3d868a3a3c4604a1U, 0x3df351ae3dd6e418U, 0xbe216ce4bdc43dd5U, 0xbdd98102bd0df51aU,
  0xbd86e3233ecd5ac5U, 0x3c8becb5bd46edceU, 0xbe852b72be7f0152U, 0x3e1be7c7be21970dU,
  0xbc53a462bd0f31e3U, 0x3d21fbaabcdab5baU, 0x3d4074f63dad11deU, 0x3d477b97be2fca0eU,
  0xbd0a4ab93d90d037U, 0xbe8d608d3db17837U, 0xbdfd492a3e00b602U, 0xbcfa70123ca7b48fU,
  0xbdeaf6753d625ccbU, 0xbe33e40dbd32d995U, 0xba8e30f13d580239U, 0x3d7251aabe4acd58U,
  0x3d3dec4c395bdd75U, 0xbc0a4606bda9eda6U, 0x3c82568d3e078b33U, 0xbe86de48be372bdeU,
  0x3de09a363d3502c5U, 0x3b8b4cccbd204f7dU, 0xbe53795cbce0ee80U, 0xbcb0d0b03c8f791dU,
  0xbe0308d6bcaf062cU, 0x3dcde601be09830aU, 0xbe17919abd838019U, 0xbd7d4536bcfbdc02U,
  0xbd77d2dfbd7445f1U, 0x3e0e5eb6bcab849dU, 0xbc9b33aabd73abd1U, 0xbd6c47603e5c43c7U,
  0xbde09b273e2c79beU, 0x3c3930133c5874a2U, 0xbd00d9853d9ddac8U, 0xbbc1d8a9bd04c5b7U,
  0xbd7df8023d7dd9a7U, 0x3d2e4c4a3c25d366U, 0xbe40d4353d97487bU, 0xbd27e9c23d67db08U,
  0xbe69ced4bdb360a2U, 0xbdcba1ffbe1ef34aU, 0x3c8cb268bd50c329U, 0x3d9e9f2ebe1e0183U,
  0xbe085e0abe15fe7aU, 0x3e6a81eb3d81216dU, 0x3d06c819be64dac4U, 0xbe2717e83c906804U,
  0x3d7b3e08bd28a904U, 0x3c2427c33a4daf43U, 0xbe90a966bcc93f9fU, 0x3c56e7543bc4439cU,
  0xbe14d933bc35961eU, 0x3db1f7983e02af10U, 0xbe944ad93cf02ddcU, 0xbe636af73d6e4591U,
  0xbef25954bda91db9U, 0xbe799239bc69f706U, 0xbe548f40bd8966c0U, 0xbc7bec823c97d30eU,
  0xbe4bd215be95551fU, 0xbde26d76bd9a4329U, 0xbc4667d93da554daU, 0xbbcc19bebe2a35c6U,
  0xbdaa8914bdf7d62bU, 0xbda18948bc7feb68U, 0xbea6c43ebdbd7089U, 0xbc99ab23bd1304bbU,
  0x3d1749e93ced94c3U, 0xb9c6104fbd08a9a6U, 0x3dbb91e63a68d4f8U, 0xbe67dd43bd2baac6U,
  0x3d15ad37bd2ac239U, 0x3cf54b7dbc3e03abU, 0x3dcb3f73bdaf3c28U, 0xbdecd0da3dc921f1U,
  0xbd9ef1d638af2a7bU, 0xbd4d90643c4b2484U, 0xbbf639793dca50c7U, 0xbcf8b785bda0163bU,
  0xbd855fe7bdc3f7d1U, 0xbdc860cabdad27e3U, 0xbc06158ebc9feba4U, 0x3b9c51a6bd4bf314U,
  0x3d05af12bd190f02U, 0xbd7bfa12ba387d9bU, 0x3bf00dafbd51ba36U, 0xbe1c20ebbd995e6aU,
  0x3d4c2060bcbf0a1cU, 0x3be4bfe5bd927da4U, 0x3c4cbc7abe036411U, 0xbd5f7de03c818d53U,
  0xbd80516f3d2b83d6U, 0xbdfaad0bbd0ad8dbU, 0xbe00ac243d9242f6U, 0xbda9dcbfbd883512U,
  0x3c2462103cf01bf8U, 0xbde58dd5bdaa91a0U, 0xbcc216ddbda0c37dU, 0xbc28dd55bdf33514U,
  0x3cb1b1d7bd81b3ddU, 0xbd1b52e3bab12528U, 0x3d8df7953d627069U, 0xbe851ee3be2896fbU,
  0x3c9df542bb813ab5U, 0xbd1b7d45bd815345U, 0xbdac0d18be0fd796U, 0xbd6294ec3d443482U,
  0xbd31c16abd362441U, 0xbe130268bd01f9a2U, 0xbdde14df3d8d54cdU, 0xbd99cc93bdacdcf3U,
  0x3d9306a0bdbb0087U, 0xbe05a144bd8b24c0U, 0xbd571ee9bd89196fU, 0xbd73271abe314f57U,
  0xbc9a69a83d8ec933U, 0x3d2148a83d963ffbU, 0x3d1b26c8bd57678dU, 0x3d624a58bd8c8553U,
  0x3c9956cc3d3bbdd7U, 0xbdf6baf73b3fb5a8U, 0x3e1df3353c7c6ca1U, 0x3dc00e893cbf5417U,
  0xbdc03404bba547f1U, 0xbd978b983d373534U, 0xbd01451c3ba6d7c2U, 0x3cc9c942bdd3ebf0U,
  0x3de1e344bda07ce1U, 0x3dc15c14bc8523d1U, 0x3c897b8c3d9e6f37U, 0xbd5ae2ab3dc049c3U,
  0xbca5365e3e1fd997U, 0xbd223b343e18015aU, 0xbd279002be05e28aU, 0xbe7cb84a3dd127b6U,
  0xbda9c9d2be04c3f9U, 0xbe4c235abd1b6dedU, 0x3e0027593cf4fe1bU, 0xbae21fe4bc805371U,
  0x3d81eda5be66324bU, 0xbc5256a43e159f04U, 0xbab64553bde156e4U, 0xbd5e9c1cbea4f9f7U,
  0xbd964184bd90b418U, 0xbe95be93bd649225U, 0xbd87344dbce3b8e2U, 0xbd78ba33bd38c52cU,
  0x3d18f7253e2516b2U, 0xbd8a46333d8c4a94U, 0x3a2bf7e2be1c5a49U, 0xbeae46593dca2588U,
  0xbe91b636be37259aU, 0xbe91b9a13e02273dU, 0x3bd5f0da3def6ed8U, 0xbc8f60cf3b2cfc84U,
  0xbcf59b75beb0e30fU, 0xbe5912af3e3e3fe2U, 0x3e1d551dbe08c7ceU, 0xbac9328bbeb0c008U,
  0xbd51bb3ebd16e2c1U, 0xbed8dc2b3c0e0320U, 0xbebae9f8bcb6896aU, 0xbbdd2507beac3c61U,
  0x3ddf26263d33b857U, 0x3a43743c3cbb37adU, 0x3ccf30aebd5e571bU, 0xbdcac0c03da89fa0U,
  0x3b9cfb0abd3e303fU, 0x3da43902bd287a6dU, 0xbc1e0fb6bd8282d9U, 0x3d49be14bd1096a9U,
  0xbd0710ad3d1f09d4U, 0x3ddfc6133d3d9082U, 0xbcbcc39dbe067278U, 0xbd1d8150bb81ad43U,
  0xbdc5fe9b3e1c35bfU, 0x3ceea096bd3a318fU, 0xbdbc7515bd91b6c5U, 0x3d86cf16bba4a3a4U,
  0xbcb89c043c838178U, 0x3b0e4c78bd925ff8U, 0x3c927f11bd3647bfU, 0xbd9604dfbc9a037aU,
  0x3d9ec7813c196630U, 0xbce24be6bcfcb107U, 0xbbd7b9d7bd4d1494U, 0xbcabb94b3c3e5180U,
  0xbc92436d3d8a1891U, 0x3d59d0bf3b17ff00U, 0xbb51be92be10ee8fU, 0x3d28adccbde3cd7cU,
  0xbe59ed9dbd8566e2U, 0x3cd63909bd89d93cU, 0xbd9f398d3d5d2683U, 0xbe2c0111bd3b8992U,
  0xbd7e4f2bbccc662aU, 0x3d120c33bd77341fU, 0x3dcc5530bd843e07U, 0xbd92475abda291e2U,
  0x3da806db3c53b78cU, 0xbd1868283d78d097U, 0xbd6b6546bc835d03U, 0xbc6792f63c837f3cU,
  0xbccd79603d24d6c9U, 0x3dbc229dbc93298cU, 0x3dbbbf02be57b904U, 0xbc20884bbda65405U,
  0xbe752689be1c2996U, 0xbbef84fbbd9444d7U, 0xbaeb89473d2c950aU, 0xbe123450bd4635f8U,
  0x3d6a3096bd63caadU, 0xbdf135ce3d00f602U, 0xbe8468f33e499011U, 0x3c79293dbd9cae71U,
  0x3dc14cdb3da49d45U, 0xbcb61ff9be360bf3U, 0xbd5a2b30be2d2966U, 0x3e061abcbd921f8eU,
  0x3de4b85c3c7b28ddU, 0xbced2b64bb9cb2caU, 0x3c0a5a6cbd6cab04U, 0xbd7894d1bdd69634U,
  0x3e2f878a3d3a3f92U, 0xbd9d72a7bb5e99f6U, 0xbc7da6fcbe3d3a11U, 0x3dc4966b3ada91d4U,
  0xbdad8eaebdad9c40U, 0xbdbefee93d8a8438U, 0xbe6235633de4209eU, 0x3cceca62be0f2679U,
  0xbdad28fc3dd95632U, 0xbd85de14be52d154U, 0xbc24c770be021744U, 0x3da9ae6b3c0387faU,
  0x3c66ba773d8dfbb4U, 0xbe474828bd076e5aU, 0xbd9fe4973e0020cfU, 0xbcba1ce8bddcc2cdU,
  0x3df31f283c7c051eU, 0xbd0f03f23d8de92bU, 0x3c692046bda37965U, 0x3dc8d1ecbcb5ea40U,
  0xbce8586b3c7054deU, 0xbd88ac333dd40ee6U, 0x3cf9e89bbe142875U, 0x3d3bb7a5bd8fc891U,
  0xbe551b6c3bb093ceU, 0xbcd1b2dbbbe64ab7U, 0x3e7910cc3ccf8237U, 0xbd61b13f3c12c369U,
  0x3b470a28bdad37c0U, 0xbe8667c3bae67c46U, 0xbdad55e53ddf8e41U, 0xbcbc4674bc71c801U,
  0xbe5f3b023bcaed5eU, 0xbd053eedbcac59a2U, 0x3d9c116a3d6ef9b1U, 0x3d030a263cf68165U,
  0x3ca32bcbbbb09f24U, 0xbda84359be3cfcaeU, 0xbda4cb7cbe411471U, 0x3df00d0f3d950969U,
  0xbd29dc56bd097bebU, 0x3b2ca1863ce01162U, 0xbe28e0533e9cc7d4U, 0xbe3d9eafbd9f878eU,
  0xbd2e15a23d833b1dU, 0x3dd5b9fd3d83726fU, 0xbd0b11133db4bdb3U, 0xbd9468763dbdddb5U,
  0xbc331ea1bd5b90bfU, 0x3e0f6e93bb8c82d7U, 0x3e0c38cbbe394405U, 0x3e080542bcc151ddU,
  0xbd9216843e40de90U, 0xbe047bd9be0920d3U, 0x3d3d3e17bd0092cbU, 0xbd11e1bdbe5c5767U,
  0x3e05119d3b3a9ad6U, 0xba2c2fa13dde04efU, 0xbe15314cbd19e799U, 0x3d90773dbe0203d1U,
  0xbd5863a63e01025fU, 0x3e2e16d93daba92dU, 0x3de982b4bf09de97U, 0xbe042cb8bcef5513U,
  0xbbf3f379be88d85bU, 0x3d0817efbe1433dfU, 0xbde28fdcbdb8afabU, 0xbdbec027be3039b1U,
  0xbd9624703d39800fU, 0xbe0b40203db2d984U, 0xbc55606d3c0c1ce6U, 0xbdd145c5be91e2ceU,
  0x3e11f4073d289184U, 0xbe21bc713d08eaf7U, 0x3e13a8efbdcb5a4dU, 0x3e44516ebd5c2e35U,
  0xbe00cd9ebbeb8f14U, 0x3e5eb62c3debcd41U, 0x3daf197fbf2d5fc4U, 0xbdabd3cabe85e85dU,
  0x3dd5b343be5589e0U, 0xbe77ca18bd8ab4ddU, 0xbe7a6facbd0bbaabU, 0xbea9b818be920f7aU,
  0xbde9eb683d7e6badU, 0xbda60c423d549cceU, 0xbe82a1903d02d907U, 0xbe1febe2bd217237U,
  0xbe69c96ebd56590dU, 0xbd7be95ebcb99b77U, 0x3dd15a4ebd688ad6U, 0x3d020b40bd2b28c1U,
  0x3e0da60ebe320d54U, 0x3dccd8fb3df56cd7U, 0x3d8f7a32bdf92a9aU, 0xbd9ec5e63c9a1c35U,
  0xbd52124c3d7771e8U, 0xbdcc81683c8ff381U, 0xbe2d6f923caf8d8bU, 0x3deba96cbdfc77f8U,
  0xba9bbf193d4b682dU, 0xbd9003353e5016f0U, 0xbc7b7b4f3d7d9299U, 0xbde3ef03bdb17d29U,
  0x3dad1fcbbd890abaU, 0x3d7cd503bdc4fe24U, 0x3de2a8c5beab6559U, 0x3e477d72b9f54bf7U,
  0x3d6d71343d3bb997U, 0x3c6883b23d16df89U, 0x3ab95bfe3dbedf85U, 0xbde20cb9be06d734U,
  0x3bcc377c3cafefc5U, 0xbd9f46723b4cd72eU, 0xbe0bdebfbdf674cdU, 0xbc71654b3d9b1bffU,
  0x3d64a85bbe895c1eU, 0xbd19a8c8bdcd8898U, 0xbdeba2243d967730U, 0x3e516979be2383fcU,
  0x3e4817ba3e0fce40U, 0x3d016147bd81f064U, 0xbe60a4f9bd5f2595U, 0xbcf757f8bb8ca35bU,
  0x3d2f85343e396682U, 0xbdbec080be3dbffbU, 0xbdb3fba53dd6938aU, 0xbd822e08bd98d166U,
  0xbc8261333d5ce41bU, 0xbd14e684bdbd4e13U, 0x3e490220bcd3674dU, 0xbdbafb8bbcf65534U,
  0xbe2a5c623daf642bU, 0x3e187ebebc1b7895U, 0xbdac8ff9bbd812e2U, 0x3e19e908bdbf597dU,
  0x3de5844d3e88f1aeU, 0xbeee69843e0064b1U, 0x3cf21022bcef40b2U, 0x3e21beb83ea28247U,
  0xbd98ebe33d593dc8U, 0xbd2e998dbd114061U, 0x3e7e24a63dd2edefU, 0x3f0f00bfbe40dcc6U,
  0xbc58c1edbe8a12b0U, 0xbd0c42eb3e45b968U, 0xbd1e91493e8699eaU, 0xbe3c6668be902090U,
  0xbd4fbb9d3e01cad9U, 0x3af822ffbc79e213U, 0x3d27450cbd135fabU, 0x3d3cc46bbde41780U,
  0xbe2edf07bcc93ae6U, 0x3d63a9a3bc585dd0U, 0x3e15d500bdf94a23U, 0xbe5e99d33bbb4dd1U,
  0x3df46af3be04d3deU, 0x3cfd3b28bd414be6U, 0xbd136e87bcb13ee0U, 0x3c0966abbdc38e9bU,
  0x3d8f8e3bbe8282ddU, 0xbe4f036dbe404075U, 0xbc10f1bd3d2f1e82U, 0x3e01ff183ca57d4dU,
  0xbc88a3b4be012b99U, 0xbe66cd52bdc4bf6eU, 0x3d58f032be0a78f6U, 0xbe1c4f023bee663fU,
  0xbe90f651be965860U, 0x3ede1d09bec0ee89U, 0x3dcd6ddf3beaeb1dU, 0xbe269ea6bec925f8U,
  0x3decf878be7a1adeU, 0x3e589f09bdba4cffU, 0xbf25e531be233a16U, 0xbf1bb2c53eb3fc72U,
  0xbe36f5553df79f2aU, 0xbbaae71cbeb7db69U, 0x3e0026ffbea99da5U, 0x3e1bcb6f3f099f86U,
  0x3dbff1b13e9b29f6U, 0xbe09a4a73d9b34f1U, 0x3d2f39cbbdfe1c39U, 0xbe4cf8cf3d05c74fU,
  0xbde97c34be14c402U, 0x3e6f2463bd8ceb91U, 0x3ecd2b44bd4aa1c3U, 0xbe3fbbcebdfa0111U,
  0x3e0e1a6fbe2197f2U, 0x3e1e819d3de95fe3U, 0x3d98a781be401bbcU, 0xbe7bf3883d80cd4eU,
  0xbe31c2c53d588e9fU, 0xbddbd5a7be13997aU, 0x3cd662d23c8f0c08U, 0x3e30f19e3e461aa8U,
  0x3d127e293d1685dcU, 0xbca94e49be9afda8U, 0xbe825231bd0ca5e5U, 0x3da1d7dd3e345427U,
  0x3dac0db03de0b482U, 0x3f11567bbec92affU, 0xbd7cce16bde3a744U, 0xbeb7ec8bbd68371bU,
  0x3eb55a463e209c2eU, 0x3e08b1193e5b83b0U, 0xbee75b563d71b4b9U, 0xbd68fc513e1ec9feU,
  0x3d10c4cd3e00df11U, 0x3d828906bbac06dfU, 0x3d5d0dffbe059611U, 0x3dddee4abcb8431aU,
  0x3d2db026be9a592cU, 0xbdef348dbeba74a2U, 0xbdd0aeab3d98864dU, 0x3ba6fb613dd7cb4fU,
  0x3de92dbe3c8a7d5dU, 0xbdcaa50a3cc71634U, 0xbee6b0923d9fd497U, 0xbeca12e73c69050dU,
  0xbe7ea2e03e2b8954U, 0xbe4a0e46bdb7e7e9U, 0xbe5982d3bca0d645U, 0x3e059192be138657U,
  0x3df2861d3cc296faU, 0xbcf98b7cbd3925d6U, 0x3d1c73e5bc69f98aU, 0x3b6a85ecbe8c07bfU,
  0xbdb633d3bd649b71U, 0x3ddd3ac6bded4f93U, 0xbe45a9b7bbcf4a0cU, 0x3e488cd63d276b2fU,
  0xbdf144223dda170dU, 0x3de18a3cbccc900aU, 0xbe6fdde33c390d6bU, 0x3d18cc7f3d4fe869U,
  0x3d6cb6b63daed2d3U, 0xbe42e4c33de39683U, 0xbe55a5fe3e5963e4U, 0x3d9115da3dba75c4U,
  0x3d9b83d0bdd3774eU, 0x3d47468b3da2b433U, 0x3e1eebb8be05d224U, 0xbd6bdadfbcec8230U,
  0xbdfb6a27bc077f3aU, 0x3c49ab18bc84a465U, 0x3d54075cbe821b05U, 0xbe0073e63e167462U,
  0x3c23c490bdde4f14U, 0x3da77c423e17e874U, 0xbd8ca0573cba97fcU, 0xbe4ae9cc3d2c0700U,
  0xbdd9a68bbdee4b27U, 0x3d9bd2af3e59ed23U, 0xbd88c9843c006963U, 0xbdda33b5bdf30e47U,
  0xbe9973efbe4b3133U, 0xbc8d0791be0140dfU, 0x3d53c5533b94b8c9U, 0xbd91df72bd673172U,
  0x3d4acdc33e92ca56U, 0xbe8e2c433bf98449U, 0x39fe3451beb045d6U, 0xbe8b85a7bc7daaffU,
  0xbbdce9ecbdf082c0U, 0x3c32858d3cc6ab15U, 0x3e7ea142bda2446bU, 0x3db2e3dabddcabb7U,
  0xbdea5e14bd6fab47U, 0x3e8b705d3e83de31U, 0x3bc508e9befed2bbU, 0xbdf6e492be5ee9bcU,
  0xbea2de7e3e0b2770U, 0xbeabd510bc9dbfb1U, 0xbdd53a93bd3106f8U, 0xbdebbc89bd5191e8U,
  0x3eacec793da64482U, 0x3bddc4093e7e2dccU, 0x3d9e29cabe36a26bU, 0xbdc366b9be5888c2U,
  0xbce8667ebe2ef627U, 0xbb992a633e12c80bU, 0x3e8d3c47be8d30a1U, 0x3e71d3dd3ce63949U,
  0xbdbd7e4fbe31f4e1U, 0x3ca9b44d3e2e86f5U, 0xbe30a8643da6c3c2U, 0xbe412a87be350648U,
  0x3d8019db3e54ac99U, 0xbdcc67a0bbe61d69U, 0xbe4beeb63d063d32U, 0x3d4a6e14bde7d08cU,
  0x3e0fe44abd1fb4beU, 0x3bb3c2cfbd3b4db2U, 0x3e017de1bb21302aU, 0xbd597a09becce862U,
  0x3e5bfc9d3b613502U, 0xbe83472fbb799e1cU, 0x3c1e2783be8664c6U, 0x3d1a7e7c3da21773U,
  0x3d440db93e45e06aU, 0xbca4f9a2bd6b7a14U, 0xbdbccf6a3deaa255U, 0xbe47ceffbe5ba9c4U,
  0x3da2d4e03c865385U, 0xbce9edbabe3ceca3U, 0x3d12bfa8be6449edU, 0xbe00c7a0bde68fedU,
  0xbde2103cbe9a6be4U, 0xbdc233b4bf038089U, 0xbca5afa7bd634735U, 0x3e248b7dbd3b691bU,
  0xbdbb07253dfc57f2U, 0x3e25b51fbd2d241cU, 0xbef4467b3e77f114U, 0xbe9d5883be110e3dU,
  0x3db6ae6fbdcda2deU, 0xbd963fa8bd764c26U, 0xbd81bdea3d02cf28U, 0xbe87d2f43e60cef4U,
  0x3d7e62e0be94bc13U, 0xbd3b2f1fbdc0f425U, 0x3e35a9eabdab5619U, 0x3e0c7a443e1935f3U,
  0x3ed53c82bdf7d024U, 0x3e58a282be8cfef8U, 0xbea8f0c03ccc0baeU, 0xbe6cabddbe6c099fU,
  0xbdda3b633da03615U, 0x3f5c14cabe3d35e1U, 0xbf1df019be5e53c8U, 0xbee73b343d449aa6U,
  0x3ea211e5be14cd6eU, 0xbe5541d43e43037cU, 0xbebec9583bee9efbU, 0x3db6cb43bec8132bU,
  0xbe81e6bebc4bac3fU, 0x3ba911e1bd069b77U, 0xbd905d79bdad22edU, 0xbf120a7e3f05fa96U,
  0xbde789023f2d9c69U, 0x3d89d302be140c94U, 0xbeacf14abd9c3185U, 0xbd4cfaa43e55ba25U,
  0xbef14328be6bebe0U, 0xbf029f3abe1aec4aU, 0x3e3a44823de06b7cU, 0xbecc9cd6be153b74U,
  0xbda08494be436a9dU, 0x3ca659763e90b177U, 0x3e62a0c5be683808U, 0xbebc5facbed02ebaU,
  0xbdfffadcbdb867acU, 0xbf2e2674be4a32d4U, 0x3e8ca875be882255U, 0x3f01cc7dbf2108c0U,
  0xbd7aec683f2f0c93U, 0xbc6dfa88bdcd539eU, 0xbe82e1a8bdce6936U, 0xbdedf4583ea6e4e9U,
  0xbe03d6c4be6b9e6bU, 0xbf8473383dc325faU, 0x3e4bd967be04103fU, 0xbe0b78c7bddb8673U,
  0xbdf6ad093da6bb87U, 0x3e7e5a013e6b8118U, 0x3db1c7413d5373f9U, 0xbe96f9a9be4fd0ffU,
  0xbe6353de3e93f9d2U, 0xbd7a0cdbbe6a503bU, 0x3ee4701bbefae6f4U, 0x3f310e82bf049a31U,
  0x3c3a6f4f3c70e191U, 0xbc5b1a11bd0f2cecU, 0x3d9384f8bc5501ddU, 0xbd0006e03d279383U,
  0x3d8201dbbc9abdb0U, 0x3c8362db3cd5af9eU, 0x3d9339283d56337dU, 0x3a339453bd339ef1U,
  0x3d367f70bce87b77U, 0xbc481ba73cc75982U, 0xbda23fafbdc62f6eU, 0xbd6f133e3c050730U,
  0xbc644c443d8fd2acU, 0xbb77748dbd787aaaU, 0xbd42dfc1bd00c42aU, 0x3c6e25213d4ed2f9U,
  0x3d74dc053cbf1e52U, 0x3ca6ac21bb8ae0aeU, 0x3d047e03bcaf4a0aU, 0x3d0173543d0ecef6U,
  0x3e107faabcbdcb14U, 0xb9b4e7c93cabb4ddU, 0xbbae092dbbbcb078U, 0xbcc0c9ee3d06f8c5U,
  0x3b50d1303d094cf3U, 0xbd0a006d3aaab280U, 0xbd7a1d3ebae91fa3U, 0x3cbb028ebbcf1124U,
  0xbcdb9d2a3d88ef7fU, 0x3d0b4bfebcee80b6U, 0x3d3d0b71bd2621feU, 0x3cb1bcbfbc88d93bU,
  0x3d53e2583d36b000U, 0x3ccba3ce3d3d790eU, 0xbd8a65c43cc9313fU, 0x3d72ab3d3cf4dd25U,
  0x3dbcc14c3d55816bU, 0x3cc32e41bc27332fU, 0xbcd3d1183ca7d5d8U, 0x3e1d1bd43d4253ccU,
  0x3ca34755bc9e5078U, 0xbc5917503cb0e329U, 0x3cbc92963d5323cfU, 0x3e12919dbd516f07U,
  0xbc70a4f83e37a114U, 0x3d9f7cc83d250d51U, 0x3da9b6d13c9de5ecU, 0x3c08a2c53dae1a74U,
  0xbe9624023ea7d574U, 0x3d2d84d63e2bf36aU, 0xbe0fbce6be32e96eU, 0xbe09c8083f23434fU,
  0xbf36a40dbe4ffc04U, 0x3e46c71cbe1ca4b2U, 0x3e9b0a013d1a01eeU, 0xbe981a5dbe6ca57aU,
  0x3e0fd182bebbd9d6U, 0x3eaab3753e4ee7eaU, 0x3e816121bcf564e4U, 0xbe8f1c30bdcf96b7U,
  0xbd8f17cbbe81eeddU, 0xbde8d349bddbb263U, 0xbec43966be64d547U, 0x3e909255bd41bf02U,
  0xbec37bbfbe4eb886U, 0x3d2b71debe67ab92U, 0x3da924a1be746f74U, 0xbca9da613d820ed3U,
  0xbeca04d9bcf0f4f6U, 0x3e61ff203dbeb0c1U, 0xbe4464443e06c394U, 0xbf1061c8bdec1638U,
  0x3d81a07ebd984a29U, 0x3d565af73c47c2f4U, 0xbe5dd57f3d6e0d46U, 0xbddae13b3d870f34U,
  0xbd8cccf5be9b7cc8U, 0x3d205369bdb8d20aU, 0xbdc86f36be4d7564U, 0x3de866c13d753e03U,
  0xbe6a2e5ebeb9a84cU, 0xbe1945ffbec94821U, 0x3b212ea43de894eeU, 0xbd9e9fa8be8d0982U,
  0xbd7bc08a3da91abbU, 0xbda40aec3da33993U, 0xbeccf7483d8cb743U, 0xbeb9fc3ebcd5ca3aU,
  0xbec58fbf3e220e49U, 0xbe4cb5bfbdf39dd5U, 0xbe617cdc3d903ddbU, 0x3d20411dbe7301f1U,
  0xbdcc286cbe8c5785U, 0x3cb80fac3d99809bU, 0xbe882702be6dfbf4U, 0xbe28ad75beb1ca73U,
  0xba9e274bbe81d0e6U, 0x3c08d27cbdbd38a9U, 0x3dd49715be8b2281U, 0xbd599dac3ddf13f7U,
  0xbeabbe3ebdb2f3ebU, 0x3dc4a9a73e1e8fb2U, 0xbdc003193e411a61U, 0xbecddbacbd020ab0U,
  0x3d5b8e41be1160eaU, 0xbe14fbebbb2b4411U, 0xbe6795923de5d93aU, 0xbe22cc283db6196aU,
  0xbe183a5dbe56be3aU, 0xbbf6ca26bde71585U, 0xbc10f8d3be059a47U, 0x3d8e3cd13e14cd6cU,
  0xbe0e7da2be4e9f7dU, 0xbe035a9dbdb6867dU, 0xbeaab38cbd77b02dU, 0x3d5ec2d23d1264fbU,
  0xbde2da1ebc5d116cU, 0x3cc7e1c0bec71046U, 0xbdf1a93b3d0f5d1bU, 0xbeae13b9bcfdcea5U,
  0x3e86eab33d7a8b3dU, 0xbdf325893b7781f0U, 0xbc423d9f3ce8a072U, 0xbe5ff0d6bd921b6aU,
  0x3df4b15ebe857c62U, 0xbd9a7e68bde0f80bU, 0xbd75ebe3be83d283U, 0x3df220d8bd630078U,
  0xbd86c09bbe39995bU, 0xbe759653be175afdU, 0xbef91cc13eb69003U, 0x3d4455c6bdf0f389U,
  0x3e22729f3d3922fdU, 0xbe078863be8fdb8bU, 0xbe57283bbd9b1ac9U, 0xbcc0f569bdf5ec84U,
  0x3e9d5bee3e87b43eU, 0x3d28f2e4bc45a979U, 0x3e8ef1b3bec32935U, 0xbdc2b95cbe43199fU,
  0x3e605461bd868f15U, 0xbc7102ac3bf8f305U, 0x3c009140be3cb7d3U, 0x3cfc62a3bd4e7165U,
  0x3de80cd03dfd60deU, 0xbd8ecdc1be022457U, 0xbeab53e5bdf2fba5U, 0xbe0de78c3db49529U,
  0xbbb43b97bda3655dU, 0x3f165f5ebedaafdfU, 0x3c963a47bcc515bcU, 0xbe029d44bdd9af22U,
  0xbbdabb93bc8a422bU, 0x3e00730f3d9894ffU, 0xbe3cf028beae0e1fU, 0xbde066ea3e903a9cU,
  0xbdb5c3f3bd53bdcbU, 0xbe352e37bdb72065U, 0xbd68a912beeeb82aU, 0xbd265472bca6b607U,
  0x3de65a33bc7123b2U, 0xbe009989bc2bbf60U, 0xbe752977bdfdaf1cU, 0xbd420039bc59b70bU,
