/**
  ******************************************************************************
  * @file    speech_data_params.c
  * @author  AST Embedded Analytics Research Platform
  * @date    Wed Dec 27 14:51:19 2023
  * @brief   AI Tool Automatic Code Generator for Embedded NN computing
  ******************************************************************************
  * Copyright (c) 2023 STMicroelectronics.
  * All rights reserved.
  *
  * This software is licensed under terms that can be found in the LICENSE file
  * in the root directory of this software component.
  * If no LICENSE file comes with this software, it is provided AS-IS.
  ******************************************************************************
  */

#include "speech_data_params.h"


/**  Activations Section  ****************************************************/
ai_handle g_speech_activations_table[1 + 2] = {
  AI_HANDLE_PTR(AI_MAGIC_MARKER),
  AI_HANDLE_PTR(NULL),
  AI_HANDLE_PTR(AI_MAGIC_MARKER),
};




/**  Weights Section  ********************************************************/
AI_ALIGNED(32)
const ai_u64 s_speech_weights_array_u64[13298] = {
  0x3ef4d6a23ef243e9U, 0x3bbd55233e3bc08eU, 0xbef499d0be9373bfU, 0xbee56b50bf0a1256U,
  0x3cd0e2b9be862e24U, 0x3efa42353e9e9d60U, 0x3f257fc63f06dc8aU, 0xbe930c883e33b7deU,
  0xbf501ea2bf280f05U, 0xbe5020d5bf39447dU, 0x3f44b6f93eb38d2aU, 0x3f383e143f740fffU,
  0xbe84a1c83e9c077dU, 0xbf1fed9ebf122f08U, 0xbeb6bbafbefac61cU, 0x3cfbd865be569678U,
  0x3eef3dd63f20c53cU, 0x3e6cc8003f2da982U, 0x3d0ff56d3ecdd4bbU, 0xbf18846bbc81dd34U,
  0xbf53d420bf3725f4U, 0xbe374a75becf18a7U, 0x3f38ae173ee62bf6U, 0x3f2329a53f51157cU,
  0xbd7fc7ef3efd43deU, 0xbf76cc5cbf53b22aU, 0xbe9e42c7bf35c2ccU, 0x3f010562bde031fcU,
  0x3f40530c3f2a7efcU, 0xbd5a343e3eb7f4aeU, 0xbf00f354bf0894c4U, 0xbed76a81bf37e26eU,
  0x3e7c8462bd885d09U, 0x3ddb7e233e71de7dU, 0x3ecc32653edf5168U, 0x3e413f4c3f1be2ffU,
  0xbf34e2b2be3a9a52U, 0xbf2217fbbf1c041aU, 0x3e378fe9bc84855fU, 0x3ebd14193ef720dbU,
  0x3ed4ca463e562b48U, 0x3edd04623f1a75e1U, 0xbdae8da53e3b8457U, 0x3da70f2dbd7965aaU,
  0x3f26f6d73ebd27b9U, 0x3eb1f0733f15d386U, 0xbe4ba551bc4106f0U, 0x3dc49413be04375bU,
  0x3ecf026c3e25a654U, 0x3dec72133e9ad4deU, 0xbee2ac23be3f18d6U, 0xbeb3f9b1beef1501U,
  0x3dfc7354be2dc9c1U, 0xbd8a613d3e65108dU, 0xbf32c5b4befeb2f0U, 0xbf1cbc48bf540234U,
  0xbd909b71be887912U, 0xbe4de70ebdbf5079U, 0xbf1f6206bea6c668U, 0xbf4c9ea8bf382779U,
  0x3e1bae38be6ed6d3U, 0x3db831193e58556bU, 0xbf0d9f6f3cc845d3U, 0xbd33a5c6be7525bcU,
  0x3eb487b8be614c27U, 0x3e99b01c3f0b3d1aU, 0x3d7ceb413e8902fbU, 0x3cfbd7e63e139dfaU,
  0x3ec9ca3d3cb3d71cU, 0x3ee8fbc13ed586f6U, 0x3e96a9793ed01bcdU, 0x3df0a0123e181a62U,
  0x3e3851d03de477acU, 0x3ebf65253e31b89aU, 0x3ea61cd93ec602eaU, 0xbb64cf843e8af6b7U,
  0x3e2e3c73be0157baU, 0x3e92cd973eb6063dU, 0xbcb83ac33e7f928cU, 0x3de748433e3fdb51U,
  0xbdc9984e3e8b1022U, 0xbdade14bbe09ffccU, 0xbe8046e3bdb73b08U, 0xbeb627ddbe398072U,
  0x3d5b22d9bca30acdU, 0x3e3afb133ddb1ab3U, 0x3ed59be73ea05bdfU, 0x3e8893e53edb8f3cU,
  0x3a5a2e3b3ce7071dU, 0xbed844a9be87cb6dU, 0xbeb7a9aabee70e2bU, 0xbe86de24bd607a80U,
  0xbce448d7bb9c9464U, 0x3e6ba6293dcbf53eU, 0x3f035f213e6314d1U, 0x3eb2c2723ec04eeaU,
  0x3e9aa9c73ed14c2fU, 0x3b0302febc0eac89U, 0xbed7da79be8d13d9U, 0xbf24ea86bf367828U,
  0xbeb68defbeef2f2dU, 0x3e77142ebe365478U, 0x3f24c7423ee39fe2U, 0x3f5edb063f498d06U,
  0x3eb05abd3f1f4005U, 0xbe6abedfbd944340U, 0xbf30bbbcbef31f9fU, 0xbf3bf077bf470410U,
  0xbe8d7c2dbedd2827U, 0x3e441270bb1ce4fbU, 0x3f1221b73f020e3bU, 0x3eff66053ecedf33U,
  0x3e859f513ee1d2bfU, 0xbd843564bc3ca451U, 0xbeef384dbe4140deU, 0xbee0c912bf1e6ce3U,
  0xbda14debbe9b7c62U, 0x3e74dc443e0fb91eU, 0x3e8b26bb3e7f9098U, 0x3ea4107b3e0f2163U,
  0x3ed6b0003e8d6f1aU, 0x3dfc27913eacf9d7U, 0x3c159cd0bcb3dcc7U, 0xbe78e5a73dad18b7U,
  0xbea3509e3d3be2acU, 0xbf099954bf082e54U, 0xbe91179abf0fd471U, 0xbe7fb070be8798f2U,
  0x3cdd97ed3cd3efb5U, 0x3e9a3d053de3481fU, 0x3f0abaef3f171093U, 0x3f0fe9aa3f1ee479U,
  0x3eb9324e3efda0d9U, 0x3da5e62d3e73a629U, 0xbebfc19ebe2289d2U, 0xbeacc3eabeb1b8b8U,
  0xbf19a611bf1073bdU, 0xbebfac7fbf182df0U, 0xbe907787be121e12U, 0x3e9ee29bbc7019e9U,
  0x3ee644723eb900e1U, 0x3e531d613ea14aebU, 0x3e9300ef3ed6f313U, 0x3dc4242c3e797f81U,
  0xbe43a379be18bd54U, 0xbe473c3dbdd044deU, 0xbe0ad46fbb0a7992U, 0x3e4569483d196bb0U,
  0x3d8c4ff03da6744cU, 0x3d510c80bd7eaaacU, 0xbe91e9863d33c131U, 0x3dd3c378bc81d2e0U,
  0xbe2928eebc83a92eU, 0xbe69dd90be213281U, 0x3c913609bdb19292U, 0x3d90e6463d85ce0fU,
  0x3dcc8e313e2d1865U, 0x3c1f14f63c8180f9U, 0x3d99dc1b3dd299ecU, 0xbdbe2c833c50f98fU,
  0x3e2ee36d3ea1467dU, 0xbeeb246a3d3cf5c3U, 0xbd773f3bbe806b00U, 0x3e9aaffb3e7ef569U,
  0xbdf9c6163e03a5d6U, 0xbdc264f2be5c5b4eU, 0x3f34ff763db70b72U, 0x3e92a7a23edc3c72U,
  0xbeeb7622beefa5b9U, 0xbe8c017fbf3693ebU, 0x3f3d87c73de08506U, 0x3f7e24293f7e1838U,
  0xbf0aa7cd3dc34867U, 0xbf48102bbf8b2742U, 0x3f0fa4c3be3b0993U, 0x3f63d4293f3e55beU,
  0xbdb8d33e3ee82aecU, 0xbf717d84bf2362d6U, 0xbe8f0565bf19fe62U, 0x3f23971c3ec310ddU,
  0x3f13f7ee3f3d849bU, 0xbe4480a73e4dea3cU, 0xbf55307abeb8baaaU, 0xbe9071cabf02f7f9U,
  0x3f6017cd3ed76360U, 0x3e7fdf2c3f306c93U, 0xbe40c7d7bd5487fbU, 0xbe386c73bebac232U,
  0x3d52e628be5c4fbdU, 0x3d1e93363df8c4e9U, 0x3eb507523de6d572U, 0x3e4d7fde3ecce194U,
  0xbe714f00be3645a5U, 0xbea83599bed8975aU, 0x3ecbe6d2be41ea44U, 0x3f042e783f266870U,
  0xbe8c4931bd298430U, 0xbe800e43bf17ac9bU, 0x3d8a148bbeed823cU, 0x3f2c47c13e9baf19U,
  0xbc638aedbd275b9bU, 0xbdb73f01bdbeb629U, 0xbdb7f0053de1020cU, 0x3d6395de3e0bfd2fU,
  0xbbacf67ebe24facbU, 0x3e385fe53dfa1183U, 0xbe6a20fa3d339d80U, 0xbe555f65be111b78U,
  0xbd925a0abe93c878U, 0xbe9603b8be97cc88U, 0xbe9dcd62be86851aU, 0xbe903f03be68fe13U,
  0xbdff62193ce90863U, 0x3eb6e15d3e7ae3ecU, 0x3e9530983eb8d821U, 0x3e9769183ebd2e6fU,
  0x3ee8e87b3eef5181U, 0x3e8a72273eb3f028U, 0x3e957e063ea9dbb9U, 0xbd2236ed3e698163U,
  0xbe721d75bd9f91feU, 0xbe99158dbe969ee1U, 0xbe7a303dbe8a7165U, 0xbf28431ebef89808U,
  0xbf0c0e77bf0ae7edU, 0xbea92263befd8a2bU, 0x3cabc3c2be22e8d1U, 0xbdba2ff63d8a6e60U,
  0x3d095767bd09e86dU, 0x3f01bfae3ec1853dU, 0x3f1909e43f14ab15U, 0x3e78e0773f129e17U,
  0x3e6ec4e43e97d7c0U, 0x3e2e609b3e0febaaU, 0x3cf3f1693d76bd43U, 0xbf063368be1e3164U,
  0xbe84d10fbe150034U, 0xbe2e3aeabe576334U, 0xbe8b3293be64582dU, 0xbe0b7666be69ad35U,
  0xbf02301cbeae0bffU, 0xbe9369cbbefef240U, 0xbe905da8bdfe56ccU, 0xbedb1787bedb1874U,
  0x3d48e8a4bedb19bfU, 0x3ef3e95e3c1712d2U, 0x3efb9d1d3f225c20U, 0x3f0a0ec13f020ab3U,
  0x3f18a2e63f5627d4U, 0xbf51db9bbde01ce3U, 0xbedabc44bef3ec26U, 0xbef0c328bf238cc6U,
  0xbe9195b7bf1d868fU, 0x3f0736dd3eafcfbaU, 0x3f5ff6503eec8b5dU, 0xbe8418dc3efe4092U,
  0xbea7dd67bf097656U, 0xbeac7725bf082a59U, 0x3f33dd293e2e46b0U, 0x3f3d42df3f5871d1U,
  0x3b23201a3ee2b236U, 0xbf3f26b8bec8250eU, 0x3e4a627bbf06f823U, 0x3ea8534e3f267fa1U,
  0xbf13142fbdc8e31eU, 0xbec1acbabf310165U, 0x3ea13a6f3dca0cfcU, 0x3f41b86c3ecc4426U,
  0xba8173173ee69495U, 0xbf8dfb34bf77e45aU, 0xbe850408bf02b5d2U, 0x3d176c24bdc8905bU,
  0x3f030b003f36f86bU, 0x3f1a81a33ee21fc7U, 0xbf9b6840be94ac25U, 0x3e1725d1bf8bbfbdU,
  0x3f7dba7d3f470e3cU, 0xbdc4300f3f656e2fU, 0xbf55ba90be41ff22U, 0xbe9fb427bf9420b0U,
  0x3eac89133da14811U, 0x3d7fb7e53e7b698cU, 0xbdb154d83dc2f3a0U, 0xbe556772be15b4baU,
  0xbe7ac36cbe7a933aU, 0xbe7e978dbe9e6ab5U, 0x3d544202bd8f9288U, 0x3ed2165d3e98a2b9U,
  0x3ef845293edcd073U, 0xb890f5433eb40793U, 0xbf0ebe7dbe58f02aU, 0xbf031b80bf28096aU,
  0xbe56532abed47711U, 0x3e8be0533e2071acU, 0x3f1f48273eedaff1U, 0x3ed6c5163f039935U,
  0x3e52554e3e8a22fbU, 0xbe1c1cafbe58acfaU, 0xbf2fa192bf223ea4U, 0xbe95ae10bf44880aU,
  0x3e162a1bbe011c54U, 0x3f2bfc613ec1d1beU, 0x3f0bdb123f37f4b2U, 0x3e45bdff3eb28c1aU,
  0xbeab0391bc0e68efU, 0xbf287d03bf22f24bU, 0xbede72babf1e8f3dU, 0x3d105d33bea75ac3U,
  0x3f2378053eaa1327U, 0x3ec73e0c3f49eff8U, 0x3dedf62e3ee6f0c4U, 0xbee52f54bdef95bbU,
  0xbf0ef087bef670adU, 0xbed8ed60bee34a3fU, 0x3ceccd45beb64f25U, 0x3eeb29bf3eb5fc66U,
  0x3ed6de1b3f0b4860U, 0x3e19b0323e932732U, 0xbe40c58cbd862b13U, 0xbf00eecdbed0273aU,
  0xbe801f5cbdf5aa4eU, 0xbe567404be840464U, 0x3c3125913dc10d17U, 0x3e82337b3e070608U,
  0x3e8d96413ed2bf54U, 0xbe1c4a8d3dc4df42U, 0xbf109e8dbe9b62ebU, 0xbf099c08bf48612aU,
  0x3edf4f603db5832eU, 0x3f2eeb3b3f501d23U, 0x3e7ca7383f28325bU, 0xbec723cf3d41d138U,
  0xbf4aed98bf300381U, 0xbf087a54bf18a52aU, 0x3e5bfec7bdc50566U, 0x3f56a0813f122107U,
  0x3ef86fff3f5ffbb8U, 0xbeccb6803c14509bU, 0xbf68a28abf1c7288U, 0xbea53e68bf459991U,
  0x3ed712adbd089406U, 0x3f45d1043f6a3d4aU, 0x3eb35f9b3f0cbb13U, 0xbe90f016bde1cdedU,
  0xbf5d260bbf336f8aU, 0xbea375e6bf7ac2beU, 0x3f0a6e6a3e0e20f5U, 0x3f3185283f00be9bU,
  0x3eacb3e23f018deeU, 0xbe3311f83e775480U, 0xbf14c3e3bf07907bU, 0xbef6b304bf135b95U,
  0x3ea74ead3dbd565fU, 0x3e61a6de3eb9a35fU, 0x3e6ab4973eb9993aU, 0xbd96d0e93d90f9cbU,
  0xbec268dcbe1d24bdU, 0xbe349442bebe22c1U, 0x3d2e9813be29079eU, 0x3ef20c6b3e5d38faU,
  0x3cebfca8be912f6bU, 0xbe02aec7bc4759d1U, 0xbe1f108bbe1a6441U, 0xbe410ae4be46650dU,
  0xbe85ac28be852b8aU, 0xbe1cd4f6bd105149U, 0xbcf3c7153dbaf3e5U, 0x3e1f4eadbeb5de14U,
  0xbec33bb5bdda2acaU, 0xbe4a31f0bd8e675fU, 0xbe923a1bbe499765U, 0xbe9d4600be95184eU,
  0x3e13aacfbe407eefU, 0x3e8de3bf3e9bcb3dU, 0x3c375ee23e26088aU, 0xbeda2114bdcbdf4fU,
  0xbe7b3a25beb8ab6fU, 0x3db367aabe01e19fU, 0xbd9f1dc33e2b28c1U, 0xbe7cfe3cbe2e358aU,
  0xbeb74a78beb99891U, 0x3e5c6da2bdacfdebU, 0x3e39b8563e85aa04U, 0xbed32565bd862958U,
  0xbe9fed0cbf31d9caU, 0x3d076decbdc7c744U, 0xbd5855103d8ebb6eU, 0xbec77fafbe8f948fU,
  0xbe5ed013be9ddcb8U, 0x3e92f67f3d840b06U, 0x3e8a96b13ec5960dU, 0xbe7c89113dff1801U,
  0xbebc6126bea0deb0U, 0xbeac0163beda23f9U, 0xbeefd1c3be0430a0U, 0x3dde4d97be3a97efU,
  0xbe0a07a73e313163U, 0xbc7cdcf3be067a1aU, 0xbe1adc43be074b1eU, 0x3c56b2003d95d5faU,
  0x3d6f68633e410d69U, 0x3cc4264abdcfbf11U, 0xbe11d619be0c62d6U, 0xbecdbe0dbd99019bU,
  0xbeabc7b4be3526b1U, 0xbd761884be9c4f30U, 0x3e8ab2f23d98273cU, 0x3f01d9a33eb266d4U,
  0x3ed336753eb2b310U, 0xbd8387f73e9f6328U, 0xbe27c12d3db08eeaU, 0xbed07d40bed6e2cbU,
  0xbed7fb01becc8386U, 0xbeae8daabef69a91U, 0x3cf1ef2abcf00d03U, 0x3f0302e03e05b96eU,
  0x3f0119f03f17bffdU, 0x3ef9eb363f08b9a4U, 0x3dd1b1ae3ede25b4U, 0xbe97ed703c857d44U,
  0xbf0665f6bec6c10aU, 0xbf1da402bf36e545U, 0xbf0dd198bf129fe9U, 0x3d0c9b7abe6894e4U,
  0x3ef8f0303e637e11U, 0x3f33278a3f60ed92U, 0x3f1cfcde3f3a603bU, 0xbbf0106d3ed628a7U,
  0xbefc1842be4cb350U, 0xbf18f745bf08afbbU, 0xbf15b9a4bf2ad6aaU, 0x3cb2b415bed3e4c4U,
  0x3e9a035c3b75a8eaU, 0x3ed8a75d3efa57baU, 0x3f032e343f0f6000U, 0x3e5136883e9adc4bU,
  0xbd896016bd98d613U, 0xbe96f671be081d65U, 0xbec585d9bedce76aU, 0x3c6658f3bdf39283U,
  0xbeb1bb2ebe7c410fU, 0x3d9cfc5a3e125504U, 0x3e89b68b3d17b0d2U, 0x3ec8e9b83e97c9e9U,
  0x3d9edf483f0dfdcbU, 0x3ce9d4fa3e100633U, 0xbe032c82bce7f634U, 0xbeb4e5dcbebe6eb7U,
  0xbf3c21edbf016821U, 0xbf15a889bf14f938U, 0xbe8d22c6beac9869U, 0x3eb8a19c3986d7eeU,
  0x3f09a8c63ebf57f8U, 0x3ef3a4723f2100d6U, 0x3f1492d73f2a5522U, 0x3f2912d03f0146b5U,
  0xbe92028b3dcd9cd9U, 0xbf4d290dbe999a1dU, 0xbf0c2f20bf2a1762U, 0xbf08d759bf1da10eU,
  0xbeb7e76cbef32f11U, 0xbe0040e8be587f69U, 0x3e4d3dad3e653053U, 0x3f04656c3e54de84U,
  0x3ef195973ec9bbc6U, 0x3ee303783f45f6f9U, 0x3e019040bcf1b93cU, 0xbdcf8e453eac8884U,
  0x3d9255b1be433bceU, 0xbea3433ebe00f7e7U, 0xbea64c12bea94ed6U, 0xbdcf29ccbe75e369U,
  0xbd207190bde7bbcbU, 0xbe03ba65bdbed514U, 0x3dbc40f83dc948faU, 0x3e7e3251bc2ec7eaU,
  0x3e0d9cf63f09d5eaU, 0x3dba9d1c3c56e7beU, 0xbe29a3a1bd54dcecU, 0xbdc2d2ee3d022c1aU,
  0x3edf9a6b3e5065d4U, 0x3c84491f3eb2e21fU, 0x3e28da103e0069cdU, 0x3e0f067e3df8ebe0U,
  0x3e3d926c3e057263U, 0xbdf3af373e35619dU, 0xbe084d47be0c5f44U, 0xbe14984dbcf2ef18U,
  0xbde962f9bd9e3f0dU, 0xbedb1ac8be539e3aU, 0xbea18390be804304U, 0xbeef63b5beb4bf02U,
  0xbed2cad0bed0ebafU, 0xbecc9c57bebbfac6U, 0xbecb4206be8b7a6dU, 0xbe8dfe7fbed4db82U,
  0xbdb9d578be681201U, 0x3e9b98033d84ad43U, 0x3deb95423e7119bcU, 0x3e855c6d3e4b4debU,
  0x3ecacc823edb6f4aU, 0x3e8dc9343e8d5fb3U, 0x3ef4bbc93edae1bdU, 0x3f0627413ecd9114U,
  0x3e5a510e3ee723abU, 0x3e66a7843e9add42U, 0x3e933d113e5e6b10U, 0xbd019feb3e14e12cU,
  0xbddb9340bca9aac4U, 0xbdba0794bd2ef18eU, 0xbe99189bbe51c534U, 0xbe663256be23af88U,
  0xbed18edebe8bc671U, 0xbd3fe3edbde8298aU, 0xbdd81b0cbe5d346fU, 0xbeb23e2cbdb0776bU,
  0xbe014eaabdc73d41U, 0xbe340fd2bbc607f2U, 0xbe04e64dbdf74468U, 0xbbbdf7f8bdf0ae89U,
  0x3e8c1f4c3f2011ebU, 0x3f0ccb9c3f024833U, 0x3e5a28853dfe7baeU, 0x3dd9fd3c3e98f5f3U,
  0x3d6502373edcbd74U, 0xbdfcce40be52578aU, 0xbe8dbc733d736eb5U, 0xbeaaa5e9bea015c6U,
  0xbde21620bebfbf92U, 0xbf34c27cbf0465e4U, 0xbed95555be87b9b3U, 0xbef8bee2beb1f2eaU,
  0xbe5d8640be5afd90U, 0x3da1cbb5be5b30fbU, 0x3d945bbe3d9faa8bU, 0x3edc59543e7bcd12U,
  0x3e35adbd3f0ed5deU, 0x3f2307bb3e959871U, 0x3ed6ddc93f00d602U, 0x3ec587563f1b962cU,
  0x3f21ec083ee414e7U, 0x3e9b9b083ebe33afU, 0xbc2abaae3eae4129U, 0xbe6029233d28b00cU,
  0xbe856f10bea7f11fU, 0xbeb6f900bdb57046U, 0xbeef7a9ebf1de50eU, 0xbf3f60a9be94ea84U,
  0xbefe80eebef38facU, 0xbea1482dbe9bc613U, 0x3e21863fbd7590c3U, 0x39efa41fbdb9c1a7U,
  0xbef2fbd2be836543U, 0xbda8f3e3bda52388U, 0x3ee1ab973e01ab19U, 0x3e89eedb3dee34a3U,
  0x3e19e8ce3ec84a1bU, 0x3eaefa913e5d6296U, 0x3eb010963ea4e095U, 0x3ea92cea3dece6aaU,
  0xbf3380f4bf5eea78U, 0xbecabf63be8805a7U, 0xbe83db19be8db4d2U, 0xbc55b39ebe4f2e7fU,
  0x3e805a813e49abc3U, 0x3f22756c3f334b04U, 0x3ecba0693eb6fbb9U, 0x3f3607c23f3e6836U,
  0x3e8314a73ed6cde5U, 0xbe2b1f1a3df92332U, 0xbecac225be4bc6caU, 0xbe8a657ebe1a9c30U,
  0xbedbad2dbead1142U, 0xbee7aae4becdf928U, 0xbed3cef2bf13891aU, 0xbe3c3651be611241U,
  0xbca3a8d4be18bfa7U, 0xbe794b68be05b511U, 0x3ecbca353d885b5aU, 0x3ed1e6ad3eccda35U,
  0x3edd226c3eb34608U, 0x3ed9bb393ecb709dU, 0x3edaca963f0cdc1fU, 0x3ce173fd3d2f21a0U,
  0xbcee91153e010d37U, 0xbe70e546bd8f25cbU, 0xbed920efbee6a580U, 0xbeea30c1befc1988U,
  0xbd6603bbbd80cda8U, 0xbeabed3ebda62804U, 0xbe2a0c0dbd96d599U, 0x3e3de231be28452dU,
  0x3e41c2993e23cd06U, 0x3e219886bd0e01efU, 0x3bb55bfa3eef0e2aU, 0xbe66ca7abe3fb944U,
  0x3ea016903d97750bU, 0x3e8da1f53e8641beU, 0xbdc14e383e820dd0U, 0x3e943cec3d591a67U,
  0x3df28289bd8932c6U, 0x3e0f34943e187da9U, 0xbe046bb53de0ce6cU, 0xbd1b857b3d1b7689U,
  0x3e33a67ebcc129b0U, 0x3e30254a3e84d21bU, 0xbd1dfff23d11d72fU, 0x3e3690c23e0ee11bU,
  0x3da1757ebd77ba1aU, 0xbe8962dbbdfca1b9U, 0xbe44fedabe16c2b0U, 0xbeedf632bea09ba7U,
  0xbe48df92bebc43d7U, 0x3c87d41cbcb3e0b8U, 0xbdaee3e13b715acfU, 0x3e9a0f1e3dde84afU,
  0x3f1673483ecd1a72U, 0x3ed7dd203f04749cU, 0x3ee158773efb358bU, 0x3ec87d9d3eb666e7U,
  0x3e41ee473e6e7eb5U, 0x3e4c56c63e96d424U, 0x3b0087713de44327U, 0xbe60d2efbe3990abU,
  0xbd68773fbe41e62aU, 0xbc5f0efdbd3c9338U, 0x3d308845bdbe7b91U, 0xbcf19a41bd1faca9U,
  0x3e70fbb93e91fcfaU, 0x3e0ba2573d9491e2U, 0x3cad4c5c3e7cb13eU, 0x3e23935dbb888cc5U,
  0xbdd7fa6e3c1c452bU, 0x3d77657b3ce06f7bU, 0xbc630f423d982667U, 0xbe4ba4aabe3379e4U,
  0xbe60828dbeb19daaU, 0xbe83733fbe29d05dU, 0xbec062dbbe988d7bU, 0xbec1ad31bec2964eU,
  0xbe0ee63dbd103270U, 0xbe9f11cebe92c61dU, 0xbe2f9913be1ed014U, 0x3dbb8d463db6cf7fU,
  0x3cd1e711bdba0d1aU, 0xbd9161ccbdd07f34U, 0xbd9b8f3a3d3dca4dU, 0x3dbc9efc3d3a2ed4U,
  0xbe39703bbddb7807U, 0xbe430b22be01387bU, 0xbdd183cbbe6a3389U, 0x3d75a9ff3daa910aU,
  0x3de038a33da38de8U, 0xbbb5a40d3d8a5655U, 0x3e39744f3db1e6d9U, 0x3e28e0d13e3e54e8U,
  0x3e23a1893df59743U, 0xbe653b9a3db5e4b0U, 0xbd80f0b9be0dcaecU, 0x3d8f2accbcbcf424U,
  0x3d9e62813e6725dcU, 0xbd856317bd774bf7U, 0x3d4934bfbd11967eU, 0xbd8b8a4b3d9fa152U,
  0xbdd936f0be0e4939U, 0xbe656ca2be81049dU, 0x3d89ab9f3d0e81c4U, 0x3dae832f3c6cf26dU,
  0xbcf33fb23e2dcb45U, 0x3ce21dce3b8a9539U, 0xbdc4ccfabdfb93d9U, 0x3d02f9193cd1a864U,
  0xbbaf4ff3baa7301dU, 0x3d792f8e3d07ab20U, 0xbd1ca44abc77fd8bU, 0xbe6e390a3d8c5eb8U,
  0xbc726bb7be5e31c2U, 0xbe4fb967bdd0694cU, 0xbe0674ebbe05fecdU, 0xbafd5d30bdd766e1U,
  0xbe0cbfd1be9fddfeU, 0xbdae7c70be8e83c5U, 0xbe3676f0bcc6b8baU, 0x3eb1dc403dd28fccU,
  0x3eefa99a3e874ca3U, 0x3f393f8f3f1ed911U, 0x3ce25e843ea97d24U, 0xbefb784c3d869a5cU,
  0xbf3e7c1fbf20567fU, 0xbf02f6a1bf2518baU, 0xbdb35e33be8e104cU, 0x3f151d0e3eaa0f78U,
  0x3f06ec253f3086c5U, 0x3ea23bed3f3807b0U, 0xbd3cce553e9c1ceeU, 0xbec837bbbec0d96cU,
  0xbf479910bedea961U, 0xbf03e722bf56832fU, 0xbc96a021bea234c9U, 0x3eb6198c3e0b6aa4U,
  0x3f569c3e3f0d93beU, 0x3f1b77b63f56a7d7U, 0x3e30c0b23e06d18aU, 0xbebf83c3bdf46bd8U,
  0xbf65145fbefef2d5U, 0xbf2e935fbf2e3c00U, 0xbd022af1bf0a4aeaU, 0x3f04c89cbe563c3aU,
  0x3f18acab3f1ac44fU, 0x3ed17dd83f38e9acU, 0x3ebbf6853eae8babU, 0xbe671d6bbe07d5f7U,
  0xbf468179be91f442U, 0xbeb405a1bec1842dU, 0x3e00e6fbbea9eec6U, 0x3daab0fa3e96edd9U,
  0x3eaf96c73eb44236U, 0x3dc49f523ec15ccfU, 0x3e47143d3d8ce6eeU, 0xbf1555df3c61b443U,
  0xbeedc0ebbf447d9fU, 0x3dac9fa0be26662dU, 0x3e8de2613ea68f57U, 0x3f233cf53ed6a590U,
  0x3ea4cfc33ef1ebbcU, 0xbe3809c73e399fe2U, 0xbf284ef9bea46e19U, 0xbf4cbf49bf43cbd2U,
  0xbed26c0bbef408daU, 0x3ee350073d121b24U, 0x3f1a48413f46b735U, 0x3f4f6e0b3f2705c7U,
  0x3cdebdf13eca5b15U, 0xbf17cc673bba4f60U, 0xbf48f075bf321bd6U, 0xbefec5bdbf3886e4U,
  0xbe186383beb57cc5U, 0x3ed6e3d83ea4b6adU, 0x3f4274283f18fd9bU, 0x3f07ca913efb62d6U,
  0x3de9c7083e25bd58U, 0xbf04e87ebe49aa9cU, 0xbf26eb36becc6657U, 0xbef3ae13beee5288U,
  0x39be7f1fbeb3a369U, 0x3eec2f763e8e104fU, 0x3f01785d3ee371d7U, 0x3ee00e7a3ef8e233U,
  0x3dbf2257bcd00610U, 0xbe8b670ebe3b974bU, 0xbed378c9be8fded3U, 0xbe9bb603bee193adU,
  0xbc0a5139be5c4decU, 0x3e4249a53dcd4577U, 0x3ed4da293ed2aa61U, 0x3de020613e1a9370U,
  0x3e1d1e793deec116U, 0xbdbb9471bc125beeU, 0xbe967f74be64382eU, 0xbef64408be0b82beU,
  0x3ebead173f0e2052U, 0xbdbb64f3bde0899aU, 0xbeff6e7a3f01990cU, 0x3eaed1a1bea1df29U,
  0xbf13554abe837a5dU, 0x3ef0dd703e79d0b7U, 0xbe20003cbe90a976U, 0xbddfc5f13e7d795aU,
  0xbdde0f61be04ff59U, 0x3e6e0e3d3dbd52faU, 0xbc82a675be31810cU, 0xbe11dcccbe1c0adaU,
  0x3e8a4ff6be545deeU, 0xbf12fd463ef06f33U, 0x3ea946bd3de81a03U, 0x3e1d2f31be7e5dcbU,
  0xbd08bec73ef4636fU, 0x3d8b8a8b3e9f30ccU, 0x3c4aabedbf30ed98U, 0xbe69d37bbe35324cU,
  0xbd92cad43ce30554U, 0xbe8b51e8be286d4fU, 0xbd6679a23ea5af07U, 0x3f0b0a943ebf8af2U,
  0x3f2fa4923e8c6e79U, 0x3db371d2bd862ecaU, 0xbeaa15d13edc06e5U, 0xbf094bf1beab0cf7U,
  0xbf408ee5beb0de9eU, 0x3f06399cbe49e701U, 0x3d40c25ebea791b1U, 0x3e68bfe03f02c847U,
  0x3f1bd6fe3e8ef891U, 0x3ec27a703f2e4292U, 0xbd9f3201bcf5167fU, 0xbf7ea757be06b04dU,
  0xbead902dbf603a68U, 0xbea271d3bf002f40U, 0x3e44c7dd3e86ccfeU, 0x3f2c3a163eeb2961U,
  0x3e24cb303e4045ebU, 0x3e3f9b853cfe0550U, 0xbe9c72febe3e70c5U, 0xbe95cfcfbdf18c1cU,
  0xbec221e0be28b1ddU, 0xbdb58907bee8c135U, 0xbdb92299be3218afU, 0x3e8113973e999690U,
  0x3f09057c3ec2ae62U, 0x3edd4c5a3ece3fe3U, 0x3e98d67e3ea3bbe0U, 0xbda4ffe83eaa5346U,
  0xbef23d75be9c1012U, 0xbf16b5acbf05bcabU, 0xbf00cea1bf27f176U, 0xbe93a939bed6986dU,
  0x3c342bb03c508a4fU, 0x3ef3077a3e7fe48dU, 0x3ec02d7b3eab2200U, 0x3eb3aee93ec283f6U,
  0x3e7e54683ea6b764U, 0x3e4594b53e0e511bU, 0xbc2aa4063cec7953U, 0xbdddd9a3bd875d79U,
  0xbe7cc3d3bbe7903fU, 0xbe918a5fbec7baa9U, 0xbe7a2d94be8c550aU, 0xbde038a6be1dc936U,
  0xbd898df53acd1a77U, 0x3e2f2c0e3c87fb3bU, 0x3d720f473ddda681U, 0xbd0ac4433d1b71a4U,
  0x3e18026a3da11938U, 0xbcc301cf3dff91daU, 0x3e7acf7e3e3480ebU, 0x3d67b0e13d34c221U,
  0xbdbe1ef13dd0e4b5U, 0xbd8fe52dbcb0a970U, 0xbe174967be1f7f89U, 0xbe8d5556be138291U,
  0x3edd9e583edca7eaU, 0x3c928c853e98859dU, 0x3e729171bd496d02U, 0x3c6372a33ea56661U,
  0xbeab71c2bd931342U, 0xbe7cc99bbed9fd17U, 0xbe25a5d1be616d0bU, 0x3dff3cb03d39e8efU,
  0xbd3601103dbdbe7aU, 0xbe9030fabeeb6e12U, 0x3e870ea33dbc51feU, 0x3eb077993f04521fU,
  0xbe2770853d8d3fa0U, 0xbecb151dbeb82d8dU, 0x3f189b653cb8820fU, 0x3ef8319e3f1ca077U,
  0xbd8b174c3ead5487U, 0xbeb552f7bebd1401U, 0x3ecfd5e13de52432U, 0x3e3e0b953ed8015dU,
  0xbf472d313dac17eaU, 0xbf1a436bbf7a9822U, 0x3cd7108abe8fe252U, 0x3eacc5bd3eafb2dfU,
  0xbf4236cfbc85caf0U, 0xbf203be4bf4d1439U, 0x3ed45b4cbe9fb7acU, 0x3c706a543f308393U,
  0xbed8b2563c985a40U, 0xbef4cebabf1e0bafU, 0x3da3bd3bbe016ea1U, 0x3f29e31c3ef2430eU,
  0xbc0666b53e26d838U, 0xbea6800cbe58b7b3U, 0x3e3d1aa13d1440b3U, 0x3f3fc9d43f2450a2U,
  0x3e981a3f3f1601d3U, 0xbdb706473da0e37cU, 0x3e4524ecbe7ec5f2U, 0xbe04afec3e21cb30U,
  0xbf6083dfbf72d44dU, 0x3f28083e40697349U, 0xbef68e46c099e3a0U, 0xbf6bba3b4096bc05U,
  0x401e1aadc021ee2fU, 0xbfdf728fbf4147b5U, 0x3f611eda400a0742U, 0x40234737c099c54aU,
  0xc01d8b5f408145cfU, 0x3fc57eacc09e3399U, 0xbfe0e20a40f0cd78U, 0x3ff13a14c10d4397U,
  0xc078345a410c7c31U, 0xbdda8ac8c03957e3U, 0x3fac54593fe3a22dU, 0xc08408a7bd5e9727U,
  0x4000f9ff4039140cU, 0x3f1e7bf7c0845a89U, 0x3fcf890f40318541U, 0xbfa2d9b8c0b02115U,
  0x408df601405837a8U, 0xc0a8656abfced163U, 0x4051729dbf60513fU, 0xbefa80034046cd35U,
  0xc04f1318c04c0a77U, 0x40626979403efb39U, 0xc0a511153f5a787bU, 0x40a84d62bfac6384U,
  0xc0360c55bef98b3bU, 0x40a0b9d5bfd1d1c0U, 0xc07a7ebc3f8434fdU, 0x40091b1dbfd22ed8U,
  0x404e0d7abf715b69U, 0xc0a34bcb4024caffU, 0x40a7d01ec0c954cbU, 0xbfd211f241026e72U,
  0xbfa81d1bc1110a1eU, 0x4073f62940e464f8U, 0xbffdc161c0c40170U, 0xbf5b9a86406c1318U,
  0x3f003eadbd6db486U, 0x3e78acb23f23439eU, 0xbfb0eeb0bf7e6bb3U, 0x3f575be1becaaf10U,
  0x3f8141ed3fc0de11U, 0xbfa6a5cfbdd33293U, 0xbf8aa5e5bfc33804U, 0x3ffae2c53f6709efU,
  0x3d8019e93fe705b4U, 0xbfd41efbbf9fd859U, 0xbebc31b4bf71d53eU, 0x3f8ffecb3f16008bU,
  0x3f7c05583fda370aU, 0xbfd2da94bd8cc0f4U, 0xbfa19e53bfcf5600U, 0x3f9583483d7ed08fU,
  0x3f9dab5f400566dcU, 0xbfaf85193dbaead2U, 0xbfc5e8cbbfba64b3U, 0x3f338c10be210dd2U,
  0x3fe31c393fe7a8ffU, 0xbf6405df3eec5caaU, 0xbfa29acbbfd4dea5U, 0x3f273d1bbe9dfd54U,
  0x3f6e57de3eeb0226U, 0x3f05359f3ee2996eU, 0xbed00674bd215948U, 0xbf7aa43fbfad06d7U,
  0x3f4c6267bf461641U, 0x3fcf86b83fa3cf20U, 0xbf049ef63f2d96afU, 0xbfb7c3cabfc0e464U,
  0xbc556b21bf8f4147U, 0x401358333f837800U, 0xbdccc6f23f93894fU, 0xbfb085fdbfb5151eU,
  0xbe0986f1bf40ecacU, 0x3f80e9a63f371b80U, 0xbea40b1e3f87d02dU, 0xbf16f20cbf2ae891U,
  0x4000c78bbf76728bU, 0x3f3fca87bfb4210dU, 0xc09cbde23f80da7eU, 0xc0a0dc7e40dbc53dU,
  0xbf695d57400c5819U, 0xc0d647f5400382e4U, 0xc12fffc34131a150U, 0xc0bcb13b40fa4eacU,
  0xc054db6b40aecac3U, 0xc0869737401adb3eU, 0x40819b7b3ff9be6cU, 0xbf619ca2c0a9af1eU,
  0xc123bd8240f1f140U, 0xbf9b3fff41057d9cU, 0x40a0d983c0a1b0c0U, 0x3ea882f9c01f7c07U,
  0xc0671de6400c8e06U, 0x3f48f221402ffcd9U, 0x3fc2cad2c082b7f1U, 0x402483af3fae2c5eU,
  0x40cc355ac0ee8df0U, 0x40de3bfcc07e1c5eU, 0x407828cfc1118e76U, 0x4098d3273e370cf7U,
  0x41903a2fc166aad4U, 0xbed6f0bcc12502d0U, 0xbf9ec83740913426U, 0x40e885dcc09927e7U,
  0x3f4f3bdfc0981438U, 0xbd8cec393f4f67a9U, 0xc0267ad33f376986U, 0xc09f595d4066d069U,
  0xc11d0e8740fe7161U, 0x3f60ae9a40c67b70U, 0x3e4ed49bc07423c0U, 0xc10092bd40a86316U,
  0x40d846c0403ee333U, 0xbf9445aac0fa2d60U, 0x407dda45409d676cU, 0x40a34b5ac128e775U,
  0xbbac6c24bc01d5baU, 0x3e47037b3b806edaU, 0x3ec291c83e7a74b7U, 0xbdc767183e0f2df1U,
  0xbe604312be845d47U, 0xbee9bee7bebd9dd8U, 0xbe5c881ebefba04cU, 0x3e98b5dbbe10164cU,
  0x3f22a2313ef0c774U, 0x3ded60e53eca1cb8U, 0xbdb56f93be3d018eU, 0x3d4b41c53e3b2b2dU,
  0xbec9046fbe925dcaU, 0xbe471eedbea0cb75U, 0xbe6bd2c3be853d83U, 0x3e3e8f2dbe1b2460U,
  0x3f07e3ea3edb7e20U, 0x3e818c073ed7ee67U, 0xbbd641413e1b1767U, 0xbeb77651bdd70394U,
  0xbe8dfc73be97b835U, 0xbed6601ebee0cbc7U, 0x3d9e6344be163ad6U, 0x3ecc3f3f3ef8e4cdU,
  0x3ebab8773eeaebfcU, 0x3d5c76043e09ae4fU, 0xbe4f69423d9df3e1U, 0xbedd39a0bead42c6U,
  0xbed5a2a9bef59f68U, 0xbe36a314be4b1256U, 0x3e15ff323d8c1663U, 0x3f3179e33ef1932dU,
  0x3ee37eac3f14485dU, 0xbe35cea13df24149U, 0xbf1066dabeeeaf3dU, 0xbe96b5debf24e50bU,
  0x3e6c715fbdf4bd5cU, 0x3d9bad08b9f81375U, 0x3e9234da3e3a3cd7U, 0x3d4e0bd33e91cc8bU,
  0xbe0a67c5becabc29U, 0x3d86a562bd59ed4aU, 0x3e4273b13e2e4369U, 0x3e56d6c53edbbeecU,
  0x3e21ab243e046a5dU, 0xbea8e16abd971f84U, 0xbe4fa686bee7de7cU, 0xbec771c9be8c2637U,
  0xbe3103d7be4cb52dU, 0xbd90dbc1be22058cU, 0x3e39570f3d82056bU, 0x3eebedfe3eb375b8U,
  0x3ede543c3efcce28U, 0x3df2c3a23e67985cU, 0xbe40d151be31a9e9U, 0xbe52c437bd6a15ecU,
  0xbee3b0cabea394e7U, 0xbe85dfe2bea23356U, 0x3baab5acbda00a7cU, 0x3d58d200bd886d8aU,
  0x3e1fbc2c3e8d0b11U, 0x3d2cb4013d8e9a66U, 0x3daf59cc3d996ebbU, 0x3e7869a53d546c83U,
  0x3cd5ec683e87116bU, 0x3df1f1243e46f387U, 0x3d22fef2be0be5eeU, 0xbe1012d7bd221c14U,
  0xbdbaa599be2f3167U, 0xbda534ebbe465b5cU, 0x3d61127e3dcc2361U, 0xbd30b07f3be2dc98U,
  0xbd977901bbcbe5d1U, 0x3e36c66c3d8a2fd0U, 0x3dae86063e46a33aU, 0x3c90d6c53cb43621U,
  0xbc777e4e380faf5dU, 0x3e41ce7cba659035U, 0xbe0970ab3d8833a8U, 0xbeb464debe289545U,
  0xbf11860a3f803e93U, 0xbf9630a0bf942ce1U, 0x4006ad5f3f99da0dU, 0xbff4dcfd3fa60e0fU,
  0xbf41b183c029c209U, 0x4022f1933fe907c0U, 0xbfc5fb7d3f6648f7U, 0xbf266fa8c033fdf5U,
  0x4026101c3f89c74aU, 0xbf9c2a753f85c114U, 0xbf8b676ac01894c2U, 0x4004de733fb1a639U,
  0xbf8ab6683f53c187U, 0xbf926351c00dc89fU, 0x402bc9ec3fb889c4U, 0xbfeef4903f86a8bdU,
  0xbf83c2d4c055f4d6U, 0x4078f5ec401c1b10U, 0xc0547f303f93759aU, 0xbf33082bc08c2672U,
  0x4098341a406443b6U, 0xc064c3a0be5ba868U, 0xbe01ef6dc0532f0eU, 0x4015d58b4011feb3U,
  0xbe78db113eb72705U, 0xbfa45390bf6dfdbfU, 0xbef834b3c002e847U, 0x405d062840299971U,
  0xc0387b4c3f8b741fU, 0xbfcf688fc07ca60cU, 0x402ee51c4029fc4aU, 0xbf13595e3faf0540U,
  0xbfac1c91bf8f33f1U, 0xbf3033d7bfe01561U, 0x406b2a123fe8ac0cU, 0xc02ce9003fa3bb6dU,
  0xbf352393c07a7d4dU, 0x402c503040300250U, 0xbfdd5015be77e839U, 0x3f92c9d5bfa4daa9U,
  0x3e46cfd93e7c87cbU, 0x3d9a3b4f3e48f769U, 0x3d6d25323d55e97cU, 0x3d7484643c8c908cU,
  0xbd81e201bd79311bU, 0x3c080ab5bc6c8243U, 0x3e3698ee3e21cb1aU, 0xbdc1a6c73d896b09U,
  0xbeace92ebe0cb40eU, 0xbe28868abe84bf78U, 0x3e415dbb3d7db049U, 0xbda9a9163d7fc9e1U,
  0xbe35007cbdd05196U, 0xbdaf0772be2ccc26U, 0x3d62e71a3c2a2c54U, 0xbe55c891be147d5aU,
  0xbeaf9049be9eab49U, 0xbe38c73cbec90774U, 0x3dc92207bdc56446U, 0x3d7c68263c1a163dU,
  0x3e2d2c723e4a1b2eU, 0x3e4e5ef33e5289faU, 0x3e4346c03e6619cfU, 0x3dc8eec53d9b6d94U,
  0x3e39b2ae3dba53b1U, 0x3d5bc2843d14b114U, 0x3ce75e5bbcbf5af7U, 0x3d9b2c103e09ef98U,
  0x3e3abe453e1e37a4U, 0xbe1c7603bd30e238U, 0xbec09e32be79b6f5U, 0xbe4b0f64bea13541U,
  0xbdbbf79abdc92da2U, 0xbe264957bc4a9b4dU, 0xbe977b9dbe960172U, 0xbed3c48fbed92b7aU,
  0xbed0f8bebf094d55U, 0xbe64dde1be5dc638U, 0xbbaa30adbcbfa6b5U, 0xbe954aa1be50028eU,
  0x3ea8efc93d6c2f25U, 0xbcc5e8ee3ef023b3U, 0xbf67135bbe49a36bU, 0xbe9e64a2be9ad488U,
  0x3e42bb81bceb0dabU, 0x3fa3b86b3f984502U, 0xbf3755683f3f01d6U, 0xbfbc001bbfc52427U,
  0xbda2bdddbf54944dU, 0x3fd937193f335295U, 0x3f8a36273ff0aa79U, 0xbfcf0279bee82ad8U,
  0xbfb9d81ebfeda044U, 0x3f316b70bea18a8cU, 0x4003d04d3fdaf955U, 0xbe7503303f867e79U,
  0xbfdde078bfa72617U, 0xbdcb16e3bfd21e3cU, 0x3fa9ebb73f467918U, 0x3f0943f93f8e4b36U,
  0xbef30c92bdd48342U, 0xbf5456bdbf08d650U, 0xbe600b6dbde0c05dU, 0xbdba2babbea4b0ddU,
  0x3f7246953f06789eU, 0x3d4c0ed63f59b05eU, 0xbf22834b3d8b0ebdU, 0xbf9dbfb0bf3fbcfeU,
  0x3eba429fbf0c4c20U, 0x3f8c94773f907286U, 0x3e1e3bba3f100966U, 0xbf2bd7c7bf33fafcU,
  0xbe381762bf82f5a6U, 0x3f711047bd934348U, 0x3f0a344e3eb765a3U, 0xbcebfd46bee89530U,
  0x3dcc56ecbe8b808cU, 0x3dbf1ba4beb7d553U, 0x3dd7811cbdd5364cU, 0x3d3f1a1c3d82f278U,
  0xbdb5ab233d43308aU, 0x3a118e773e2c9410U, 0x3c944f553e609646U, 0xbe2eda0a3db9d485U,
  0xbec510063b834973U, 0xbe9838f2be39025cU, 0x3eb9615cbdb54e9dU, 0x3f4b5f653f2a357bU,
  0x3e19cf173f10671aU, 0xbf224308beb5f522U, 0xbf072080bf75cf8dU, 0x3dc7efd5bed2b7a1U,
  0x3f306e673e1e529cU, 0x3efd14913ee4e274U, 0x3e90af923eb3a121U, 0xbe2c832c3d9cdd6cU,
  0xbee7c548beaffe11U, 0xbec964dfbed2e963U, 0x3d10dd3bbe640f45U, 0x3ebf86f83e84b246U,
  0x3d405f393e81e6e3U, 0x3d277dba3e4a738cU, 0xbc961de13e3111ccU, 0x3da736053df655e1U,
  0xbeef6fbf3cbb867fU, 0xbf08ce81bf0f8666U, 0x3d1333fdbec5733dU, 0x3f0fda623e974301U,
  0x3f2383853f012cb5U, 0x3eb3d4d83f01ff6cU, 0xbea359a6bd93d0f0U, 0xbf4121d7bf3d196fU,
  0xbf06b9b4bf240d0bU, 0x3e9d1016be3e4c9aU, 0x3f68325e3f3ec06cU, 0x3ee0dd463f5439eeU,
  0xbf0a6989be0bdc94U, 0xbf178ea4bf52cbb2U, 0x3d3b0313bf111a6dU, 0x3f0e0fc73ed081e5U,
  0xbe7e2b06be678d48U, 0x3ea13bc0bdf554bdU, 0x3e2aa8843eef8bc4U, 0x3e6b27183e58504eU,
  0x3dc01d093e91d121U, 0xbf3470a1be81b0e8U, 0xbee8afd7bf24212eU, 0x3e1d7d4abd61d2cbU,
  0x3ee11b9e3ed25966U, 0x3e949e823ee4ec4aU, 0xbe6c89753e7d1aafU, 0xbe7a055bbe133bddU,
  0xbe46cf04be4543bdU, 0xbe3f1e04be880d8eU, 0x3db32481bd17b910U, 0xbe90f542bd37ea53U,
  0x3defb3b4be1d525fU, 0x3e90e96f3ea0167cU, 0x3dac46e53e5652d9U, 0xbdc1e773bd5a970dU,
  0xbe3a8dbabde93a75U, 0xbd068624be00a37dU, 0x3e5098383daed9f7U, 0xba3af51ebc3761baU,
  0xbc816b0abe458c88U, 0xbe37d80abe92ccceU, 0x3e00db68be821819U, 0x3f45d9583ed0d966U,
  0x3dd533323edaa461U, 0xbeb81f19be456011U, 0xbf295597bec9c5e6U, 0xbf0f38e6bee847ccU,
  0x3ed5182cbd442ea9U, 0x3f4a0af13f5606a6U, 0xbc05c6b43f128decU, 0xbe5548a7be1283a1U,
  0xbef8b2e6be0e2e0aU, 0xbec79229bf092045U, 0x3df0460ebd6edcfeU, 0x3ec423b03eb4526fU,
  0x3c8d37bf3e6d9435U, 0x3c1b07abbc3bc4e4U, 0x3e6c27fa3b7599f0U, 0xbaa2fc82bf9707e8U,
  0x3c788c303e9b9110U, 0x3be9b6693b139347U, 0x3d99370c3e843b45U, 0x3e6caeb83d8fa4cdU,
  0xbc3cb9743d9257e1U, 0xbaa0b279bc410286U, 0x3cf9ea403d23679eU, 0xbb4b4cd2b8ec4428U,
  0xbbe2d1b8ba528a96U, 0xba9444063b62d69aU, 0x3b5b331ebec8fe83U, 0xbb906e063c5ffdabU,
  0xbc9b6808bc06b505U, 0xbb01eda8bc4580a5U, 0x3c545f963c8618eeU, 0x3c6d761cbd093a20U,
  0xbc89b0cb3c6ba905U, 0xbc19fc35bba0385dU, 0x3c11f0dd3c61f7e8U, 0x3ccb88293ca2da14U,
  0x3c40b3813c807a0aU, 0x3c050c56bb5eb32aU, 0x3cea5c463c7a6e83U, 0xbdc7b8c03b46dd12U,
  0x3cc2790a3d7da641U, 0xbe546dedbc94e767U, 0xbc21d76fbd065213U, 0x3ca2a0b13d28a15cU,
  0xbce9fbc23c1a6f7eU, 0xbba7f4513cbdb653U, 0x3cb4f75c3b1472d9U, 0x3c82dfb5bcf352f4U,
  0x3cd6647e3a371cb8U, 0x3c5eab71bc8793b5U, 0x3c7ca9833c745b8fU, 0xbc94cbeb3c9750f9U,
  0xbad33d1c3c87d6cbU, 0x3b7d5d253a615a17U, 0x3d2a7499bd05cc5bU, 0xbde23efc3d3f07f3U,
  0xbc2730ca3c0935ddU, 0xbe873bc83bde7848U, 0x3b2f3381bc9f9ee8U, 0x39eba4fb3cf79e38U,
  0xbc78fddb3d30f580U, 0xba2ac96ebc6a169eU, 0xbc0f9232bc97141dU, 0xbc8f07b5bd5791edU,
  0x3d207fdb3ca8bf60U, 0x3c5f0d23bb3ffb89U, 0x3c877c343d1e1c61U, 0xbcc319b23b93ed1fU,
  0xba997a663c9ec5b2U, 0x3d0d62353b168d22U, 0x3ccac6fcbc8a045aU, 0xbde058e8bb77830dU,
  0xbc5537e73cd8245bU, 0xbe4176e03cabfa0dU, 0xbcc8e1813c628123U, 0x3c9b632e3ca3ace0U,
  0x3c2fbdae3bd8714dU, 0x3c9b6a3d3c13ee78U, 0x3c83fe7b3c99bc67U, 0xbb87b7bcbc97877dU,
  0x3cefe2bb3c2e39acU, 0x3b5d905a3b3b4f76U, 0x3aab00a53b8c98daU, 0x3cdecedb3d477976U,
  0x3c1d01b33ae1fc1dU, 0x3c55acb83b2de8a1U, 0x3b7a3aa93c4ddd25U, 0x3d23253e3c9d9b83U,
  0xbbad71f7bcd7594fU, 0xbb10f0f73c6db442U, 0x3d3c63ffbc52a491U, 0x3b6c002c3c85cb58U,
  0xbbd1760fbad83d36U, 0x3c9e14463c86d764U, 0xba9d841a3c81411eU, 0xbc84a1243b52b087U,
  0x3c0ca84f390cb6b2U, 0x3b96c1333c409785U, 0xbb0f54bfbbfd0dbfU, 0x3c4ec9033cee2c07U,
  0xba069bc43ab63c1fU, 0x3cc7926a3ac6dbb5U, 0x3c00c3443c5d949dU, 0x3c9bc9393c8a5701U,
  0x3bfaff97bc9722b2U, 0x3c00da383bcaad2cU, 0x3cf20ee5bbf1b30aU, 0xbba683c1bc3c6f80U,
  0xbcfbee73bcbfb27bU, 0x3c07ab72bb8a3054U, 0xbbba64823c8cff81U, 0xbd26b5f1bc7d5694U,
  0x3b570c93bc1bac51U, 0xbc42b3f4bb4aa69fU, 0xbc901b54bcef522aU, 0x3c9b1b8a3c00ed40U,
  0xba83f69ebae52e2eU, 0xbb9bf70dbc225801U, 0xbc8d21d3bc919a5dU, 0x3cac04e9ba903660U,
  0xbcf1822abd52eb97U, 0xbcfbfa8fbad21e2dU, 0x3bec5d3cbbd9f389U, 0xbad0ef6bbbcdcb11U,
  0x3cacc20a3d1a74deU, 0x38a5e4413c297020U, 0x3c4f9b243c495843U, 0x3d8eacafbcb1e562U,
  0xbb7b0d503d1e8863U, 0xbc2734eabbb221adU, 0xbc4fc62f3c79523aU, 0x3c77bdad3cd39d5cU,
  0x3cc1e48dbb145d5cU, 0xbc87ae533c887c40U, 0x3c510815bc295c3bU, 0xbc907f80bbd75a48U,
  0x3ab830dbbc2652a8U, 0x3c89f9f0b9208076U, 0x3ceac9d8bc9042a3U, 0xbc551c803d61fa16U,
  0x3beef3843bb0dbe0U, 0x3a3e714fbc9ef7d5U, 0x3c38219aba7549afU, 0x3b885b01bcb1c727U,
  0xbc01b5433d052f45U, 0x3bc426dfbb19286fU, 0xbc7700fd3c1891d8U, 0xbb48bac33c6fefecU,
  0x3be1a4bd3b7185ebU, 0xbce61f7b3c34fd30U, 0x3bc73b27bc9b8a3bU, 0xbcf86c00bc803c3bU,
  0xbba09575bc90c683U, 0xbb11d17cbc102971U, 0x39dee07cbc711292U, 0x3c9a75e73ca4b0b2U,
  0x3ca3cd133bde9d6bU, 0xbb2b5690bc988632U, 0x3b4c3bf3bbf5f693U, 0xbb4d5b10bcaf39a9U,
  0xbc75127fbbcc0095U, 0xbba3b80ebc7dc6d4U, 0x3a93caa83acb5f3dU, 0x3c410cdbbafb046bU,
  0xbc86650ebbedc15eU, 0xbbf5edecbccc05abU, 0xbc197cc6bc13f041U, 0xbcff1a56bc2533e5U,
  0xba7cb675bc91e064U, 0xbb36b7a3bcb53553U, 0xbc0638b8bc0abe39U, 0xbb2b425fbc641274U,
  0xbd7421cbbd045881U, 0xbe919cf4bde4deadU, 0xbe399f983cc84616U, 0xbc948732bd817d15U,
  0xbd77f471bd54a3b5U, 0xbe8d5cd0be4d47e3U, 0xbe0797f3bde05021U, 0xbe122b51be61f6caU,
  0xbe22ae9bbda6ef37U, 0xbe030be0bdf4e470U, 0xbdfd7219be4c9f1fU, 0xbbde7a03bb6dc94bU,
  0xbd6af6573c9b876cU, 0xbc68684ebe587d83U, 0xbd386e613ce98550U, 0xbd3ed918bcfd1866U,
  0xbcaa334a3cfc0d25U, 0xbd722dedbce653e5U, 0x3d521af13c7427b4U, 0xbd5aedb7bd34e343U,
  0x3cc730f2bcc9091cU, 0x3c99edcebc8b3129U, 0x3d5100123d23f781U, 0x3c0c7913bc877b12U,
  0xbd5ee05cbd501b44U, 0xbcbb7f22bd0c8293U, 0x3d230ff3bcac1373U, 0x3d17d3b0bc1a03a7U,
  0xbcbceaa5bca5e0faU, 0x3ba56dd63ce3fa30U, 0x3c15a4cd3c622f80U, 0xbd5d6d56bc0b268aU,
  0x3dc082643d5305a6U, 0x3d7f86cc3d55124bU, 0x3de333b13d2b0739U, 0x3d2275a6bd91fc67U,
  0x3d9c0b0c3d0bc2c2U, 0x3d933f8e3d84b9f0U, 0x3d9d40273dc4913cU, 0x3e15b1e93db7ecb6U,
  0x3d9a58fe3d31d579U, 0x3d05f4b43d8641ddU, 0x3d89fe2b3dd4526cU, 0x3c9e19f63c444b9fU,
  0x3d8d2a023beb7492U, 0x3ac9c67d3cef0ac1U, 0x3c668ac6bcc67b10U, 0x3d836b753d5b0ceeU,
  0x3dc6dfbbba70f6d1U, 0xbda23d0dbd044840U, 0xbc9a51403d5566b3U, 0xbd18b5e9bd0c656fU,
  0xbbf515c3bc084db9U, 0xbdf1d866bda84858U, 0x3c75d0bc3de993c1U, 0x3d9b1432bdaa4491U,
  0xbd3eaf483ca0d83dU, 0x3b89d846bd4c69b8U, 0x3d43b1b0be03c639U, 0xbce33749bd23c76bU,
  0xbd84ed133d722bbdU, 0x3ca9c51abd6a5eb0U, 0x3c8ebd77baa1c3e9U, 0xbd38d1d6bc4f3c69U,
  0x3d8d669abd0b2bbbU, 0xbd9ca735bd1ff7c7U, 0xbd40e8ca3d8ad027U, 0xbd04809ebce74dc0U,
  0x3cf6907ebcb73259U, 0xbe0590a1bcc5f3c3U, 0xbcac4efa3cca793cU, 0x3c38db54bdaf4f68U,
  0xbd6915f93a566218U, 0xbd094de9bd0f1515U, 0x3b4b9fe5bd85e426U, 0x3cd1efe83d513af6U,
  0xbb125fdd3c94a2c5U, 0x3d11b169bcecb060U, 0xbc9e4ad8bc8369d0U, 0x3b6a8be6bb568c80U,
  0xbd5df2593bad935fU, 0xbda02a72bda49c97U, 0xbe00efcd3caa5b1bU, 0xbd003da1bd8ae6d0U,
  0x3d41a5e3bcc2a10bU, 0xbe0eb1a4bde1f964U, 0xbdf8f0c5bde2854eU, 0xbdaedf5bbdec4a65U,
  0xbd7eb03e3b187cb7U, 0xbc521269bd9d2fa4U, 0xbd8d6b37bdce000bU, 0x3cd45b8bbb9b24d2U,
  0xbd61ec483c9f22b4U, 0x3c80ef73bd6e2227U, 0xbb39374d3cadebb7U, 0xbd528f92bc26edb3U,
  0x3da4e990b9de1b60U, 0xbbdef8dfbd2a37f2U, 0x3d8b95163d6c611eU, 0x3c311873bc228808U,
  0x3de7a3573db1014fU, 0xbc499f6bbcf2be33U, 0x3da6297c3da9dbb1U, 0x3d8c04f03d8b7500U,
  0xbd20adce3d7aa104U, 0x3d2f7e9e3cf2f17dU, 0x3d6b8ed73ce9a8a0U, 0x3d522c673c96cf0eU,
  0x3c2f0ac5bc113c2bU, 0xbc4d68553bd704bdU, 0x3ca037a43c084fa4U, 0x3db541453d4fbb4dU,
  0x3cb3b0ad3d25ceeaU, 0xbd447979be07c229U, 0x3c3daf4f3d5949dfU, 0x3c5b545dbd44af91U,
  0x3c40fc1abc6beaeaU, 0xbd0cb6b7bdec8a29U, 0xbce6b5a13c73422aU, 0x3d6c14e13d491810U,
  0xbdd42ff43c981e58U, 0xbcbd6733bda5c3e9U, 0xbaa0ea4dbce30a29U, 0x3c07009a3b135b03U,
  0xbc2a0190bb8ba1d1U, 0x3c345a5cbc98ae1fU, 0xbcbeced3bce5e5d3U, 0xbcdbf3ba3d04fe92U,
  0xbd00bb77bcbfb2b1U, 0xbde569cdbe2bed97U, 0xbd89d612bc9e47beU, 0xbda39b41bd88a21eU,
  0x3c9636d3bd828a69U, 0xbdd52e3dbe39b50aU, 0xbda8aec8bd939438U, 0xbcbe65ecbcf4ac20U,
  0xbe1d29aebcfe71d0U, 0xbd4ee165be21c36fU, 0xbcf12728bd6e4c30U, 0xbcda397b3cc3b7cfU,
  0xbdc4c53c3c78d857U, 0xbd22ba41bd74458eU, 0xbd371565399e559dU, 0xbd0f23f9bd296a52U,
  0x3d0cbd96bd928f4aU, 0xbcaf948ebdcf281bU, 0xbb919e7ebd66dfb5U, 0xbd8ca5ce3c4d425eU,
  0xbbb42f7abd997e42U, 0xbcefd2bdbe017260U, 0xbb4911b33c79067fU, 0xbc5802c93cc22b18U,
  0xbe238f8cbcb44d3fU, 0xbc23aab5bdd8a379U, 0xbb791fd0bcc6524aU, 0xbd4e69a1bd0e4f3dU,
  0xbdc1ae6dbd132d4aU, 0xbca58d23bcf757abU, 0xbe14ab0cbc290ecbU, 0xbd6b1f1ebd74ca69U,
  0x3cdb94aabd253084U, 0xbbd3e6b3bdea8a2eU, 0xbcd180cdbc2707baU, 0xbd1c95cd3d7c97f3U,
  0x3c9fadddbd7aaa0cU, 0xbd390a6cbde65cfcU, 0x3d73d26ebac14cc1U, 0x3c607b433d4b2c61U,
  0xbe175e4e39e6e37bU, 0xbd929742bd9e805aU, 0xbc76142fbd3ba00eU, 0xbd56fb88bb46cff8U,
  0xbdc22508bcdc5197U, 0xbc5050b4bcc25cf3U, 0xbd8193c3bcde66adU, 0xbb1d78a5bd6f86caU,
  0x3d436fd93c70b6f0U, 0xbcbc20adbd591972U, 0xbc07039c3db36229U, 0xbd2cdfee3c56d924U,
  0x3d58e0d7bcf0d4d2U, 0xbcf04803be026de6U, 0xbbcf9f7dbd3d9539U, 0xbceb8a023ced3059U,
  0xbdaf5da7bccdcb2cU, 0xbd12c7bebddc208bU, 0x3ca52e47bcc35f97U, 0x3d94e3c63c8bc4afU,
  0xbc3f89153ce886b2U, 0x3d8eff193c4a3702U, 0x3c4529b4bd0eac25U, 0x3cab86b4bce7e990U,
  0xbe276f033c5ddbc7U, 0x3d168e0e3d218d4fU, 0xbcba7e763d0dab18U, 0x3c89b8d4bc6936c6U,
  0xbb8774123cd8f530U, 0x3dbbdbe43d29d241U, 0xbe1f7e3abe735a87U, 0x3e2619273cfb5107U,
  0x3b0b40a4bc3521afU, 0x3c9df49f3cc00a1eU, 0xbdccc6c53d813de4U, 0x3cbfa2ddbc7bebdfU,
  0x3cdc16df3cb694e9U, 0x3c8d5f8d3d1f47e0U, 0x3cfbd489bc26408dU, 0x3ca70ebe3d345f38U,
  0xbdc929883c4404e4U, 0xbd26ba09bd16eba5U, 0xbd3803e6bd2a9fe6U, 0x3bb49ef6bda1087aU,
  0x3d38d5d13c8e135fU, 0xbd860444bc9b3910U, 0xbe76a8c2be8b7313U, 0xbc85642abe096292U,
  0xbd28ec5bbda2bb6aU, 0x3cd9ffe6bd66ca79U, 0xbddabd18bd5df4c6U, 0xbb94042dbbccbac7U,
  0xbd6a5ab6bc4c4faeU, 0xbd1e6bdfbb8d2325U, 0xbd4d95b33bbee45aU, 0xbd38ec49bca52f03U,
  0xbe2fd3cebd126340U, 0x3d52d5833ccbd4beU, 0xbcc119883d2f14f5U, 0xbc9e4b32bdcb35ccU,
  0xbb8c83d4bd2f6005U, 0xbb633f873d127a75U, 0xbe37eec5be66d027U, 0x3dd7ecb13d2297bcU,
  0x3cd85e36bd943505U, 0x3d856e603bd5ecc8U, 0xbe05fa753d2e650eU, 0xbc99d9cebc7a61faU,
  0xbcaf56a43cbb5a8aU, 0x3d2194ee3d077908U, 0x3c0e4e333ae349baU, 0xbcdacc87bd1a80b4U,
  0x3ad8782c3baae597U, 0x3b5c88be3c9a4961U, 0x3bcf776ebbb40791U, 0x3bdbbbc4bc1d0208U,
  0xbba40be13bacd5cbU, 0x3c0cee813bd99ca2U, 0x3cb608523c593397U, 0xbbec2ac8bbd495a0U,
  0xbb87d8b7bb32212fU, 0xbb91472c3c2b4790U, 0x3cab16a13a1a355fU, 0xbc3be5cfbc96132fU,
  0x3c062df93cb52699U, 0xbca1c689bbd62880U, 0x3aca400cbb9aa911U, 0xbb39561e3b20a46aU,
  0xbbb8b0a4bc3091b5U, 0xbc580b7c3c888867U, 0x3c590c0fb9e794dcU, 0x3cb523b23b457fa0U,
  0xbbe955a4bba82cb8U, 0xbb3c6a2bbb7a936dU, 0x3ca54d213c47b442U, 0xbc4bf87a3a855514U,
  0xbbe86753bbf2f34bU, 0xbbbfdb8d3b10cfb1U, 0x3c515a3cbb999297U, 0x3b0f4928bd0262cfU,
  0x3c3adddb3b9dbadaU, 0xbc8a3b1cbc5f45b0U, 0xbc6d4d9db947ecf8U, 0x3b90e2a53b1f7f11U,
  0x3b8c8412bbc2a96fU, 0xbc93e1f7b93feb20U, 0xbb94a0663be691ccU, 0x3cdb33e03b1bf7ecU,
  0xbc4f19a73bcd4019U, 0xbc3cc3f7baa2e9baU, 0x3cfb3c9f3cfa111eU, 0xbbb6e1c7ba3523d1U,
  0xbc820d06bb4486d0U, 0x3c38202db93b99f4U, 0x3c62dc0fbbd055ebU, 0x3c86a0babc1bc261U,
  0x3cd0a96e3ce0c867U, 0xbaa1c655bc86f148U, 0x3c33317db9a27034U, 0x3b9448863c248312U,
  0xba2301c4bb7e9826U, 0x3ccce03bbaf3184bU, 0xbb83cc97bc372981U, 0xbbf02499bc30a487U,
  0x3c20e0893abd88d1U, 0x3ca0f11f3c76cbe4U, 0xbad928bd3a331e86U, 0x3c4efb1a3c0fc735U,
  0xbb5e82943b262514U, 0x3c3d6758bb6b3b79U, 0xbc33806d3c80a6a4U, 0xbc23d2433b90daf7U,
  0xbc9d34ac3b1acd5dU, 0x3c0249af3c752cfdU, 0xbc9737b53a85ed20U, 0x3bb0bdf2bc514036U,
  0xbb60125a3b84d2c1U, 0x3cf6e9e13cd6d9a1U, 0xbb242961bd02c4ddU, 0xbb1e2282bc496d93U,
  0x3b970f4dbb55030eU, 0x3d50ac183cc87093U, 0x3c0785743be1df44U, 0x3c6344083cec983bU,
  0x3c78a7153b3896ecU, 0x3cc2762b3b848ea4U, 0xbc574d613cd1729cU, 0xbc9810533c3199bdU,
  0xbc6f10bf3b9ba49aU, 0x3a908f813c7407edU, 0xbc9115dabbcb676bU, 0xbbc183c6bc4c20cdU,
  0xbb265bfc3b25e91cU, 0x3c91ffa83b90697fU, 0x3c7247dbbc91febdU, 0xbbdfe39abbab59c4U,
  0x3bf21e213c49f2aaU, 0x3cb957093c82eecdU, 0x3bf0a48b3c088ab6U, 0x3c6aa8a63c979e66U,
  0xbb02b97c3a5a737fU, 0x3c3486d13baa07f4U, 0xbb7dbd9a3c72210bU, 0xbbca3c30bc440236U,
  0xbabb622ebc4726faU, 0x3b70d2c63cbc30c3U, 0xbc8beb0cbc09c53aU, 0x3c131d0abc0afb01U,
  0x3d9f6cc7bb85b5d7U, 0xbd906a3fbaddb0cbU, 0xbcadb75f3be2c90bU, 0x3d34e5a0bcfd292dU,
  0x3dbdbf2aba3b8e2fU, 0xbde3ee87bd0b3466U, 0x3b93e5533d81d1e8U, 0xbd4730acbd666f6fU,
  0x3c0c3485bc961222U, 0xbd05a5763d080fddU, 0x3be66fecbd9410d5U, 0x3d2def53bdbf59dcU,
  0xbc95f578bc1ca4b6U, 0x3ca88de3bd17175aU, 0x3ceeaa993cbb27aaU, 0x3d49d5fe3cde4db2U,
  0x3ce8e5f838ae7bfbU, 0xbda1d931bc6266a5U, 0xbd557a71bc4ba56fU, 0xbbb7706dbd50ec0cU,
  0x3c4ad8823d21be9fU, 0xbdbe3a82bcf41845U, 0xbd3a6558b94baf21U, 0x3c34f059bd65b417U,
  0xbc157962bd402985U, 0xbbb7272dbc176d2cU, 0xbda718c8bdafbf66U, 0xbd381f73bdac6279U,
  0x3c0324283c0c7088U, 0xbc017051bd82a264U, 0x3bf380e3bd4b5aabU, 0x3c5feea1bd0f1f6bU,
  0xba4329f63cb9c6b3U, 0x3cc49992bc298036U, 0xbd9150913cd63e04U, 0x3d238666bd9943adU,
  0x3c3a901f3c5a3f71U, 0xbca8df80bc0120f7U, 0xbd8a8eecbd01590cU, 0xbb971cf1bce5ee9dU,
  0x3d11b375bbcbdd2cU, 0xbd25d8a5bccd7398U, 0x3d06caf0bcb7490dU, 0x3d1da645bd8591c6U,
  0x3daeae463d448f97U, 0x3d0e2318bc48aed8U, 0xbcbae57b3ad1f2c1U, 0x3ca821a13c9c2218U,
  0xbc116029bc5182cbU, 0x3a1906f3bbbcafbcU, 0xbca66f293c160ca9U, 0x3bac8952bceee48aU,
  0xbc0e1f07bc0b053fU, 0xbc87523dbc695dbaU, 0xbc6fc7ccbb9a7e39U, 0xbcd9a6cfbd563188U,
  0x3b90975bbc3ea80aU, 0xbc80b20fbcb6b548U, 0xbc810251bc9c4ee3U, 0x3993a53fbb85426bU,
  0xbc866d3dbc487b33U, 0xbc794e11bc135c6aU, 0xbaa235763c7c8558U, 0xbba44179bc64d313U,
  0xbc9e340f3ab14f16U, 0xbc8b1c643aca97b3U, 0xbce8057dbb578c03U, 0x3d0869dcbc8f8c4fU,
  0x3bca90893d067799U, 0xbc162aa73ca392eaU, 0xbb7f482dbb0671f5U, 0xbcd7fa7bbca9fea8U,
  0x3c3c5992bc25e97aU, 0xbc32aa913c8eeac7U, 0xbb436f5fbc3d7068U, 0x3c6e008a3bf27f7aU,
  0x3cbffdebbc09093aU, 0xbba5784cbc02d42bU, 0x3b38d0b13be4111fU, 0x3d01bd5d3cc822ffU,
  0xbc1ffbc53cd2eae5U, 0xbc9babe63c5654bfU, 0xbc1de82c3c24e4b3U, 0x3d29cf3abc4205feU,
  0x3c9a99c63d540da2U, 0xbc9735323c0afa9aU, 0xbc2406c3bba9659fU, 0xbd0dfa10bc8cb760U,
  0x3ccfe3aa39ecfba0U, 0x3cedacfe3d13e757U, 0xbc856fcabc32a61dU, 0x3c3c953e3c4f2c46U,
  0x3cde651f3ca508bcU, 0x3bfb9e9dbbcac182U, 0x3c99a5d6ba8e42dcU, 0x3d6701863d4d1c74U,
  0x3c8610e9bc8d53c1U, 0xba6467033cc99f17U, 0x3b07ee723bb0389dU, 0xbc41be1abd158f51U,
  0xbacf09fb3c8c0184U, 0x3cad3fed3d67233cU, 0xbcb4e6bf3a45dd92U, 0x3cb636e63c85f794U,
  0x3c3b0f6c3c949e93U, 0xbb2ba1ef3d06eb4cU, 0xbc2439a33beeb24dU, 0x3d88fd25be23f34eU,
  0xbc86cd193c53b42eU, 0xbe014f533c6a8656U, 0x3cbefd9bbcae6d43U, 0xbcd22320bc888451U,
  0x3cd89260bc39fd35U, 0xbd8201b2b8fcaa1cU, 0xbbd9b738bccf3739U, 0x3d769434bd2c0005U,
  0xbb7d85603d24ff18U, 0x3c69524a3c69d644U, 0xbc867e0ebcc61507U, 0x3b75e2f6bce77fdfU,
  0x3ba0b1f3bd34ccc1U, 0xbbf9a8353d0b3573U, 0xbccea774bc9ec883U, 0xbc020816be4b4a9dU,
  0xbca293e03d153e7aU, 0xbdcec671bd6eff60U, 0x3d1c08bebd43daefU, 0xbcbe55abbce1fab0U,
  0x3d4db15b3d1fc61eU, 0xbbcd8505bb12cd39U, 0x3bd1fa923c54e512U, 0x3cfb32dbbd89cd61U,
  0xbd4020b13d153422U, 0x3ccff8f13ca02edfU, 0xbb6e7ff23b90be2aU, 0xbacfef32bc0f9d82U,
  0x3ac6b7683c3c557cU, 0x3b9c80e73c8461a8U, 0x3d0a0517bc683b03U, 0x3cc28f55be207e20U,
  0x3d0737973c6b6838U, 0xbbbfe8e8bcbaba31U, 0x3cbea991bcbc8d47U, 0xbc8524433cee156aU,
  0xbd7e54e8bd40aff6U, 0xbdee43eebda52c02U, 0xbdc1a6683c46cf28U, 0xbc84c8383d81651bU,
  0x3cefe49dbb64aed8U, 0xbddfa48fbdadd4e9U, 0xbdd55e5ebd696afaU, 0xbbd8826abd9afd7bU,
  0xbd6796d1bcbdeddeU, 0xbd6db886bd529803U, 0xbd8be2bfbdbdb635U, 0xbbc1f5313b4b3eb3U,
  0xbd0daa65be4804cfU, 0x3d0f66d7bd85b95dU, 0xbd6a64c43cf03fa6U, 0xbadd35373c9d9a9bU,
  0xbd79b968bc7225e3U, 0xbd957ec5bd4f869fU, 0xbd2169163b8a81b4U, 0xbd46b1253cad014eU,
  0x3cdf3dca3cf6710dU, 0xbd95f08abda8ca8aU, 0xbd490a96bda587ffU, 0xbcb4a069bcbae1eeU,
  0xbdd0679dbd0a925dU, 0xbd0d5b42bd14a080U, 0xbd20601bbcc0d9beU, 0x3cb1a322bc095d0fU,
  0x3cb4d702be3e089fU, 0xbd5d5598bb8ea478U, 0xbce1a1fa3b1b3cb3U, 0x3ca38ebeba3d26f0U,
  0xbd9299c13cb562a4U, 0xbd0328413d839ad2U, 0x3b2bb4c63d561775U, 0x3d91e4debc3f707cU,
  0x3d250ff4bcc7c9f0U, 0xbc9c7e243c244b85U, 0x3be02df0bcd1dd06U, 0x3d1f8bae3d4f5e68U,
  0x3d920913bb10fda8U, 0x3d30a11b3dc8859cU, 0x3cfd76ebbd0dfdfaU, 0xbd4f73b03d3ee275U,
  0x3d8efb2fbdb6da39U, 0x3d0c7958bbe4fac5U, 0x3c46f9b53d00ccc4U, 0x3d90650c3dba018dU,
  0xbd7bbfdebdc73ba6U, 0xbd5f027bbd272381U, 0xbb6dc042bd008b07U, 0xbd2ca671bcece030U,
  0xbab5aa67bd939ef2U, 0xbc15faf9bd57b3a8U, 0xbd158d1fbd2e686aU, 0xbc875857bc4ecd2cU,
  0xbcde2340bbf58b97U, 0xbc7a109cbd4de008U, 0xbd44e375bd04ec48U, 0xbd2bc7613cc45ec7U,
  0xbcc9fc603c7b1279U, 0xbc5d2ac7bc8ff569U, 0xbe006cfabbcb9234U, 0xbd4bcbf9bd62aaa1U,
  0x3afc47e7bdb069bdU, 0x3c6895b8bced8271U, 0x3d3cc153bd59fa57U, 0xbd099431bd118411U,
  0x3c86e10fbda7d415U, 0x3d0cb6593cd03282U, 0x3b25862abcb2e831U, 0xbc45e73d3b628d85U,
  0xbbcce4dcbb4981b4U, 0x3d22dcd03b91e9e9U, 0x3c7018b43d132bd0U, 0xbda356763c0ee0c1U,
  0xbb537b60ba86ebe9U, 0xbc38488a3c1ef305U, 0xbddd8b073c20cedbU, 0xbc9c55b1bd9341c0U,
  0x3baa9213bd43b6afU, 0x3d50ed183ce87d9aU, 0x3c99c719bd55a7c4U, 0x3d4aabb8bd78d801U,
  0x377580babcd337beU, 0x3d7cd1de3d8187caU, 0x3d401043b95fb39aU, 0x3d291e8d3d38a4f1U,
  0x3d534f863ca2d604U, 0x3d4b7c583d720834U, 0xbba338dc3d2394c5U, 0xbd54c8213c6ddefbU,
  0x3d5cff5c3be495ecU, 0x3cb59fd93d5d08aeU, 0xbd89f1b2bb0fa8f8U, 0x3c8c7de33b40b282U,
  0xbc9e9827bc672dfaU, 0x3c46a4e13be2f5dbU, 0x3a59dfbebb81dca1U, 0xbbd5ca06bb463f65U,
  0x3c37d5adba730494U, 0xbac85346bb4d2ce6U, 0xbb3ed4debc164ee7U, 0xba4aca453b208e3bU,
  0x3c26245cbb194223U, 0x3a7c0458bb805ef1U, 0xbb8262c0bb1e534bU, 0x3b840fdabc726bc1U,
  0xbbc2d9353d334663U, 0x3c46fb913ac5736aU, 0xbcfd3b483b7cae5fU, 0x3b83bb40b7e512f1U,
  0xbc3b6572bcb0bac8U, 0xb9f6c4763c1bf5c3U, 0xbaec9ed8bbfb7117U, 0x3b271425bc24fff0U,
  0x3b929ecbbbafb63eU, 0x38b8b5e33c3ab59bU, 0x3b14f0b9bb8bd2edU, 0x3c34e7563bf0469bU,
  0x3ac2513dba8012dbU, 0x3ba63c433c301171U, 0xbc6805693b125730U, 0x3b87f5e63c1799a0U,
  0xbb6b405e3d319f04U, 0x3cb439b4ba5a3c64U, 0xbc5a58fd3b685377U, 0x3a8f4218ba7b4908U,
  0xbc444e76bc72d418U, 0x3c16d97d3c22f8e2U, 0x3c0bc9cabbb7ac31U, 0xbb9ead2fbc6e530bU,
  0x3ad0b0b1bb45a108U, 0x3bf18bbb37feb456U, 0xb980f979ba0bcff7U, 0x3c1312473bb1eff1U,
  0x3c458a933aaf7813U, 0x3b48794b3c3d6800U, 0x3b937c6abb1843d8U, 0x3b3623043985732eU,
  0xbc04b04f3d099e93U, 0x3ca105df3c21ed42U, 0xbc55fd943b9bdde8U, 0xba2a22fbbbcfd1daU,
  0xbcab885bbd4443d6U, 0xbca3aa703cb1827cU, 0xbcac3f393d006855U, 0xbbc96f0fbcc6e118U,
  0xbca21cbbbd40dbc3U, 0xbc35658b3c23a5fbU, 0xbcab7233bc6d365dU, 0x3c845a13bcf8e516U,
  0x3c2d3f28bc5c48e9U, 0x3c4496d13ca2c8c1U, 0xbc30dab1bb288636U, 0x3b543fc3bcb51067U,
  0xbc09774bbcf50c9dU, 0xbcdb76113b95c052U, 0x3c41d813bb5b3993U, 0xbc467fe4bc6b6b5aU,
  0xbc285b6ebd6063f4U, 0x3c87d8c63d4366d8U, 0xbc158ec43c93a385U, 0xbcceee6ebd085911U,
  0xba2c527ebd612aeeU, 0x3c4160913ccef91dU, 0x3b31e0debad1da2fU, 0xbb3e732f3c89fce0U,
  0x3d2013a3bc61ed84U, 0x3cd14a4e3cfa496aU, 0x3c2bfed2bc18f17aU, 0x3c3f52debcb77023U,
  0xbb97f807bcd9415dU, 0xbc92040a3c95b17cU, 0x3c7c32803c14d615U, 0xbcb34e9cbc785d32U,
  0xbcd36f94bd0b0648U, 0x3cfac7ef3d4df2afU, 0x3a2325cb3ca5d207U, 0x3bf41250bce835d0U,
  0x3c62014cbcef5a1aU, 0x3c6e23943d92e01bU, 0x3c89c12c3b8b5190U, 0x3b67da133be1d053U,
  0x3d97e63c3c5d527eU, 0x3cde00a13d56d31cU, 0x3cac57b53c000ab9U, 0x3c7d296ebc6b8636U,
  0x3c251fe3bc838835U, 0xbb8fc1a93d1faeb7U, 0x3b3486a5bbbe6ab5U, 0xbb9839b03c90a4b0U,
  0x3bd8bce9bce56559U, 0x3d08d323bc4cfdc5U, 0x3c7d3f193b36e561U, 0xbd8e7a26bbdf7ddeU,
  0x3d1210a5bd53cf2bU, 0x3cc01e333b5a0aeeU, 0x3d30d8713c59bccdU, 0x3c921b603d4ca4c8U,
  0xbd0f78b73d101510U, 0x3c8d4862bd1257dcU, 0x3cbc81aa3ce08bc9U, 0x3ca32d993cdee684U,
  0xbd11ac653be58a39U, 0xbb8ee8833c8df276U, 0xbcaa9662bc27bd1dU, 0xbd5059a2bdae9c4fU,
  0x3b74c505bd57add2U, 0xbb47cc02bc0129f5U, 0x3c32a87ebc2d813fU, 0xbd9eb10a3b6c048aU,
  0x3ce72c5ebdaa6b42U, 0x3c700f573c24b0dcU, 0x3d29f9813cd1f997U, 0x3d05bd1f3d13a2acU,
  0xbccc70813cc47aadU, 0xbbb64156bd7add11U, 0x3cd425413c0888ccU, 0xbb1046b4bc5ca007U,
  0xbdc481c63c047626U, 0xbc57d6fdbc39ddc8U, 0xbd17872dbc77bfcaU, 0xbd74be46bdb4d45fU,
  0x3c0c8b9abd5a82ceU, 0x3ca2ba1fbc9139ffU, 0x3d1ee308bc738528U, 0xbdc59caabc42d912U,
  0x3b49dfe3bd9dc404U, 0x3d0d3cd83d12f086U, 0x3d5d84923ce559b1U, 0x3c88acc33ca4fb0dU,
  0xbb85ddeb3bac91b9U, 0x3ca0ddb4bc4920e5U, 0x3d2c810c3c858dddU, 0xbbe3356e3b839e67U,
  0xbd9a73ad3ba316f9U, 0xbcbfee0d3c9f919fU, 0xbd3363233b6c4006U, 0xbd45f8ffbda61da4U,
  0x3d153aa2bd31b81dU, 0xbc9c59713caa5577U, 0xbc797e20bcb3cadeU, 0x3c7bf071bd1464f8U,
  0xbbcc37ccbc558fbeU, 0xbb8c69f0baed4c33U, 0xbc5da0503aa40ddfU, 0xbc922b4abc8e7055U,
  0xbb5aeda0bb383379U, 0x3c51e0373c11fe80U, 0xbb874946bccaaadcU, 0xbd8ab9ac3c6b188bU,
  0xbabb7084b9718361U, 0xbc86fae1bcb3c13cU, 0xbd94a835bc3cd58cU, 0xbbee5d00bd083b34U,
  0x3d088750bc4002fdU, 0x3c46b21b3cb835b2U, 0xbb3aa95abd1972ecU, 0x3cdc86a9bc4b8e8eU,
  0xbcab468c3bbf3046U, 0xbbf9560d3c8e6424U, 0xbc330a123ab8f324U, 0x3c5280c4bb9658dbU,
  0x3cb6b5ad3c00bb49U, 0x3b39c3063d0030c7U, 0xbb9231d13c36f5faU, 0xbd6d09633c076a00U,
  0x3c8103583c681658U, 0x3aa38962bb3cf916U, 0xbd6eb70abc20f1d9U, 0x3c527ce73be7a57eU,
  0x3d1e0754bceca4ddU, 0xba5e47533c682da6U, 0xbc505511bd0efab7U, 0x3d0b4036bd04dc13U,
  0xbc360f0d3d074960U, 0x3c7a781e3d0183cbU, 0xbbc467c63c7dc773U, 0x3c408c31bbb91016U,
  0x3d1e022cbb70f306U, 0x3cbcc7453cee4cebU, 0xbb823c9dbbf780d5U, 0xbd4691873d0f78ebU,
  0x3c8442e0bc716ff8U, 0x3c3f11163a3d4b2dU, 0xbd1a90e83b9bb7d4U, 0x3c92d0613bab643dU,
  0x3ba3ff01bc10e9a0U, 0xbb9a0445bd34af28U, 0x3ce21f06bc836044U, 0xbd240cb33ceedf1dU,
  0xbc00cc5cbc931210U, 0xbabd053dbd0284ecU, 0x3ae3f4893bc76f95U, 0x3ba79eef3c455f3dU,
  0xbd9a2a41ba8441cfU, 0xbcd2a85fbcc9e094U, 0xbc74c57ebb543235U, 0x3d2665babdba131cU,
  0xbb3dd69cbe7c5ba9U, 0x3c63a827bc412ebdU, 0xba171eb7bd20605aU, 0x3c5b76a53be63ffaU,
  0x3cdd1e5c3b8e069aU, 0xbc1e0d46bd30acf9U, 0x3c2b7db5bc99a41eU, 0xbcf20f8c3ca9d637U,
  0xbce02f893bf2946aU, 0xbc13a8dbbb946325U, 0x3be4b5fd3c905318U, 0x3bc67d333c6e6870U,
  0xbd45c561bca0f0a4U, 0xbd47fe0e3bc22edcU, 0x3c7fadb43c91ea94U, 0xbceaf6e9be217bedU,
  0xbc3cf534bea58c03U, 0xbcd31609bc8871cbU, 0xba7df26dbd2925a8U, 0xbc0fc834bd0ac06dU,
  0x3be4a40dbc412d08U, 0xbc345225bc37738fU, 0xbc919ab1bd14c9dcU, 0xbd804f583d0f9c0fU,
  0x3c06329fbc64a5fbU, 0xbcc04acebc7c0c23U, 0x3c3de7a83caf12e2U, 0xbc4e44b3bcad9915U,
  0xbd23b2b33c12e88eU, 0xbce576f6bd160122U, 0xbbb89cd5bc903fa8U, 0x3aa5cba3be1085afU,
  0xbbdcee27be802ef5U, 0xbd32d0b2bce9734bU, 0x3a171811bd123e7fU, 0xbc646da0bc9b0b9dU,
  0xbe3263263c8cb487U, 0x3b2334cd3d67b1c3U, 0xbca52c66bc895f09U, 0xbba167ec3e1c727dU,
  0xbdb29710bdc053e2U, 0xbdb9f0dc3badc541U, 0xbda57b16bdd5539fU, 0x3cb00810bcb740fcU,
  0xbb8b57a9bc93892bU, 0xbcdf0fbc3d484c20U, 0x3ca727bebd305fe9U, 0xbb1e6cc0bc8f88f9U,
  0xbbed3af33b3c3af3U, 0xbae0e220bad02f20U, 0xbda0f2a33dde55a4U, 0xbd1b8a20bbd0f6e5U,
  0xbda78c04bcdabb69U, 0x3c9132033db8bf21U, 0xbd252ecfbccfe718U, 0xbbbf9e133e1c5d6fU,
  0xbd79ca78bcb513c7U, 0xbcb6a7edbc290aa7U, 0xbdebc7a7be05c9c4U, 0xbc9dff9c3c8fef9eU,
  0x3d5f7adabc97a737U, 0xbd56cef43da74519U, 0xbd9f757dbd6b48e9U, 0x3bd2f867bc1ff17cU,
  0xbc3d7b5e3c70b919U, 0x3d0936d9bb7c0116U, 0x3cb66e713dce3d17U, 0xbc589e1cbca3c051U,
  0xbe23ddaabd8f6e88U, 0xbd5d0c913934c71eU, 0xbe5380b6bc147f4eU, 0xbd5036623e4a6661U,
  0xbe3d6020bc941c8bU, 0xbe0ccbddbde9ce89U, 0xbe5b31dfbe55617bU, 0xbd85b8c3bdd858c9U,
  0xbd05284bbd7911cbU, 0xbd57d683bbc8a350U, 0xbe0bf0d5bdd0dfc3U, 0xbc1c7a98bd85fa84U,
  0xbd2801343c807566U, 0xbb8aa1b2bd3dbb14U, 0xbbce6a8e3e041ff9U, 0xbd0e2588bc2bbd21U,
  0x3c3816073c02b6fdU, 0x3b36e5153b554aefU, 0xbb076d9c3b9d9e3cU, 0x3c24f836bc802fa1U,
  0xbb5d082c3980acabU, 0xba41810f3b46fcebU, 0x3ba636f8399b0e7dU, 0xbb7bc2863b551694U,
  0xbac598ad3b897b99U, 0xbc1bf1bfb84184f4U, 0xba0c77a8bb213307U, 0xbc77174e3df79970U,
  0x3a70446bbcae6deaU, 0x3bd38d223b05aeb4U, 0xbb8f0625bb1a2beeU, 0x3bd8c6813ad02bcbU,
  0xbb519dd73c378c4fU, 0xba91d52fbb841ac9U, 0xbb284eb6bba7007fU, 0x3bb8b63bbc6e5e72U,
  0xbb5559a33b402806U, 0x3b978a8cbb7cab39U, 0x3b609df3bb03e489U, 0x3a4f0c04b9c6b389U,
  0xbb1cce1bbb15ef59U, 0xba3bf6a53b3b96dfU, 0xbc37e8e3ba7eea7aU, 0xbc126d933cfdf77aU,
  0x3b224df2bbb67cbaU, 0xbc27b18fbba93050U, 0xbc4c86a9bc31b114U, 0x3b30867f3bc2f2b5U,
  0xbbc5a952babbf1f0U, 0x3b5d71c1bb4ed6e4U, 0xbc3e44193adfbcd5U, 0x3b4d0958bca11e15U,
  0xbc2b880c3ae1603eU, 0xbb0dcf96bc0e12fdU, 0xbb9d7e39bc487808U, 0xbb839165bb4eec5fU,
  0xbbb2354ab9a8e064U, 0xbc4dc767bc52fb5bU, 0xbc00ad56bbac55beU, 0xbc5e33903d7f5ce6U,
  0xbc00132cbcd33b60U, 0xbc425a6438612e2dU, 0xbc0e0803bbd992c4U, 0xbb1c7a1bbb4c0466U,
  0xba0e76e9bd0728c5U, 0x3ba49f31bc43f370U, 0x3d0cb915bb7a0c71U, 0xbd23393dbca589efU,
  0xbb2f79e4bcc8d8beU, 0xbb74667dbc96ad71U, 0x3c85c9a53c9e374bU, 0x3c82eae43ccf7505U,
  0xbc22c1163b030d20U, 0xbc4e8f38bcd14945U, 0x3c7902ff3c10803dU, 0xbb4949babce5bd48U,
  0xbd015803bc09fbaaU, 0x3c5641e9bb198848U, 0xbcfcec31bae5ff0bU, 0xbcc5476cbd0816beU,
  0xbbf1e3a1bd104324U, 0x3c09996bbc53b25bU, 0x3c63538dbcaf3f5bU, 0xbcdea29fbca3260fU,
  0xbb959d88bd2a51a1U, 0x3b22f9aabbafdcdeU, 0x3c5adcad3c5de448U, 0x3b0ed2773cdc38ecU,
  0xbce579e1bb87621eU, 0xbc7e77c9bd022c7bU, 0x3cb5461c3ac73e5bU, 0x3b4849dfbce41b16U,
  0xbd18cc4bbc8804d2U, 0x3c98cb86bbfe1aaeU, 0xbcf7b3d2bca38925U, 0xbcc8159cbd05ee87U,
  0xbb5ff0383a9d0dafU, 0x3b98139dbc5c27b6U, 0x3c10ecc63ba722d8U, 0xbcd0b0d6bbd57636U,
  0x3b6ef810baa87477U, 0x3bb27c543b1b9f40U, 0x3c2eddca3bb20567U, 0x3b9f68893c6ccf88U,
  0xbbaa21153bc3c85aU, 0x3b88d0c1bd027b8bU, 0xbae3021abc31942bU, 0x3abd95b0bca0b4acU,
  0xbd067566bc95a57fU, 0x3ccead64bbf16f45U, 0xbcc8c948bbc5be67U, 0xbc4dac0fbb90e954U,
  0xbad5a28abbdc75f0U, 0xbd324a21bdb69d87U, 0xbc8aab4fbc8f00f6U, 0xbd356a7abd8a0eb9U,
  0x3b03f38d3d0066a9U, 0xbc0dff35bdb6a362U, 0x3cc0dfba3cf4e0c5U, 0x3c1a62263c4d313cU,
  0xbdcbc2c9bc8be19bU, 0xbd5a222ebdba42b6U, 0xbc8e5421bc5b8338U, 0x3c1bd34b3ba2db4aU,
  0xbd6f3617bcfdb55eU, 0x3cad68e0bd518d41U, 0x3d886ce1bd342868U, 0xbce9555ebc1537f0U,
  0xbc42cc6dbb47a216U, 0x3cbfcfb4bdee7c32U, 0x3b98dde13cc93b05U, 0xbd14fe0cbdac38b0U,
  0x3adc9ea0bd869cc7U, 0x3ccb8861bd5f6908U, 0x3ce9e4223c82097aU, 0x3c6576f43cb5382aU,
  0xbd8523d9bc32d2a5U, 0xbd45c9e6bd84a8e6U, 0x3d1082983d125e9bU, 0x3d95e358bb41abb1U,
  0xbc659f7c3b31c44dU, 0xbb882bb83ca07b07U, 0xbce8c4e1bccec31fU, 0xbd0fa74a3cca32fcU,
  0xbb9472833d012541U, 0x3a615d8fbd95c040U, 0x3d2f86f33d460642U, 0xbc851ed6bd534ba0U,
  0x3cd8a2483aa7100bU, 0x3c150539bd82661eU, 0x3d0e89b0bc10bf64U, 0x3c08f6653d23697fU,
  0xbdeaa860bbb056eeU, 0xbcbc034fbdb1f665U, 0x3cb6420abc13c713U, 0x3d8064b53c40a9a4U,
  0x3b4e7bdf3c135c6bU, 0x3d179c393ccebe14U, 0x3d8bc3ba3d18ad65U, 0x3d41282c3d3e41d3U,
  0x3c8159793cb0131cU, 0x3c04cfb53c08b13fU, 0x3bf3c0883bb93544U, 0x3bd51886bc38e2baU,
  0xb94ecee93b0fc825U, 0x3c647bc83c1994f0U, 0x3abfb6513c4b9e9aU, 0x3a494a453b92cd62U,
  0x3bac6203bb713628U, 0x3966db313c10e531U, 0x3c48406eba474cbbU, 0xb9632744bc2d0d8cU,
  0x3c1e359c3c683477U, 0x3bd8f850ba86da51U, 0x3cb6f129baaff311U, 0xbc118c7dbb84dfddU,
  0x3b8a77be3c0d06dcU, 0x3c26fe093c6dbcbaU, 0x3c631a353c164079U, 0x3b00092ebbc5f32aU,
  0xbc68fbe8bbaec522U, 0x3bd5ebf2bb203b38U, 0x3c12783e3c397984U, 0x3b0c68043c03b19fU,
  0x3a17709ebb6bc962U, 0x3a25c3403a8076c2U, 0x3c6314583af64835U, 0x3cb90a7cbc4fce52U,
  0x3c0459d3bbc207bdU, 0x3a932a72bb53a987U, 0x3bbae868bb4d1fe0U, 0xbc2fd60a3c0fb741U,
  0x3c5798143bba3e64U, 0xbae6c9beb9f9bab6U, 0x3c47220b3aab0002U, 0x3c8352e2bc20abcdU,
  0xbb8ee0b43b3b7c21U, 0x3b6d07da3c596d15U, 0x3c7f04473cbce397U, 0x3c4a08f83c86082bU,
  0x3c0bf8dcbb7c1182U, 0x3b36fe2e3bfd9f61U, 0x3ba506533c329076U, 0x3c0e58c6bb8ed7b2U,
  0x3b031dd13c08e7b1U, 0xb9fca0dcbb708417U, 0x3c584ca7bb14b51aU, 0xbb046a733c89ffbcU,
  0x3ceb607dbd40721aU, 0x3c91fdcc3cf509b5U, 0x3c32878bbc5caff3U, 0xbca168d2bb7f7b61U,
  0x3b4ac00dbda6559cU, 0x3ca66914baa98b61U, 0x3caee77e3acfca1eU, 0x3d08ffe53a9f1a7fU,
  0xbc0617cc3cae00a4U, 0x3a2a4e78bd6e05ccU, 0xbc88651c3ccb6635U, 0xbdf156c23a7aea8aU,
  0xbcb1c7113c9c73abU, 0xbdca1120baf1a7f0U, 0xbe005e20bd58334bU, 0xbc903b5cbd2dcda9U,
  0x3d1e9e89bda598b1U, 0x3c55aec0bce31859U, 0x3c6e984fbcc12d4cU, 0xbda75efcbd1da21aU,
  0xbc3aad77bd823dddU, 0x3c6fb6763c2a3f6bU, 0x3c50d1eb3c49c2d9U, 0xb9aef380bc6725b1U,
  0xbcb0e566bbfcc826U, 0x3c1ef5143c94c596U, 0x3c1df1cd3bb585c2U, 0xbdf252dfbd374de8U,
  0xbc15137d3ce51c45U, 0xbdd9b89c3bf9e1f6U, 0xbe05e13fbce02eb6U, 0xbc5187a3bdb5e1ecU,
  0x3d2adea9be0c8745U, 0x3b8c41c2bd0d854dU, 0xbd1099c7bd8e2602U, 0xbd011d02bcf88bb1U,
  0xbc621313bdd01c90U, 0x3ad2bfb2bb04b3fcU, 0x3c2ef4383c25f16cU, 0x3b1ba4853d0290e4U,
  0xbc6742513c5d5fd4U, 0xbb95113ebcabf32aU, 0x3ce6d0a83cea64b3U, 0xbe22080abd3c70d9U,
  0xbd95d66d3d601a5cU, 0xbe106f3fbb21b67aU, 0xbe153dcebd3ff26eU, 0xbdba2f0cbdcaf803U,
  0xbcc5d4bfbc92fa1fU, 0x3d162d093be10220U, 0xbca727663bde901eU, 0xbc66db3b3d80097bU,
  0xbceec370bb958adcU, 0xbd1d6f0dbc2ba1a9U, 0xbc767784bcd3629bU, 0x3d7b26233d4dd291U,
  0x3bc9d689bcef80a1U, 0x3b7403673d6dd16aU, 0xbcce65053c953315U, 0x3b7fd1ae3cc7244eU,
  0x3c830171be78ab1fU, 0xbc94951b3cb2888eU, 0xbcb068ed3ca4b9d4U, 0x3bc25effbd00bc68U,
  0x3d7f7a17bb82146eU, 0x3b0f88da3d08f4f6U, 0xbc89c66abb467c28U, 0xbc89b7f63dd25bdbU,
  0xbd2fd54a3c7f4864U, 0x3bcbd41cb92b8561U, 0xbd4431263bc5714fU, 0x3d02ac81bce77e2dU,
  0xbc32155ebc90c92fU, 0xbb70071a3cdbea91U, 0x3b877e7ebc9eeda3U, 0xbbcdc162bc59b7b9U,
  0x3c59c369beab90f5U, 0x3cd54d54bae991e8U, 0xbc84d4863ce1d6afU, 0x3ba4613abcbf5675U,
  0xbcf6728ebbfed46bU, 0xbd5c9786bc010fb1U, 0xbdb0990d3cbc5c38U, 0xbc7c1c9b3dbb7fbdU,
  0xbd40657ebcf46aa8U, 0xbd9ef84b3b77913dU, 0xbdf7776bbd953b28U, 0x3c5777dcbd38a64dU,
  0xbc62dd66bcf58491U, 0xbd103553bcc248feU, 0xbd7d2969bd80f651U, 0xbbe132adbd7f260cU,
  0xbc015b3ebe8c935cU, 0xbd2ad21abce46903U, 0xbcd9575b3d43e60eU, 0x3b8bf12c3c22cca8U,
  0x3ce0da3abc3ce0ffU, 0x3a56e2473b973eb7U, 0xbba0ec95baddfcb4U, 0xbbc3220cbc9eb801U,
  0xbc4794ee3c30b0ceU, 0x3c1afa533c06a633U, 0x3c9827f33cdb84bfU, 0x3c0f8d1a3c0aed15U,
  0xb9abcdc43c2fb39aU, 0xbc3b5a873ae3a9b9U, 0xbc7166cfbbb2df67U, 0x3bb1ca93bd00719eU,
  0x3c04724fbd755dd8U, 0x3d809b5abb16771bU, 0xbb53bf243bc98408U, 0xbb07c24abc85b9c0U,
  0x3ca59158bcb1a0e4U, 0x3b9bbcf1bb29c58dU, 0x3c83dd7a3bd669f5U, 0x3cac8498bc913a0bU,
  0xbc69651bbc059d79U, 0xbc40579c3b239693U, 0x3c4e3a6e3c123801U, 0xbc256fed38a9f836U,
  0xbc27abc8bca40245U, 0xbbbe98a13befa0d0U, 0xbce158aebbcf38bcU, 0x3c3f4830bd01f958U,
  0x3c81d769bd9b1477U, 0x3d842776bc04fc2cU, 0xbc6ac9a9bcd3fbb8U, 0x3bf9ad9f3b2fc062U,
  0xbc1b05ebbbb29b1fU, 0xb9c322c03c211e31U, 0xb9aae66ebbe31de3U, 0x3c1b0fb7bcaa337aU,
  0xbcaac4dc3ba0db0bU, 0xbc0978093c596db5U, 0x3be656aabbccb715U, 0xbc6f4f5bbb2fb27dU,
  0x3c3313c9bb77c966U, 0xbbde63bf3adaf359U, 0xbb78a3a0bc94289cU, 0x3c78fb82bceb376eU,
  0x3cb1b4eebd922699U, 0x3e204cc2bc49ad01U, 0xbbe5ce273b0e7471U, 0x3cb5a2333beed7c1U,
  0x3c7505653d11ad47U, 0xbc8cf01dbc88a15aU, 0x3c57c2cd3cfb756dU, 0xba917354bce86ab3U,
  0xbc2d7bed3c899b6eU, 0xbd093460bc3efe5cU, 0x3c528b293ca52117U, 0xbc7de3f43c18b1cdU,
  0x392ab6343bfc51c7U, 0xbcb4c947b9a6c6a1U, 0x3d14fdfebd07840fU, 0x3bb1d99dbc144398U,
  0x3c5d532a3bc60660U, 0x3c156476bbbae245U, 0x3c413583bc43bb62U, 0xbb3e5b123cf4fd8eU,
  0x3cc8e0683d5c24c6U, 0xbcb25c75bc085eefU, 0xbb36bdb23c9a18f6U, 0x3cb310a1bd225a96U,
  0x3c7affce3be55f9eU, 0xbcc48067bcf021e4U, 0x3cb47ccb3c54b90bU, 0xb9b04c2fbbd9efc4U,
  0xbc5467c3bbe9fa6cU, 0xbcb0aac03b931a5cU, 0xbc2cb61dbcfbd04aU, 0x3be4e554bbc89b6eU,
  0xbbc550f23ce6428dU, 0x3bab24f8bc9cb261U, 0x3ca953a7bbcdbbb4U, 0x3cdb5790bc4ae58bU,
  0x3c5a8b193c8bc556U, 0xbc563886bcdf7a27U, 0xbb1a382c3ce79d73U, 0x3cb4f2a8bc66a3a6U,
  0xbc2bef383d3bdc10U, 0xbc8d3c66bd02efbbU, 0xbc9f33a1bb80d257U, 0xbc85105d3b85e193U,
  0xbc2a4c223b64484aU, 0xbd2c9288bc8a131cU, 0xbc16c0e1bd3ada36U, 0x3cca245abc98c932U,
  0x3bd3573f3ca6f818U, 0xbc08105abd15058dU, 0x3d380f6cbcae4eeeU, 0xbcfc8f593c9f5ec7U,
  0xbc7fefdebbbec002U, 0x3ca12f843c1ec2acU, 0x3beaaf6dbb9435c0U, 0xbcc8d22bbd01999dU,
  0x3d2f0430bc9e63eaU, 0x3b3b751a3cb03f43U, 0x3d39151f3ca6da34U, 0xbbb108623c97a8a7U,
  0xbb3ddd493c6904feU, 0x3c93503bbc614019U, 0x3cb6c82dbb8cd615U, 0x3c176c1cbde49daeU,
  0xbce5a93fbe03285eU, 0xbd964efa3c9fd590U, 0x3b9e82f6bb99e0c8U, 0xbc24bc7bbb5297a2U,
  0xbc54baa73c72b51eU, 0x3c276ae23b020f65U, 0x3be4e1c03c80b159U, 0xbc9735fdbd0ae9e2U,
  0x3b64d996bbba556aU, 0x3cc359ddb9b60313U, 0x3c8a3d5b3d00395fU, 0xba92602b3c3cb710U,
  0x3c86a0963bdd829dU, 0xbbbc8425bd03ce04U, 0x3cbc69f9bc5038dbU, 0x3b9f433abdffbe39U,
  0xbc002d3bbdfcac57U, 0xbd8441f73cef1657U, 0x3cedce60bd0bbf6fU, 0xbc92d486bc8f15b3U,
  0x3cc1a3e5bb753d5eU, 0xbce53f8abd01f515U, 0xbafc3d5f3c1095a3U, 0xbcab5247bc9e7b34U,
  0x3d4f9968bc2213a5U, 0xbd5685d3bcb90e76U, 0x3c5ccc3c3d053ddeU, 0xbaf095b13cacb5bfU,
  0xbd67de273b841d3bU, 0x3bde2647bc8c7e9fU, 0xbba951f7bc15d14cU, 0xbc8445dcbdd6f797U,
  0xbd013456bdc4213dU, 0xbcc04d91bc5971b0U, 0x3c60f4fb3b834152U, 0x3b91aee53ca5c0f3U,
  0x3c9a0d323cda962aU, 0x3c560848bc2b5c88U, 0x3c6c9f39bc10a061U, 0xbc5cdb7ebc41829dU,
  0x3b0d9d213cdaca6cU, 0x3ca529b43d3c8aceU, 0xbb611edd3bdd9d41U, 0x3ce2db653c92b61dU,
  0x3b507b3cbbe86c9aU, 0x3b70e53fbbbc06b2U, 0x3bb7ec0c3cb51203U, 0x3c9051d5bc7c098eU,
  0xbacebff13cdd0397U, 0x3cbba3183be30ed1U, 0x3c3c823bbc013edaU, 0x3c43f9c43ba90dafU,
  0xbbccf3c8ba593739U, 0x3cc44e39bc01291aU, 0xbc58b9313b00d50dU, 0xbc4b3f9dbc5aeae1U,
  0xbc2cbca23b72fccaU, 0x3caf62e03cbfbd0cU, 0xbbc0c2153b5aab9bU, 0x3c14598e3c878438U,
  0xbc85c40bbbcb66a0U, 0x3a620d6e3ca89eecU, 0x3be5d35d3c7b9465U, 0xbbe4fa23bd0273baU,
  0x3998757b3d0cc6feU, 0xbb15adc33c142353U, 0xbc77ba73bc50ad8eU, 0x3c1e3aa13a3a248cU,
  0xbc8e6b34bbd93b7dU, 0x3a14a345bbfa620aU, 0xbc79fb5cbb61ef43U, 0xbd12b217bc838abbU,
  0xbc04809cbc2efb99U, 0x3b45be45bb8d9a77U, 0xbce17d65bc8a86c9U, 0x3c438eb3bb9d9d66U,
  0xb9eae4a9bbea3ba2U, 0xbb6e64e4b901d011U, 0xbc33c9b6bbe16f59U, 0xbc704493bd1d880cU,
  0xbc28bce0bbfa7eafU, 0xbcd3bc3f3b9103b6U, 0xbcd1e72abc21e316U, 0xbc1d792cbbd84a53U,
  0xbd1187083ab7413aU, 0x3c1d4a75bca7f88fU, 0xbc49a67a3c3a69a1U, 0x3be4e5a8bcf571b4U,
  0xbbe357f43c22f280U, 0x3d549597bc431640U, 0xbcdd7ac1bd30e8a4U, 0x3b98756a3b36d414U,
  0xbb3d259539b9a7d8U, 0xbc818344bb644592U, 0x3cb5b1173b6d2fb3U, 0x39898c1bbe32b003U,
  0x3bc0bdd9bdeb9756U, 0xbcd230dcbc733a81U, 0xbbc24d48bc6f459eU, 0xbcb7b367bcd1d2dfU,
  0xbd639df23c0bf5f7U, 0x3bd6d879bb3e03a8U, 0xbd02340d3d860f48U, 0x3b5d65febcdd6bb4U,
  0xbccfc7dc3c6d2bcbU, 0x3c0f5a5d3bbafdc7U, 0xbd2ac18ebc37592aU, 0xbb17e427bafb49faU,
  0xbb91a6583c931460U, 0xbca7a3f4bb0899dcU, 0x3bbade6a3c905fb5U, 0x3d323dbbbe43c658U,
  0x3c9d8558bdb71b6bU, 0xbcbdb061badb084aU, 0xbd01f79838a40cc4U, 0xbc25a1603c131228U,
  0x3cc732a63cd17f46U, 0x3cf0c7133cc3e717U, 0x3d3bec473d95a28aU, 0x3b43b550bd784cb9U,
  0x3c960e963c466d30U, 0x3c75d6093c382f82U, 0x3ca11f573d266229U, 0x3d694a023d04db2bU,
  0x3cdb43183c082aafU, 0x3c2c1ae73c477552U, 0x3cbc0aac3cd6ebbbU, 0x3dbec285be056580U,
  0xbbfd0ab9bd92387eU, 0x3d2c58f03d07884aU, 0x3c374c9fbca5c096U, 0xbad246d039cd5383U,
  0x3cd4bdca3e4b5a1aU, 0x3deca9443e6085a0U, 0x3ec6c8ea3e9b3206U, 0x3f37b9b93ef4286aU,
  0x3e06b24c3d6f7bb5U, 0x3e6c73da3ed33dd8U, 0x3e999dbc3db6916cU, 0x3dd53e1f3eec34bcU,
  0x3e79e21a3f127c97U, 0x3eaa791a3e5dd9fcU, 0x3e7f5e203f03faeaU, 0x3e5595c73f47be64U,
  0x3ed93f4c3d324840U, 0x3e38e2bd3e50ee8cU, 0x3ee313823e7e348dU, 0x3de322923dea8793U,
  0xbe995c3abea689b0U, 0xbf4dbe95bef3bc3dU, 0x3dbc70b5be483b7dU, 0xbe83b3363f21a786U,
  0xbe12f59cbe88200fU, 0xbefba846be8f3be7U, 0xbeb89f95be3f6223U, 0xbed7cb4f3d76deb7U,
  0x3f34cedebe94b0b6U, 0x3e89bc23bd9df2f2U, 0xbf027e37bf206b31U, 0xbec3477f3f280462U,
  0x3f294409be96756bU, 0xbe9f3ec8be947cdaU, 0x3ea35aa9bf2c70d6U, 0xbe484e58be07e3a7U,
  0x3ee7d3f2bda0565eU, 0xbf46bc9dbe017702U, 0xbe044b7c3ef8d6afU, 0x3d523c4f3f76f26bU,
  0xbe5d1bd5be28a704U, 0x3d221f44be432605U, 0xbf555a513c81f898U, 0xbe4a83753d9ae91aU,
  0x3e806abbbf0bf151U, 0x3e984784be86fbcaU, 0x3ea809f4be348124U, 0x3ec5e3bb3f0021efU,
  0xbd1237f63dbbde40U, 0xbdb46ffcbc9731a6U, 0x3e00a1e03f1c3275U, 0xbddd1c54be2cfebcU,
  0xbd1f2371bd87a0d6U, 0xbe31fab7bee42626U, 0xbf09b7f63e1f8873U, 0x3eaf33cdbe12690dU,
  0xbeac9d1cbe96abadU, 0xbe2642403e1d9a5bU, 0x3ea3b0543eb3567bU, 0xbe197114bf470feaU,
  0xbf1d8163bf65b4e8U, 0xbd4348f6bf405b4fU, 0x3e0d0b763db0afbeU, 0xbe077240bf0686a5U,
  0xbf4689da3e17b860U, 0xbd1a316c3cc123c1U, 0xbedfe663bead5fa1U, 0x3d2ada0abde73625U,
  0x3d8cf9ccbe17a4b5U, 0xbc4479b6be01bd9cU, 0xbe1893eebe24ba79U, 0x3d26f828be0a2833U,
  0xbddc9f7abdbc1631U, 0x3dd8a1593c9cee48U, 0x3efef0033d201932U, 0xbdda5036be8c83a9U,
  0xbe8c5eeebe39f76aU, 0x3f579ef2be0ed7f4U, 0x3e8278e03bdf528eU, 0x3e24b60abe413b7bU,
  0xbe91b3293cc03abaU, 0xbd1290d73f1ced83U, 0x3edbd67c3c89f027U, 0x3d8b5069be825bbaU,
  0xbe18c73dbd6622d5U, 0xbdae8298bddd7970U, 0x3b092f12be9e491dU, 0x3d83ddaebd188db2U,
  0xbd32c4c2be39c8b0U, 0xbd4d2edb3d949f28U, 0x3ee9e9423e2797f0U, 0xbe33c813bdb2d04cU,
  0xbe2baff2bdccf696U, 0x3f82e4d83baf33e3U, 0x3dd0c3a4be25ed79U, 0xbdc16fea3cfe2e08U,
  0xbd07903cbe9a9bafU, 0x3bbcbe363f6f9733U, 0x3efbe237bd51a2ceU, 0x3dc05cc4be83cfedU,
  0xbe1d26083d3cefceU, 0x3ea24b19bddad13fU, 0xbd9384a6bf1df18eU, 0x3e3f7feebe8ab65eU,
  0xbdb89ccebe4189e5U, 0xbcbbfc783e961d19U, 0x3eae991c3e844d83U, 0xbd02cf313e29871fU,
  0x3d08aa7e3ca7ca82U, 0x3ffd410cbdb6de8fU, 0xbea0eae4be9b98ddU, 0xbed08a11bde35421U,
  0x3d3d9bd8be721de3U, 0xbd8a6dbf3fb821f4U, 0x3f282a423db7826dU, 0x3d6425febe1d5dc5U,
  0xbe200b95be174f59U, 0xbeb8107f3db15494U, 0xbbc05dc33e4b4e08U, 0xbe1178a1bd81e377U,
  0x3de66c863c00c4a7U, 0xbe842a313cdf0acbU, 0xbeb862b13e951bb9U, 0xbd6c741ebe5be119U,
  0x3ea10300be5d30bbU, 0xbeb9e232be468a15U, 0xbea008f23e96af75U, 0xbef714263caf5958U,
  0x3da1e4263d7a897bU, 0xbe979446bd4cc01eU, 0xbd9cc9e3be3feaf0U, 0x3e65a44a3d32f4d6U,
  0xbef62315bd2b01a8U, 0xbe0506c5bf2c32a9U, 0x3de81c983ebb9a7bU, 0x3e5ae91a3e783565U,
  0xbe03ee56bde770d5U, 0xbe554244be54615dU, 0xbf43adb53e24af36U, 0xbe9582be3e345f4cU,
  0xbd42e01abf23929cU, 0xbf26f7243dbecc69U, 0x3dc2cd7a3f120454U, 0xbe62fd3dbda6b758U,
  0x3e3b5f94be9834dfU, 0xbf045d9abf39b823U, 0xbf27686cbe2f2b1aU, 0xbe082b53bc08bcc9U,
  0xbf1b3240bea63a13U, 0xbea5fde7bf2e2842U, 0x3f5e0cd33f37d8fdU, 0x3e7ecb923ed9d129U,
  0xbe8424b4be3d924bU, 0xbe9f2e5d3d465a66U, 0xbf2212d73e9c8a50U, 0xbd8f6ab53ebed417U,
  0xbe0c63febebd18acU, 0xbf210992bd0b107eU, 0xbe8b3ea73f7a7268U, 0xbe65bf723e9fe019U,
  0x3f116feabea5fe87U, 0xbdaadb61bf91866fU, 0xbf1bac4abdbcfa3eU, 0xbe773c51be228522U,
  0x3d7023cd3e9e02e3U, 0xbdfef2b13e7dcebfU, 0x3d6e2a5fbcd333e9U, 0x3df7aea8be931577U,
  0xbd52fe1d3dddc5e3U, 0x3ddae8253caa1cd1U, 0xbdbb24c2be3333c1U, 0x3d00757fbe34ddffU,
  0xbeaf9af3bdbf379eU, 0xbe41906abadf9be5U, 0x3ced431f3bec787aU, 0xbd361f7ebe401c10U,
  0xbdd778093e28d44cU, 0xbe3c8bc9bd99f970U, 0xbe2c9a5f3de19d56U, 0xbc7bd1d33d9e10a9U,
  0xbd8741e03e0bcf8aU, 0xbe53a3cabe5d2b69U, 0x3c8a23973da66eb3U, 0x3df3bbcc3ccfb63eU,
  0xbe565b4abd201aecU, 0xbd452985bcb9be50U, 0xbe0e26acbe4ddfbcU, 0xbe5c904fbd4ad141U,
  0xbe2c4539be504fc2U, 0xbdf9c5de3ccf1b5cU, 0xbc927ddabd92df8bU, 0x3e1372423cacc2edU,
  0xbdaf507abdf9ff75U, 0xbeaeeac9bd4b90eeU, 0xbdd59e1abd47e134U, 0xbe1415c1bdcf92bcU,
  0xbd51ccce3e81c75bU, 0x3d834dc2be7b7a35U, 0x3ef8a94b3e906b91U, 0x3ded8ae63e0792b2U,
  0xbe881b093c44290cU, 0xbda2f7fa3c9170e6U, 0xbcf9dfc23ddf86b7U, 0xbe6b735ebeb01c76U,
  0xbea6f8adbdd13b1aU, 0xbd5664eebded854eU, 0xbd937717be0096e1U, 0x3e606ad63e217c29U,
  0xbe777b18be03bc07U, 0xbef69036bca1b0e9U, 0x3d74f9bf3def482cU, 0xbd7412b4bdb64096U,
  0x3e332f35bd0f08d5U, 0xbf0782f03e7be041U, 0x3e0b3d5c3e2cd474U, 0x3e166101be7273eeU,
  0x3ded04503e1b9bf8U, 0x3e8516c93dfdce0cU, 0xbf0aa30dbd99f8eeU, 0x3df00dc93e1e81cdU,
  0xbe1f682dbdbedabfU, 0xbf5762d73e15f35bU, 0x3d3017f5be86fff8U, 0xbe81b3f7be9712fbU,
  0x3d681cb63eab5658U, 0x3d54c858bf187055U, 0xbf2018883eeed00cU, 0xbd5366963e612643U,
  0x3cc1479fbe56e6c5U, 0xbede0f18bd46cc27U, 0x3e0db45cbdc3ba8fU, 0x3e9e0c4f3e231518U,
  0x3e84318bbdd07dacU, 0xbf1d9002bea3f932U, 0xbe106871be60710aU, 0x3e48f66cbcb58d9dU,
  0x3efb16813da851eeU, 0x3e1b14cabcffa7e4U, 0xbe05ca27bdfc5119U, 0xbec87ae93ef66143U,
  0x3f1d4813be61c09aU, 0xbd6abebfbd4eb3cfU, 0x3d0db9d5bf21e1fdU, 0xbd81ddc63e3558dbU,
  0xbee5d682bd1a8e19U, 0xbd85b9c3be9c1a97U, 0xbe57117abec2d148U, 0x3d3b54f33dc08858U,
  0xbe9e61ebbe2f149eU, 0x3ee52e02bd22bf96U, 0x39aa85bd3e4117d5U, 0xbe461a8b3e50261cU,
  0xbe91834e3dc86adbU, 0x3f68c3d53d1e5b45U, 0xbf0440103d43738eU, 0xbd80127f3d8d72b2U,
  0x3df29631bebe807dU, 0x3e4ba42e3f2abbf4U, 0x3ecf15633cc7ca48U, 0x3e96f2f1beefc92dU,
  0xbd5ab5adbba5243eU, 0xbd9d87723d109084U, 0xbdc3597abd3f4478U, 0x3d86bb91bdc943cdU,
  0x3d4d8678bc6fa518U, 0x3e2912453d276ed3U, 0xbc67a21cbdc38730U, 0x3c2afd15bc1857b3U,
  0x3d018724bd825990U, 0xbc5129263c786182U, 0x3d2062c7bcfb4d22U, 0xbe2ee44ebdc25989U,
  0xbc60d2debd930870U, 0xbca289a3bd6ca2b9U, 0xbd9ab8833cf56206U, 0xbd7cd1d03b964c10U,
  0xbdd7b059bd0ed946U, 0xbe097b89be05d9f3U, 0xbe404a44bdcc42dbU, 0x3c710eb1bdd92e52U,
  0x3c48916cbd8b2527U, 0x3d223691bdb4a2e2U, 0xba7ecd2fbcce3b5eU, 0xbcc0dd05bba7458bU,
  0x3d362bad3e3423aaU, 0xbadc28e33d94eb6eU, 0xbd85d9c7bd2c2d96U, 0xbe2eca30bca59740U,
  0x3d2b14b3bdeb19beU, 0xbcacea7bbcf4ff55U, 0xbccd3b3bbe836c81U, 0x3dfcd905bc81fea7U,
  0xbcc0f976bdf2bc6eU, 0xbe210a0ebe1d8391U, 0xbe835303be153dc7U, 0xbdc0bb5ebd86d78bU,
  0x3df33b58bdcfb9b4U, 0xbd81e74abdb9f998U, 0xbda8e745bcb5db92U, 0x3ca2b1833e24a07dU,
  0x3e7a3c2e3e606316U, 0xbd860a493ca491adU, 0xbd338c94bd28be61U, 0xbd607c8e3d572dc0U,
  0x3e3006b6bdcaf8deU, 0x3e053ac8bd46dac1U, 0xbcc9739ebe629899U, 0x3d57e280bbbb135eU,
  0x3d2392063c0636beU, 0xbe99838bbe079c2cU, 0x3dcf7eb7bcff851bU, 0x3dabf1a03d62d5d6U,
  0x3ddbbddebd12b9a6U, 0x3e472d2b3d38e5a4U, 0x3c83306abe3090a5U, 0x3d713d0abe1ab399U,
  0xbe031cafbbd67a83U, 0xbd1a165f3d3ca957U, 0x3e76c69b3bddd85eU, 0xbd98617bbe8709bfU,
  0x3d0b13983d255260U, 0x3d733c513d28c8cdU, 0xbe83123c3e7a2c94U, 0xbe74c2053d82865aU,
  0xbe8809923e870852U, 0xbe8416f0be96dfbeU, 0x3d41606f3d04a898U, 0xbdbba1543e0d5923U,
  0xbcda8e0c3d927420U, 0xbdb7c1abbe10080dU, 0xbe019fc0bd26e92aU, 0x3da310e6bdf87d74U,
  0xbd10677ebd650409U, 0xbe610ec83c83e7e2U, 0xbd8f57e63c1fa0ddU, 0xbe3ecb90bdb29310U,
  0x3efc2f66be2c85d7U, 0xbf4d2e40bdaa8383U, 0xbe8d69d13d556ce9U, 0xbec399143e1ab731U,
  0xbe8b83113ec9f9deU, 0xbdfa80473d5de33fU, 0xbe0f8de6beb3d56cU, 0xba87c784b9bff7aeU,
  0x3d4adb043d091f43U, 0xbedfb9cdbdcc4b0aU, 0x3c5f0e283e80771eU, 0xbdbb632d3d735db8U,
  0x3e4bcd533e04905eU, 0x3d34546dbced56e6U, 0xbf0d1e70bc8e6ad8U, 0xbdd0d38e3dbbf227U,
  0x3ee0df52bdeea01cU, 0xbeb938b43dc9d6e0U, 0xbd119fd1be7831fbU, 0x3d92afa93cd60f88U,
  0xbdabd8b8beddcf74U, 0xbf045db13d904d33U, 0xbe307e7dbf75b3aeU, 0xbee13489bb818589U,
  0xbe992084be9ebba3U, 0xbed18be2be205ed7U, 0x3f15e83e3efa6b49U, 0xbe9a75ddbe3c557bU,
  0xbd89a9463db445afU, 0x400c7905be1bbe32U, 0xbf2635dcbd97e2d8U, 0xbe35b2503f14abd5U,
  0xbd0e1444be553755U, 0xbe36fd6a3fc89429U, 0x3fadd8b1bf05750aU, 0x3ea7407dbe61f10aU,
  0x3d15e6303e8260caU, 0x3e2694a3be4f3288U, 0x3e890b3fbe545bfcU, 0x3f00033a3fa70cbeU,
  0x3e62443e3c286f4aU, 0x3e682e413f29e9d3U, 0xbf17162dbde67189U, 0x3f0a2727beca76e5U,
  0xbf49b56bbeb314f1U, 0x3f1b1ff93e346a39U, 0x3ea3ed1dbeabad66U, 0x3d63a9a93ebcde90U,
  0xbea4742abe88f054U, 0xbe7aed673f814c09U, 0xbbe9d80c3de72d54U, 0xbf5c69c43efcc7f4U,
  0xbe8d7c2a3e6d5624U, 0x3e114c9e3da16926U, 0x3ea61073bddc66bcU, 0x3f558210be87e592U,
  0xbcd352603e44004cU, 0xbd164a53bcd262efU, 0xbf92ab60bf1df520U, 0xbec128793f0c0725U,
  0x3e2a0f9e3ca21c1fU, 0xbf9fda3b3e6b6064U, 0xbe9a0d4dbecb4776U, 0xbe90b59bbe7e5feeU,
  0x3eba3b153bbef3ebU, 0xbdc48130bf8bc84cU, 0xbf61eb2d3e0ba4f5U, 0xbf4430d93df8b56aU,
  0xbd77ad06be0dc9b8U, 0xbe4eb7733e1c3ba3U, 0x3e9babdfbec64b4dU, 0xbed5be003f208987U,
  0xbe8d8a4abebec8b8U, 0xbe0eeaf43d7f32d2U, 0x3e647a693e251794U, 0xbee5c38cbed272c9U,
  0xbe1e76a0be912085U, 0x3f0e0b94bdf6070cU, 0xbc4cb2c3bdd9f623U, 0x3ec55a303f1701edU,
  0x3e4e10fcbed81436U, 0xbddcc00c3dc9f809U, 0x3f5a9432be2ba8a2U, 0x3e842ae7be1d3fbfU,
  0xbddd0e9cbf3f1850U, 0xbee6dabdbdf34dd7U, 0x3ddf81553e78f762U, 0x3ed4aad43ec5e2f1U,
  0x3e88aca8be56f5a8U, 0xbe252f0abc7ba817U, 0xbeaa9dc73dbfdbd9U, 0x3c98aa743e4cd408U,
  0x3d22743d3e43c14cU, 0xbe0a7d6dbe5a4e8bU, 0x3d9e5eb63e603616U, 0xbca6e4bf3d0e3e9cU,
  0xbedc4addbe0e2dffU, 0x3e9de47f3d001b71U, 0xbe8edb89be8a7a75U, 0x3e3c0b16bd30b9baU,
  0xbd232514bd2a993dU, 0xbe7d9911be090f91U, 0xbf4529e8bf082eaeU, 0xbe256442bead95e0U,
  0x3e2880293e7261a1U, 0x3dc4d4abbe53a410U, 0xbe057565be19964bU, 0x3d9b20b73cb1f480U,
  0x3ea1b2013e9b8303U, 0xbdd584ba3e48ee0fU, 0x3e0b883bbea9731cU, 0xbf3bbc5dbe1b7483U,
  0x3ce87e2a3de4782cU, 0x3e0c9742bdaa7850U, 0xbea70079be826d1cU, 0xbe6dc6f33bf688cbU,
  0xbd9d1a873e649b46U, 0x3d49241dbda6b699U, 0x3e139b9dbeba9e15U, 0x3eabb559be0608afU,
  0xbd9026c2bd16a2b5U, 0x3d557b31be411f23U, 0x3d8fd4a8be88b879U, 0xbda024b93ed6dc14U,
  0x3e641625beff7cb2U, 0x3dbce670be0f3149U, 0x3dbd5773be6c9544U, 0xbe914d28bd0aa6b3U,
  0x3ebf5b59bdf28c82U, 0xbedbcd77bd98f786U, 0xbe9fcb5ebd4a904eU, 0xbdb01d003cb7504eU,
  0xbe8329c63e9eee8eU, 0x3e57bd6fbd7f8a26U, 0x3dbb079ebf26dc96U, 0xbed6136a3e963278U,
  0xbe808b4dbc17457fU, 0xbee3b397bece453dU, 0xbe19350d3dd43641U, 0xbeb780b13d7452e8U,
  0x3e093b52be6ae54dU, 0x3e365ef9bdd0b350U, 0xbe947570bf21c4f0U, 0xbde0f3c33ea60278U,
  0x3f3b4cd7be82aac3U, 0xbf02b82dbeac69e1U, 0x3eb16e76bde7023eU, 0xbc00c438bdf5bcf6U,
  0xbe3358b6bd0a874fU, 0x3dceddefbd3a7aebU, 0x3e05903e3d7a4fefU, 0xbf13d1923f5c9cb8U,
  0xbe3a73edbe6e74dbU, 0x3ea405b23e337f35U, 0xbc1e95203d9fc35cU, 0xbe8d73d5bbb38d8dU,
  0xbdefd0d43d8f10aeU, 0x3eca294abcf5336fU, 0x3c947e6abe488d14U, 0x3e995af33f0fd5e1U,
  0x3ee9c33fbe0213c8U, 0xbcb465eebe117651U, 0x3f275ad43e09b810U, 0xbe0ec97bbe47f035U,
  0xbe159e88bdb4e7c2U, 0xbc56a5f1bd315e8aU, 0x3d0691823dae1540U, 0x3d820f113e3edcebU,
  0xbe17c337be74f63bU, 0xbc59d459bdb2bfd5U, 0xbd93f217be12ed10U, 0xbdc10acd3dceb9daU,
  0xbe5d4518be86e1d2U, 0x3d13a72a3d809072U, 0x3de08259bcf91bdaU, 0x3e0b9144bc723ef9U,
  0x3e11b28fbe718059U, 0xbda5b0623c5c557eU, 0xbdd4fcf6bd1dd34cU, 0xbdac007dbe27fabcU,
  0xbe4032f43e3738aeU, 0xbe874f46bddce289U, 0x3d63cf493c474132U, 0x3d4c09d03cc13268U,
  0xbb8bf446be4c4f9dU, 0xbe8c6391be2f1975U, 0xbe469bad3c5827fbU, 0xbe3c371a3dc19b35U,
  0xbdf5bffabe645f7eU, 0x3e89b39f3dc7e02dU, 0xbdea43b9bdd3bfbaU, 0xbde82f693d003ea8U,
  0x3e0b44fabe984290U, 0xbe9ca4413e19cd2fU, 0x3d12a42dbe29acffU, 0xbcd128c1bc6f24ceU,
  0x3d0c50403dfae1b7U, 0x3dba3bec3cffd627U, 0xbe836d0abda7209fU, 0x3d67c4b9be6e9e9fU,
  0x3e3e5b21bdd4da1dU, 0xbe9e29eb3d18a142U, 0xbcda95e83eefbeaaU, 0xbdc8876dbdd1f009U,
  0xbe63ab503e41bfc9U, 0x3e28e624bd2769b4U, 0xbedb98e9be347ee0U, 0xbe1e38e1bd998a7bU,
  0xbec87bcf3e09822eU, 0xbd8d30c33a2d1635U, 0x3e9a0bbbbdd4ea8eU, 0x3ee177223e78aaeaU,
  0xbdd268a3bea26f5dU, 0xbe0240fbbece89c2U, 0xbd6d98623ee68a8cU, 0xbe6c2c3a3d76dbc5U,
  0xbeae5f24be95c43aU, 0xbd3fa8423e916e52U, 0xbe0f64fcbee13b4dU, 0xbdf7701abf09696aU,
  0xbf14ffbebe17d8d1U, 0xbef3a9c6bee81458U, 0x3d8ae6233d506344U, 0x3eaf3ecb3de77a14U,
  0xbed78d92bebad891U, 0xbdf02fe0bef69836U, 0xbeb6ac0fbe17953bU, 0xbe9c7c57bed9f724U,
  0xbd901fdb3e43e310U, 0x3b665f42be543e61U, 0xbb2f46783f0bc6e3U, 0x3e25ae863f14e4ceU,
  0xbd1bc715bd97c6d1U, 0x3d812dd13c4e5478U, 0xbecebdc3be98012cU, 0xbe1892dbbe822e13U,
  0x3db9c7eabc58e53aU, 0xbe933320be6c3d3fU, 0xbe826106be23e751U, 0x3e952f5d3ecf14e8U,
  0xbe5a0f80be287319U, 0xbeb34f37bf0a8c41U, 0xbde589fabd78d19fU, 0xbebdd1ddbe2be396U,
  0xbdb5e6913d26c370U, 0xbf1584ca3daf1149U, 0xbd6833363f0c574aU, 0x3efdb4993f2067ddU,
  0xbc806079bdb06e37U, 0xbe95ff8fbdda426dU, 0xbd08d693bb94dbc4U, 0xbe547734be8a5e9aU,
  0x3e6effee3e4d690aU, 0x3ee69129be394112U, 0xbe3dfb583eb747d3U, 0xbe6f3dab3ec65c40U,
  0x3eb077c9bdbf71f4U, 0xbdeb24453dc22e2bU, 0x3eab5fd4be3f0170U, 0xbbcdd57abd591470U,
  0x3d0b0162be985e24U, 0xbe68b8d53d7256faU, 0xbda8877fbdd01b57U, 0x3abf20e83e1df3b6U,
  0x3db98763bc92c7f0U, 0x3dba9eab3d8c515dU, 0x3e2b115abc1fd997U, 0xbd8a7b88be27905aU,
  0x3cf5372dbe9e5552U, 0xbe064e06be78ee21U, 0x3d6afb29ba0ef288U, 0xbdb44fb8bd964f97U,
  0xbe91ba803d854ba9U, 0x3e7308663bd3b1f6U, 0xbee9fc9c3e019b9dU, 0x3e587e803cee5b23U,
  0xbe4ff3bc3d80c610U, 0xbec3ae1abccf7927U, 0x3dd8e6dabb12107bU, 0xba54e21c3eb364b7U,
  0xbdffb3d1be210f6aU, 0xbe5a3b33bef93dc1U, 0x3d17ebdebf214dfeU, 0xbe01bd7f3d2a6764U,
  0x3e33cd37becd737fU, 0xbd0c165fbea9479dU, 0x3e0425b3bdb5c167U, 0x3de355993e7c2872U,
  0x3e425444be44789eU, 0xbde20a9cbd00f781U, 0xbd1f5e23be38a7a1U, 0xbe7b74c1bdc8683bU,
  0xbeab93763e9f6ed5U, 0xbed178cc3c223a4cU, 0xbe2fdd17be12e79bU, 0xbeac60a03e54ced2U,
  0xbdee26fabc4c8a0cU, 0xbf0b0668bf51f0ccU, 0xbd86f2c2bea33ed2U, 0xbe612292bddb9d8eU,
  0x3e1dafd8bf1d5183U, 0x3d49b957bcf3a9abU, 0x3bd8ff61be9e903aU, 0xbe067dab3e88800bU,
  0x3eca204abe8f82faU, 0xbecaed19bd274be1U, 0x3e98afa8be390ad7U, 0xbe9482f3be3d4d3aU,
  0xbd1ab7b3be4f8ec2U, 0xbe9611603df284d6U, 0xbdb31087be1e7d2cU, 0xbc0692e3be771c9aU,
  0x3d59c1923c938c65U, 0x3e2861b13db671a4U, 0xbdb2a3d8be0c2717U, 0xbc6a2ed53d79bbadU,
  0x3d81fb9ebe362104U, 0xbd3a4304bc37a807U, 0x3d811672bdd0d07fU, 0xbd44570fbe3b8d79U,
  0xbcbdbe4c3dd5333aU, 0x3db7a2f7bda09b89U, 0xbdde99c23dd0f670U, 0xbe3bde16bcf1d51eU,
  0xbe08a3cabe404cf2U, 0xbe0107673debe6acU, 0xbe867416be02a38bU, 0x3d8210c8bdfa3906U,
  0x3d646ef83daadc00U, 0x3e2215583d50393eU, 0xbc498966bd895f1fU, 0xbc93f2f4bceae4aeU,
  0x3c496d5c3d2ee137U, 0x3d71ba733d74de5dU, 0xbd8d2297bd925c9dU, 0xbea49e47bc05c8a1U,
  0xbccb5a213ca00306U, 0x3e14c3d7bd055b1dU, 0xbc9400b3bddc48e8U, 0xbe0d055d3d86195dU,
  0xbe06ff66beb6da7aU, 0xbe2fc8ddbcac0d75U, 0xbdb4d1bcbe0a0a46U, 0x3d90a67a3dacadeaU,
  0xbd36ce92bcdbca6eU, 0x3dcc683d3d30d4a6U, 0xbc664bd53dfd28dfU, 0xbd84892fbdbd8120U,
  0xbe6115403df40039U, 0x3e7a25a03e0591aeU, 0xbe166b14bd2432c9U, 0xbea916643ccf6684U,
  0xbd5704e4bd4fcbf6U, 0x3e039f1fbc9091fcU, 0x3e39b56cbe99ccb9U, 0x3e29bb7fbd7c4e95U,
  0xbe0c62b53e2113eaU, 0xbe7a4f4b3c1a86e6U, 0xbe3f130bbe5848c8U, 0x3e7ddfb5bd20e23bU,
  0xbd645ce1bc827f23U, 0xbe7f0a92beb13012U, 0x3e0e9829be1bd8eeU, 0xbe7cf4cc3d913a9cU,
  0x3e0f533f3e7a04faU, 0x3d9e6a0a3df9b9f5U, 0xbec3c31c3dda7bd8U, 0xbe9edd0d3e0357fcU,
  0xbe02a2bdbe14515fU, 0xbe6d85953d927af2U, 0x3c97c0a4beb34ecbU, 0xbe09976fbc9a6aeeU,
  0xbde68207be134b41U, 0xbda609df3ddce5c0U, 0x3d041078bdc88d35U, 0x3e9a9d123f0367dfU,
  0xbde9d1fcbe71d433U, 0xbe193c92be770532U, 0x3e737ea8be9bf725U, 0xbd3d622cbe2d77b4U,
  0xbdfe8273bdc59490U, 0x3e9cf0b23de45b60U, 0x3de7fb6a3e072ad6U, 0xbd0c9ec2bcc7cbcfU,
  0xbddba8debe8e5c48U, 0x3e0ec8163e305030U, 0x3da204dfbeb19105U, 0xbe015253be25a56dU,
  0x3e4ff32ebe805160U, 0x3e014bc7be0ef625U, 0x3e0b4d5c3e6cc62fU, 0x3e4071823eae2101U,
  0xbda28a1ebdc5b523U, 0x3d27cfebbe5cdd34U, 0x3d203f52bd589982U, 0x3d93c423bc0730dfU,
  0x3d4a8f663c033c79U, 0xbeb98d74be81e334U, 0x3e16a997be298f99U, 0x3e62986dbd21d352U,
  0xbee8bcd93daed945U, 0x3da55a36be6ebe65U, 0xbed1d44c3dd06554U, 0xbe151e16be2b4c76U,
  0xbdfe6b15bea254eeU, 0xbeae65d8bde23c12U, 0x3e8ae5063e9fb354U, 0x3da542a1be3853adU,
  0xbe922e903ddbe804U, 0x3dfabb383e9cca59U, 0x3e9f46e03e9135b0U, 0xbc20ca61bef223b0U,
  0xbf1d68bcbc6a6a33U, 0x3d9b87f03c75d1a5U, 0x3c8cbe363d41339aU, 0x3e670399be9447baU,
  0xbe87ef543d43f17eU, 0x3da4c0a9bce7b81eU, 0xbe4993013e711176U, 0x3dcbd1fdbbd44023U,
  0xbd31b1c9beb61bb9U, 0xbf7f5e283e1cd89aU, 0xbeb9e2703d97cd86U, 0x3d114e163e6bc3d9U,
  0x3ca66ceb3e3d31bbU, 0x3ec4515a3deeabbbU, 0x3cf16eee3d208627U, 0x3e619aefbed41339U,
  0xbe2ffee13d2a0968U, 0x3e9d5852be04656cU, 0x3d6433073eac094dU, 0xbe53190e3dd97b8aU,
  0x3e80bbc43e195da0U, 0xbcbf82ca3e003221U, 0xbe3ffcbd3e98759aU, 0xbd73393b3e140bbcU,
  0xbe2fd2293d851be0U, 0xbf1dfe38bccc651bU, 0xbe92333ebf3da3a6U, 0xbe8fd4cc3efff98fU,
  0x3dfc5ce8be60065eU, 0xbf7f8387bf23f727U, 0xbd982f20be71cdf8U, 0xbdf3f1003ee0feb4U,
  0x3f078a183cb58fd6U, 0x3eba748e3c419340U, 0xbf048d82bd3382b0U, 0xbe4f5eae3f46125aU,
  0x3f26a5ddbe415167U, 0xbecdef84be28cd72U, 0x3eda9becbf277524U, 0xbd8eee573d04a875U,
  0xbd7d76ad3e44c64cU, 0xbd8899e63e129f11U, 0xbe0dbf2dbe8ad9e6U, 0xbea49938bead383dU,
  0x3e8941b13e205f8fU, 0x3cabd28dbe95264dU, 0xbe2a46b7be8792eeU, 0x3dc36e2c3d3eba89U,
  0x3dc0ad5b3dcbf78cU, 0xbf096dff3e121914U, 0xbb27a84cbe9d97b9U, 0xbec5d992bdd15c7aU,
  0xbb8993653dac2760U, 0xbccd708dbe3c3cbdU, 0xbec8beb7bd8ebb8cU, 0xbea9c01b3bc09e45U,
  0xbcd71e893e8b1d41U, 0xbda31755bce0c851U, 0x3ce3180cbdebe2ccU, 0x3d28625f3dffdcb1U,
  0x3dc57d21bb00f5d4U, 0xbabe197dbe1f1d6eU, 0xbc19b3dabeb580c5U, 0xbc4022073d9a4a60U,
  0x3e0020d1bd4c5aa4U, 0x3d46932e3da1c67cU, 0x3e22e310be3e81deU, 0xbe81d29bbd43819bU,
  0x3e25f62abddfaae2U, 0xbc3736813dc576bfU, 0xbdee42e2be8ee7f0U, 0xbe5d9120bdbb1871U,
  0xbe2008cc3e17276eU, 0xbe6f97f7bdafaaf8U, 0x3e1b36693cfa61adU, 0x3d3205a93e7129ceU,
  0xbddfd959be23c694U, 0xbe85df72bd7bf8e0U, 0x3ba97fd4be241fdcU, 0xbe2d7f383c68b6b0U,
  0x3e37fc9cbe21408aU, 0x3eb3970cbda399bcU, 0x3e03e20fbd9a0350U, 0xbe3325b93df25387U,
  0x3e9879d5be87d571U, 0xbda0060d3db2d103U, 0x3ea9923bbef9d6f6U, 0xbe51f08cbe37395aU,
  0xbe2bd7cebdbfa33fU, 0x3dd336f0bd930701U, 0xbcf8618fbe1933c6U, 0x3ea5b5813e005e00U,
  0xbec2685bbe376426U, 0xbd79ca4e3e454f81U, 0x3f0c4291bc2cdca0U, 0xbe54035ebe670c30U,
  0xbef8147e3da767bfU, 0x3f32aabfbde99c4dU, 0xbe83078a3e76a157U, 0xbdbe437d3d2fc0bbU,
  0xbed29131be8267cfU, 0xbe125db23f343545U, 0x3e8aab7dbe5411cdU, 0x3de1e173be8d901bU,
  0xbdecd463bd9e5e54U, 0xbd77eda93e2386c3U, 0x3dd2051abf451d42U, 0xbe8a27583d89da90U,
  0xbe58cb20bd738d82U, 0xbec548343e12959eU, 0x3e41e98f3eaca3ccU, 0xbf046e26be3fbba4U,
  0x3e35d8f2bc999b34U, 0x3fa9105bbea10c6fU, 0xbf39187dbefd80c0U, 0x3e45911c3eca324bU,
  0xbe2564813c0cbd71U, 0x3e5032513f537f3bU, 0x3ef19faf3ce91933U, 0x3dc1dd08be308254U,
  0xbe491d703dc07fd0U, 0x3edde05cbdf52baeU, 0xbe39f395bf3a6965U, 0xbf01d3603e2686fbU,
  0x3d765b783de81a1bU, 0xbdcea09abbd340b8U, 0xbda64b42bce9bdafU, 0xbc70ddc83e6be4b5U,
  0x3e90625dbd6c11a1U, 0x3e80a0fe3d2fd89cU, 0xbd166e72bf55fa53U, 0x3d9280253e5c6fe9U,
  0x3e30d74a3dc9d8daU, 0xbc6439833d1cf22eU, 0xbe03d45f3c3fcf01U, 0xbcac74c0be104d31U,
  0xbe61d0273deca1c6U, 0x3e087d443b4c2ddaU, 0xbd4285033eb81e1aU, 0x3ea049e33eac4824U,
  0xbe84c059bda038a2U, 0x3d94ac143e83a55cU, 0x3e65d74a3cbd9c74U, 0xbebe7a85bd318100U,
  0xbe580ddf3d6fc388U, 0x3e904d2d3938e717U, 0xbeec285f3f2ee663U, 0xbdf915b4bc1d5aeaU,
  0x3d0cbbb2bd9873a8U, 0xbece038f3e622d76U, 0x3e9f79ad3dbf5a96U, 0xbe8e6f62be6d47a9U,
  0xbe0ef591bd974688U, 0x3d12c816bd5e5947U, 0x3dd9ee153e306057U, 0x3d1c50dc3da4ac12U,
  0xbe325daabd9b64abU, 0xbe2a22b93e4ad226U, 0xbdb983fd3df9d232U, 0xbec7960fbca9f869U,
  0x3d0896523cd54d01U, 0xbe12e0e13cbcb6cdU, 0xbe9a82853eb1f25bU, 0xbe530ec8bc8bcbffU,
  0x3e59f178be1ceadeU, 0xbeafdab4bd850191U, 0x3d2f12dcbd89666dU, 0xbee79d35be314c12U,
  0xbdc51aa1bec5d332U, 0xbc6bb7f2be1aa6d0U, 0x3e761674bd84f5b2U, 0xbe9acd6a3eb2a855U,
  0x3ced11953d1e01cbU, 0xbec2e8a8bc8efe4eU, 0xbe9a25efbd3eac18U, 0xbe03f53bbbfbde42U,
  0x3e8d981dbb2ccd77U, 0xbf11ee1cbcd1340aU, 0xbe9d74043e462f56U, 0x3bc8a1803db4516bU,
  0x3dd6750f3d0c4199U, 0x3dcbe698bec055eaU, 0xbdfc9299bdc22062U, 0xbe5287cdbe2033d4U,
  0x3c916ab4bd5bebe1U, 0xbd259dd8bd878da6U, 0xbe252b06bd1d4c28U, 0xbdbe50f0be0d7f5dU,
  0xbc2c02a83d68a937U, 0x3bd863763d6690ceU, 0xbe11ca593e817cf7U, 0x3d559e423d9973a6U,
  0x3d808c40bc431c0cU, 0xbd4b5839bdb5152aU, 0xbe096675bd730f28U, 0x3db1b690bd7fba1dU,
  0xbe1e2a8b3e12c8a9U, 0x3c484773bd720464U, 0xbd13dec5bc04b035U, 0x3d49c4043baaef66U,
  0xbd47f232be3f1620U, 0xbb51f8093d845de2U, 0xbe100780bc1af7c9U, 0x3c4cb74abd53aa4aU,
  0xbcba38983dc4f54dU, 0xbc68908d3db19921U, 0xbdbf5ee43e2d804dU, 0xbd0498843cbdc602U,
  0xbdb03f1a3cc6308aU, 0x3cb51eaabdd1d398U, 0xbebcf76dbca419bbU, 0xbd319c3d3d4a8d01U,
  0xbdeac2dc3d1fbc55U, 0x3bb3596abd4f0ee3U, 0x3e310f523cd8b8d6U, 0xba1244053da62c41U,
  0xbd94d540be918cb2U, 0x3cdb5595bccbd852U, 0xbe2b2512be12e5ccU, 0xbe43a86ebe256c0dU,
  0xbda56ad43cf30885U, 0xbd0d3f923d79f03eU, 0x3d4f74373e24a057U, 0x3ab26493bdd2f0f2U,
  0xbddec4273d619ce1U, 0xbdeec600be4fb789U, 0xbe91004dbdc824f3U, 0x3ce190553c1bcad2U,
  0xbe8737cb3dc1753cU, 0x3e6b0545bdcfb14dU, 0xbd662ddfbc806d7cU, 0x3df42bdf39b3d565U,
  0xbe0aa2813e76ebacU, 0x3e9c128e3e035f07U, 0xbe0edf1a3c5e3f5cU, 0x3e23eb773ece2b4aU,
  0xbe8060ecbe21046aU, 0x3d9855623e848a75U, 0x3e6b79473dd04954U, 0xbe8980f13d17efb4U,
  0xbee5d5243e1730a8U, 0x3e046065bdbbaec2U, 0xbeb8c8e43dc97fa1U, 0x3e9f8727be80b143U,
  0xbcdb1a7dbe0d7f80U, 0xbe9d95e3bdb2224cU, 0x3e88d4333e286d4eU, 0xbddcaab3bc390443U,
  0xbc7e6e1e3e4d5863U, 0xbd8fd7d63d559110U, 0xbebf0897be114be4U, 0xbe65e321beb5002dU,
  0xba1e17fd3d2b3852U, 0xbd3dcc25be9fcb04U, 0x3c1c6e5f3c5946a4U, 0xbd9e1410bd7147b6U,
  0xbea40faa3e550b2dU, 0xbe5528cf3db7ab00U, 0x3d5bbef7be80891eU, 0xbea0b80abeef1905U,
  0xbe0ed232bda91559U, 0xbef55f2bbcaf41d9U, 0x3be4ff163d1ff566U, 0xbda969893cdf369cU,
  0xbe7390453eadf5f0U, 0xbeada915be9da672U, 0x3e1e1ef4be2c32c0U, 0xbe8916d2bd26ebaeU,
  0x3c479507be4e84b9U, 0xbebc80d6be00d732U, 0xbe184dd2bde761a7U, 0xbe510da0bd30cbd6U,
  0x3dac253ebca29d15U, 0x3deb428f3db818e3U, 0xbe0a0af0bea1c5faU, 0xbe7e0be6be199663U,
  0x3e463aecbeccfbd4U, 0xbf324ccdbdb49a71U, 0x3eadbe21be8f58cfU, 0xbe91dfb5bd1e2a15U,
  0xbba69e033e0b3833U, 0x3d97a8f23cdf4f91U, 0xbeec27b7bed592feU, 0xbea2a198bd3fd638U,
  0x3d32cc9a3cc29fcbU, 0x3c8db8e73e4e5330U, 0x3ea0a8e23e59bd57U, 0xbd31a35fbe8030e3U,
  0x3e52b2e63e9e4c81U, 0x3f1bc6e3bd93509eU, 0xbe8c61f43e3da0a5U, 0x3d7f541e3e16375fU,
  0x3dc308053d5e316cU, 0x3db40e663f310726U, 0x3effabcdbe04cc89U, 0x3e4d1b693dfa84f8U,
  0xbe096fc33ee9e312U, 0xbd91e741becef703U, 0xbe43bcb1bdc88763U, 0x3e2c9e2abe19d602U,
  0x3dcae615bdbc3502U, 0xbda3acf4bd50f59cU, 0xbe8ef01fbc86790cU, 0x3d80a0123acbdeb6U,
  0x3d1a22763d3699f5U, 0xbea941943e09cf5cU, 0xbd6bbd56bb8dc335U, 0x3d0198d1be2b00ceU,
  0x3e5d74debe6d4362U, 0xbf307400bda81437U, 0xbf220b54be7596f9U, 0xbea44e393df4a2afU,
  0xbeb9436a3e868c6bU, 0x3ee6b363bef78adeU, 0x3e0ce6783d5ae1d1U, 0x3e63f2bfbbe2e9ffU,
  0xbe324b13be03eedbU, 0xbe8d2738be228a42U, 0xbdf7c7493daed221U, 0xbebf9da73da9b6a6U,
  0xbe32caf4be8a2a51U, 0xbf2da9a5be058d9dU, 0xbe0c11043eba4048U, 0x3e9bf5cebdba763bU,
  0xbca0a506bec1d6a7U, 0xbf058c32bf0a7f71U, 0xbeb3128bbe980d66U, 0xbe810ad5be56ac6bU,
  0x3c6091b23ddda3f5U, 0x3e593f8c3dcd0cc7U, 0xbe82809dbda405cdU, 0x3dcd1f38bebffe0dU,
  0xbe8f87d73b958096U, 0x3e4417683c992521U, 0xbda45d86bf86c7a6U, 0xbf1946b4bdbacb8aU,
  0xbf14b8303e3698feU, 0xbf7c41883dbe23f8U, 0x3ddd7d153ea7adb6U, 0x3e74bf8fbedfd1adU,
  0xbd0e6721be36ba2aU, 0xbec69152bf3b959cU, 0xbeb0b2f73e937eefU, 0xbf86546ebeba67b4U,
  0xbe99af063f1132aaU, 0x3c8d39dbbc84e5efU, 0xbf3087a6bd83b907U, 0xbe8563fa3dcc0bedU,
  0x3e0b8cb4bdbb1b55U, 0x3d7462ae3e2a76ffU, 0xbdffdc82be8c5581U, 0xbd8a83c4be30a02aU,
  0xbda607a13e698653U, 0xbe1c17163eb16518U, 0xbe2ac79e3d4587bbU, 0xbe73a2ea3e9f7a41U,
  0x3f252c19be10adf6U, 0xbec5e06dbea80d3bU, 0x3f198544be8e9536U, 0xbf1e3557bd8502e9U,
  0xbdce5c213e98d0ebU, 0xbeb2945cbc9e1c91U, 0x3cca7a3bbd94fe13U, 0xbe2b98c83f309b52U,
  0xbea7e206be3b6dcaU, 0x3bc5d9803eeeaee6U, 0x3e8a12703edc8573U, 0xbef414b5bc1adf07U,
  0xbed05c71bcd1f280U, 0x3f7dfe4b3c1efe6fU, 0xbeb821583e30c74aU, 0x3e08b3253e314616U,
  0x3f16ce4abe60f68eU, 0xbe9da1683efb46b8U, 0x3f4e4cbd3bbffb4cU, 0xbcb7702ebe345cf3U,
  0xbd613481bdb4ce39U, 0xbce795dd3c46411aU, 0x3e5525903e81d2e6U, 0x3cb5ef603e9351e2U,
  0xbe885699be10d5eeU, 0x3c9c2cf13e2b3dc8U, 0x3e21e6e23c39b41bU, 0xbdd52a48be75e3a5U,
  0xbe2b0c99be871d0bU, 0x3e221952becb0796U, 0xbe16f5923e19a878U, 0x3e4ad5663df0297eU,
  0x3e37807bbe29d1b0U, 0x3d1b8fbfbd4e0aacU, 0x3d9fd16f3e0935a7U, 0x3dbd1c8dbdf18227U,
  0xbdc1afaebe07e347U, 0x3d7b6562bcf76f67U, 0xbd42a6bf3b898adcU, 0x3e6967d63bd9cd02U,
  0x3cf7a02ebd9c27bdU, 0x3c67cccb3dea0bb4U, 0xbbf6119cbbdd20faU, 0xbcc0364f3e61c860U,
  0xbe234edb3dd95cedU, 0xbdc0cbdc3d545c57U, 0xbd8098f83da7025dU, 0xbd80a560bde49bd7U,
  0xbe19d4a2bd21c2ebU, 0xbdd59df4bdc4dc25U, 0xbe416724bc88812aU, 0x3cdf3b23bb89aaf9U,
  0x3da2e1a0bd7ecd67U, 0x3d27b946bc792d21U, 0xbe5293c8bedbe960U, 0xbeef39c2beb65793U,
  0x3e1c93fcbc171f83U, 0xbde3572dbeabad8aU, 0x3c84955c3db2d34cU, 0x3d156beebdac6d06U,
  0xbd048ac83e4f4cc2U, 0xbc99d6d73cdd7804U, 0x3c953f7cbe8ea006U, 0xbe6d93aa3ae9ecb6U,
  0x3da4b4d6bc815f5aU, 0xbd056422be37861fU, 0x3e189712be08a9cbU, 0x3dce05d33de89866U,
  0xbce682b7be3ee452U, 0x3b9d6183bd46d5c1U, 0x3e0254713e48da03U, 0xbddc9c693e53994fU,
  0xbdede1f5be196928U, 0xbde411083b086875U, 0xbdd07554be0f6722U, 0xbd2d5fbdbe398c91U,
  0x3d15d31bbe72bd96U, 0x3bdaef85be8602dcU, 0x3d499078bd72f660U, 0x3da512e83db6e0bbU,
  0xbcf9dc80be0f84f5U, 0xbd8a9190bd8343f4U, 0xbe02feb6be3b4279U, 0xbe24cda6be1fbffaU,
  0x3c2a5aecbe1c8f18U, 0x3d4e4c7a3c417071U, 0x3dd67aa2bdb878dbU, 0xbe8b4a943d00a09cU,
  0xbe537768bd995692U, 0xbd856c27be0fb0bdU, 0xbca89aeabdc67e57U, 0xbd529db0be86d75eU,
  0xbe0a84e9be82a14aU, 0x3d73c921beb2c30dU, 0x3d0b9069bd7e09fdU, 0x3e13bd93bd5c7a9cU,
  0xbd03d549bb8fcc16U, 0xbd801b47bd05f597U, 0xbc9f68e83d8a2321U, 0xbd00ac3cbd473863U,
  0xbdb7868abd8191baU, 0x3d2ac27b3e3c3bb7U, 0xbc93b339bdc2381dU, 0xbe841b7fbd900845U,
  0xbe1bb5993da5d13aU, 0x3e0755db3d725205U, 0xbe032cabbdd0af18U, 0xbe4687edbe87a057U,
  0xbddd1cc7be88f3d7U, 0x3da8c86abe98d380U, 0xbe0ed1febd52f417U, 0x3e130bc9bdfe8dd9U,
  0x3c0630f43e0254d6U, 0xbb230f703bbd13ccU, 0xbce5c9563e2bfd6dU, 0x3d036263bd2bf177U,
  0x3c98f487be047632U, 0x3d28a5783da57af8U, 0xbd0024cebe1e93c0U, 0xbe329c1dbd86eb36U,
  0xbde8e6e93d59aef1U, 0xbd9fad36bda2fc1fU, 0x3aba940a3e24ca04U, 0xbe05deefbdefa911U,
  0xbde77b47bde13d04U, 0x3d5814963bd75eafU, 0x3d91801fbd1a5c62U, 0xbb6c8dd23b8bca19U,
  0xbe30665e3da0eb44U, 0x3b300ffe3d56a328U, 0xbdc51a243cd6d326U, 0xbcebf767bd2d4711U,
  0x3cb6b3d2bc07bc69U, 0xbdabd9e83d74a3f6U, 0xbe2b012a3d01cfeaU, 0xbe37dfbebda7901eU,
  0x3c0e62ec3d0d9dfcU, 0xbddb05babdfe25caU, 0x3d87227dbd01baebU, 0xbd185fb6be7c4352U,
  0xbdfffa7bbd8dc99eU, 0x3d49d7453d5d0e1bU, 0x3d8d17eb3c938d83U, 0x3d45aa133cfed9efU,
  0xbe78c28a3ddf5205U, 0x3c1440873d181bf2U, 0xbdd8dafc3bb11e31U, 0xbdd093b0bcf546d9U,
  0xbd8bb066be418ac6U, 0xbd8e2827bc9aa2beU, 0x3cd61baebd7146f8U, 0xbe5f8a33bc34cb47U,
  0xbd3c207bbba93c48U, 0xbe5d427fbe26eb35U, 0xbc3f0677bdcf5cb6U, 0xbc97295dbedaad15U,
  0x3ca76fd3be932570U, 0x3d4d6d60bd055364U, 0x3e5722c83bc088c3U, 0x3d62a8ef3df9b841U,
  0xbe13adbe3d4def91U, 0x3d120a5f3d160966U, 0xbcfecbf4bd33bf01U, 0xbe94ea81bacf5da6U,
  0x3e82d5d23d1db21cU, 0x3d9a253c3ec73231U, 0x3f0a48723e046c46U, 0xbf2316f7bd02396fU,
  0x3e1831393e6544b4U, 0xbe0991423dc602e2U, 0xbe1e6bdf3ee272c5U, 0x3e0f68adbe296d35U,
  0xbed3e4dc3e15c624U, 0xb998580c3dd5f6ddU, 0x3db22258be4daa0cU, 0xbe157e52be3d2a1eU,
  0xbe7f94973e81201aU, 0x3e23df2fbdf7f2b5U, 0x3e5b4e1f3e15bf34U, 0xbdf5fee73e705568U,
  0xbe04a52a3beccbbbU, 0x3e8c8070bc09e4bcU, 0x3f2e600d3ef40effU, 0x3e6eb3bd3e546fa3U,
  0xbe9c1b78bcf94957U, 0xbd08add93e4cd638U, 0x3da4e0e9bd559103U, 0xbed03bce3dffbec4U,
  0xbd38017d3ddf9096U, 0xbda521b33e94374dU, 0xbe98efd63d697553U, 0xbd398bc43eb49be5U,
  0xbeb94841be1c677aU, 0xbe53659b3ddcc6b9U, 0x3e0ffce53de6a313U, 0xbe523b1fbe55689bU,
  0xbe68a65ebe63f658U, 0xbf1e92a9becfb391U, 0x3e2216df3ea7cd71U, 0x3f22bddb3d9b72adU,
  0xbe883199be58b44aU, 0xbe7b4d00be1c4314U, 0x3cf41a42bec7836aU, 0xbe9c61383d39b406U,
  0x3e121afbbdbaca0bU, 0xbca770b2bd830530U, 0xbea957d43e984407U, 0xbe0260853dc15d1fU,
  0xbdfe9aefbe98d8a1U, 0xbebf822d3e6c612cU, 0xbcdb2a9fbe491054U, 0xbeff23edbea4e4c4U,
  0xbde57aeabdf0c744U, 0x3dacb2dabd096369U, 0x3ea0d4963e9bfa16U, 0x3f2ebe883f734448U,
  0xbee56cc7be823e02U, 0xbd8c5fc23e94032aU, 0x3ee83eea3cc4d189U, 0xbe91c746beb27baeU,
  0xbf08ea76bd7f0a99U, 0x3f2e2ce6be15f2aaU, 0xbdf5834d3f55cb46U, 0xbe42e0f03ef1c444U,
  0x3e80ba49be5173d7U, 0xbd0778e63f2604bfU, 0x3ed1b00e3d8ea88aU, 0x3d8898aabe3c7b42U,
  0xbe442978be32dc5bU, 0xbe9c6798bde59f80U, 0x3e2c5de53e969ec6U, 0x3eb42ee23ef3e1f0U,
  0xbee41b6dbd192a87U, 0xbd56574f3ee0b44cU, 0x3e65979abda302c8U, 0xbe2a9e0fbef995daU,
  0xbf6044b3bed9e436U, 0xbe324d43be3de523U, 0xbe699c203bdb1e0fU, 0x3cf180fb3d4dddf0U,
  0xbedd90d1bd98e769U, 0xbd0dc4bcbe184234U, 0xbe86d609bdb1aebbU, 0xbdc67048be29c0c4U,
  0xbe48faa73e42e3bdU, 0xbe032ea23e0e3626U, 0xbe6a95afbde3002cU, 0xbedf32a3bed7ee10U,
  0xbd827e313e9f3875U, 0xbd431c86bdcc997cU, 0xbe5facb13db17b54U, 0x3d3cb8c0beff1b2dU,
  0xbeb9756bbe9c2736U, 0xbee1b8033d7bb3eaU, 0xbeb33806be409d2bU, 0x3b23769ebe4902f0U,
  0xbf04f1d83ea8f3c4U, 0xbcb6435ebe8ad0f1U, 0xbe4ea386bd38f256U, 0xbdd9e2723da6ed37U,
  0xbe99d97dbd8af805U, 0x3e099d46be02a4f1U, 0xbd5b431b3c9e27d1U, 0x3ea26e613e0a5d1cU,
  0xbe0511cabe7d7a60U, 0xbcce73f83e0d7f5dU, 0x3e8c2b03bd88e7ccU, 0xbe72eba4bb1b7254U,
  0xbdfb763bbe082cf0U, 0x3eca21ee3dc4b05cU, 0xbe882d253e06a9deU, 0xbe2602e53e33e9c5U,
  0x3e1c480ebe185ef6U, 0xbe8dde3b3e4b12c3U, 0x3d8a1e27be185c7bU, 0xbc211bd9be248f4dU,
  0xbddc9b413dd337a5U, 0x3d66556bbd341abfU, 0xbe6ff08bbe8980b4U, 0x3d19898cbdb5d47aU,
  0xbce4e98dbda90f6cU, 0xbd10d5373ddfc103U, 0xb9fc44f23dd7dcb8U, 0xbe1ccb16be568f76U,
  0xbe671e28bdc3c62aU, 0x3d9ac62fbde6d978U, 0xbe24ef8abdc5f06aU, 0xbe8a1030bdb1a08eU,
  0x3d91d6f93d5d74bdU, 0xbeffe6dabd5e1e60U, 0xbb6fa1b0be164b98U, 0xbd57b50f3c986db2U,
  0xbccf0fd93e341496U, 0xbe4e8e6a3dd5a51aU, 0xbe22d388be03209cU, 0xbd2b5420bdea2fbaU,
  0x3e46a3e23dd0b456U, 0xbae6ecb7bde2859fU, 0xbe1c4e9f3cb72c9dU, 0x3dec0586bcce166fU,
  0x3db977bf3d7b3503U, 0xbdfcda653dfb692fU, 0xbcc8a837bd60ae0dU, 0xbe3e85d3be5b22b9U,
  0xbde8538c3e72c70aU, 0xbeff9be9bd3dd633U, 0xbe12678a3c88a9faU, 0x3cee9b693e048566U,
  0xbe064f263e8e51a3U, 0x3dbb236dbe24d78dU, 0x3d2c736e3ea55202U, 0x3d72a6833daf95e3U,
  0xbd3e96f3be2b0cbcU, 0xbe7c248dbea6a71aU, 0x3d268406be6d7e0fU, 0xbd39d5d03e8ce3f4U,
  0x3c8aa8ffbf20e6b8U, 0x3e4dab483e6ba733U, 0x3e6a6e1dbd97a937U, 0x3c038ada3e4ded44U,
  0x3e83141ebe8d53b1U, 0xbecb9e173e3b57ebU, 0xbdc383b63b476635U, 0xbed58571bdf2dc8dU,
  0xbe0f1ddc3df042ceU, 0x3d341f0f3e13ff80U, 0x3df6fe593d9073abU, 0x3c228e963d7071c2U,
  0x3d9e8b38be0dbfcbU, 0xbed039d5bd6772a7U, 0x3e5c113b3eb19170U, 0xbf03d77abe862bb1U,
  0x3b4db827be436ff1U, 0x3f158c67bd83b436U, 0xbecc88c3bdb8a41cU, 0xbe0a62413dcd1d53U,
  0xbe2ece44bd2f657aU, 0xbeebf32e3e842869U, 0x3eed67f2be8803deU, 0x3e361bca3d8553e8U,
  0x3bc168c5bf1ede72U, 0xbda23c443df99a39U, 0xbe89765dbeaa22e6U, 0xbdf3dfb5be0c3226U,
  0x3ddd7dad3d5297dbU, 0xbddf2ddc3d4b9cccU, 0xbdc810023ea7ab2fU, 0xbe80dd8abec325b2U,
  0xbdca55d63ed6e6ecU, 0x3c978109bd32479dU, 0xbf08e5bdbedb285dU, 0xbe180fc53d9fb8cbU,
  0xbf4293f43dbf98dcU, 0x3e12a24cbe0990abU, 0x3e40a297be9635ffU, 0x3ebe52a43df8fb99U,
  0xbdfb9a57b9e39f49U, 0xbeea00f7be24cbb7U, 0xbe9bb32bbf09247dU, 0x3deb687fbdc7457dU,
  0xbe2fb749be4ed112U, 0xbf21dbe2bd04e898U, 0x3e2cc27f3e8c8cddU, 0xbdb710cbbe6de7beU,
  0x3d4a9981be51d6d5U, 0x3ee76ee0beac38ddU, 0xbee60c8dbe4ffa61U, 0xbe77bf1e3d589934U,
  0xbbec074abe50e64cU, 0xbe94885c3dfee23cU, 0xbd64bc07bef7db78U, 0x3e1bd6833da9cee1U,
  0xbe8ebb76bec99737U, 0xbf704a95be1dba02U, 0xbea03583be475ed6U, 0xbe7c9acf3dc9efacU,
  0xbd1262d9bd77656eU, 0x3d04d328be2a82c5U, 0xbe8f58ea3db96bafU, 0x3e139195bd3a539aU,
  0x3efb3f2a3e72d32dU, 0x3e0e60a43c8d6d0bU, 0xbeaa8370be4a1e84U, 0x3e2c35273f151bb1U,
  0x3eab3c95bde63eb3U, 0x3e7847c1bdbc280fU, 0x3e6a0f2ebe6f29baU, 0x3e4bf201bd80af28U,
  0x3cddc42dbe5161bbU, 0xbe82e1783e0cd789U, 0xbd4d1b3dbe12f4a8U, 0xbe222cfb3e0b7071U,
  0x3beffe953e23018aU, 0x3e7799e9bdf4fb91U, 0xbe6ae1c4beba61efU, 0x3db419733e335b0eU,
  0xbe0b6e97be3e6bffU, 0xbdbe14bb3d840bd2U, 0x3e538e973e4b622cU, 0xbd5c1759be59d1a7U,
  0xbe251cda3e7c8b35U, 0x3da16db63cb19e61U, 0xbe3185bb3e982c42U, 0xbe5b1356bd612df6U,
  0x3e2d750fbed93d43U, 0x3d1cd9c23e28c9b8U, 0xbbbe5256bc907156U, 0xb9cf1c423dbea415U,
  0xbe8a3415be7085eaU, 0xbdb43426bd5b1886U, 0x3e406046bdf092baU, 0xbec07b05be8ee2d7U,
  0xbe84c99b3d195be5U, 0x3ef9fea1be970d6eU, 0x3abd39fa3cf80e80U, 0x3e73d8fbbddd31c2U,
  0xbf000c87baca90e8U, 0x3ea3e5e93e86d3deU, 0x3e9b06243e31225aU, 0xbdcbe6debe52185eU,
  0xbdaa10fe3d884073U, 0xbece612d3d832c21U, 0xbd3d43863e831b71U, 0x3d0a4a2f3c378fc0U,
  0xbc70e666bb83f0caU, 0x3e27f9e8be024ce5U, 0x3e5df5debe79515dU, 0xbe03c13bbeaf7664U,
  0xbe8ab0dbbc731010U, 0x3e2891c23e824ab2U, 0x3e2a7a62bdab2201U, 0xbd64822ebe648c2dU,
  0xbdfbcbc2be03d547U, 0xbe667def3e470398U, 0xbbe513c43d2e3480U, 0xbe933793bd4baf29U,
  0xbe9569a63e81559aU, 0xbed926773d19398fU, 0xbc9ee5af3e51f045U, 0xbccdc37abd82de32U,
  0x3e2bb780be2294b7U, 0xbe8f3023bee45d3aU, 0xbe1950c5bea86cfdU, 0xbe574d9a3cbfbcefU,
  0x3e99310d3d972d23U, 0xbeb2d88f3edc0f5bU, 0xbc85c1cdbde6d700U, 0xbf06075ebe243918U,
  0x3ea02698be1cc30aU, 0xbf6c89cdbe2d4784U, 0xbe8625b0beac19feU, 0xbf0be349baf63ae4U,
  0x3e3d4998bdf627ccU, 0xbe2bf3813e36e302U, 0x3eddf4c7be276447U, 0xbe38f5bcbd96ce24U,
  0xbd1285cfbdf27b36U, 0xbec2ba3fbe93cbaaU, 0xbea491b33c5cc58eU, 0xbd9de912bdd1d7d8U,
  0x3e15a7f1bda8d8f5U, 0x3df2c81dbedd2586U, 0x3d4f4678bef365e4U, 0x3d8788283e81534dU,
  0x3ee6785a3babbb36U, 0xbdc61e56bdd79c1cU, 0xbe6bd009be386e05U, 0xbd12f6fb3e7f319aU,
  0xbeb8988fbe43219bU, 0xbe37abae3e3b2642U, 0x3e1f0699bd35c12cU, 0x3e6f55f43eded168U,
  0xbe244a86be8535a9U, 0x3ca836983e98a79aU, 0xbe99db203d3bb5fcU, 0xbeb999ca3f1a7acdU,
  0xbdded64f3d1292caU, 0x3f835d5e3e436032U, 0xbf6455de3e93e86aU, 0xbe35bfe73f2cd37bU,
  0x3f51498fbe2641ddU, 0xbe49588a3f059eb3U, 0x3f5d6a8cbc08cc3cU, 0xbebfa7d7be086868U,
  0x3d36881abe687b95U, 0x3ea5386e3d8d2de4U, 0xbf292dd9bee29a34U, 0x3ea3d98abd97fa26U,
  0x3e3c81e23d03e1beU, 0x3df036e73e0be839U, 0xbe72f564be54757dU, 0x3e00a45a3c46b15bU,
  0xbec7a4f6be1e111bU, 0xbe1bb11a3dfcef69U, 0x3d1f2da8bd0c115fU, 0x3d5c3e3dbf098b62U,
  0xbe41b6693e88f9a3U, 0xbda6947dbd86d98bU, 0xbeabac573de5d992U, 0xbe9bf31a3e6af038U,
  0xbce3e5f6bdc3932cU, 0x3ea472fc3df0fd34U, 0xbdbbf4d0bdc143dcU, 0x3e68d1d63ed96c0fU,
  0xbe861918bdab96f8U, 0xbe35a67fbeacc173U, 0xbe06e12fbdb02cfcU, 0xbe42883f3c434123U,
  0xbd3cc2d5be62974aU, 0x3ea61a47bebf39ecU, 0xbdde4f483da69a20U, 0xbb8d8ade3edd6bb1U,
  0x3e482b32bdce3337U, 0xbe76f9523d34e541U, 0x3e2017f03b931e71U, 0xbdcb6429bdbca5c0U,
  0xbe95ee3c3e2104b6U, 0xbde042c4be1ebacbU, 0xbe015c7bbef0dc29U, 0xbe3e9ecd3e990492U,
  0xbd9c0cff3cb2c9daU, 0xbeded147beca82f1U, 0xbe942b86bd9cd77eU, 0xbe487b803d9cbc8dU,
  0x3e704ceebcc3cf4bU, 0x3caa83f93e7f4894U, 0xbe95819fbeef19a6U, 0xbd095d173f211ad6U,
  0x3ec32f24be0da579U, 0xbef04607be4632d0U, 0x3e3c21c8beb02d80U, 0xbe8e4fb8bda10b94U,
  0x3ca118463ea41423U, 0xbe491e543c5886f7U, 0xbe6a7526bea0d02dU, 0xbeab822bbe05f8faU,
  0xbdd098373df91a61U, 0xbda64ecbbe2dfb36U, 0xbda5e746be0a27c9U, 0xbe329d03bcc9c077U,
  0xbd33f88ebc01466eU, 0xbd51264d3e5fe3c8U, 0xbd9e3450bf0a77b4U, 0x3d415ffabe11e6aeU,
  0xbd29c6e53d8fbca3U, 0xbbc4c8a4bdab0f7cU, 0xbe45a06c3e76956eU, 0xbec19892be1f771cU,
  0x3e82ab88be8f236cU, 0x3d44c5d03d56cfc1U, 0xbe23a7c3bda58dfaU, 0xbc8601f4bdc72ca7U,
  0xbdcafa583e480156U, 0x3d0526b23a163a5dU, 0xbd4d6be53e51f00bU, 0x3e08e442be82ac17U,
  0xbba664a23df07534U, 0xbd3164aebe5f5b4aU, 0xbe6dd3d9bc2f270bU, 0x3dba710f3db33307U,
  0xbd9e54703e926cb3U, 0x3c8a47f8bdec962fU, 0x3dab811b3d987291U, 0x3dc387a13d2a8272U,
  0x3be9bef43bc092b9U, 0x3da3b9023c4c2dc8U, 0xbd87f045bd247b6bU, 0xbdaa38413c15b75cU,
  0xbde46fc13d5efe2fU, 0xbe6c15aebe064cf8U, 0xbd7595733e0b6b66U, 0xbe09d987be6c6686U,
  0xbe0a07533d3a73b4U, 0x3c9138a0be392081U, 0xbed215d73a638683U, 0xbd965b0abdfa81e9U,
  0xbdbd69713dd3b2ecU, 0xbe87186dbdbde7deU, 0x3e2a8d48bca30b8fU, 0x3da2150bbcdd790fU,
  0xbda321b43ebab250U, 0x3d04c43ebd40a11bU, 0x3d430ec73e04b10eU, 0x3cb122bebc0c633eU,
  0x3ce3c745bce5d75fU, 0xbed1b5f0be8f0af6U, 0xbda1e3bd3d947b3aU, 0xbe669176be6c813eU,
  0x3d6dd334baddec62U, 0xbd1f01cebcdf95aaU, 0xbeac6fff3d451cd1U, 0xbe04ad503dd92f9cU,
  0x3c10a5c0bd0c9af4U, 0xbef23d6dbd74a041U, 0x3e957889be8863bfU, 0x3d0d588b3d76d68eU,
  0xbdf6e0013e744170U, 0xbd37c9f83bb750feU, 0xbe574d9cbf05954fU, 0xbf1947b73e42fc11U,
  0xbe69143f3db44da1U, 0xbe9fcb59bdd9559eU, 0xbcd04b513e41a461U, 0xbe9f6246be8cacaeU,
  0x3e6f58a9becaea96U, 0x3f3fa1d6be99fa58U, 0xbf18e7cbbe0a9f43U, 0xbe8b216d3e99590bU,
  0x3ec00eadbd76b9d1U, 0xbf0b3f343ee46a03U, 0x3f4b0d60be7ea139U, 0x3d1d27fdbd52ce74U,
  0xbe7376b3bcf05090U, 0xbdb0f8393e156bdfU, 0x3d4c6c1b3dbc4bb5U, 0x3d4adb343da5d9eaU,
  0x3d8f7cfe3cd0a727U, 0xbcbd3d0abda9a72fU, 0xbea57e5ebec3c13dU, 0x3dcd46ed3f1d2397U,
  0x3eacf73dbc2fcba2U, 0xbe6c77ed3ebd0bc7U, 0x3cd06661bdef9f80U, 0xbe61e9483ed5b78eU,
  0x3f1e5649bdfc5cf2U, 0xbd3be60dbe77bae0U, 0xbe0561d73d40b7b4U, 0xbf0344d33df2c77cU,
  0x3d2ad81bbe36fa87U, 0xbd64bb0d3d0fb9f9U, 0xbc99c002bcd709e1U, 0x3eea7ae8be9d2330U,
  0xbd559f7abd3ca404U, 0xbdb3f057bcde63f9U, 0xbd857a49bd6f8a27U, 0x3d9aa9aebdff50f2U,
  0xbeedc186be7e6410U, 0xbe373adebe193938U, 0x3ca5986c3de7117bU, 0xbe31c1edbf1b8adcU,
  0xbf04c527bd8b565eU, 0x3e40d1de3b7a37e7U, 0xbf4a612c3e52f737U, 0x3e29e19d3d71139cU,
  0xbde5c272bf3321cbU, 0xbd8b85ad3e2ec189U, 0xbe675227be0c0b16U, 0xbcf34351be917668U,
  0x3e542ef3bcc3ed0fU, 0xbe1110873e1ce16cU, 0xbde04584be5b6f7fU, 0x3e49e1183d4894d2U,
  0x3e75a032bdb7c8efU, 0x3e7f73efbda46b61U, 0xbed768cfbe7e55dfU, 0x3e13ab0e3d8c56dbU,
  0xbebf1cffbcf138a4U, 0x3f1c0713be000003U, 0xbcb5627c3dc438fdU, 0xbcd9e6cc3dcdc190U,
  0xbe6e0286bde73260U, 0xbe2ce6ad3d934373U, 0xbe8f76f4bf0bc6b6U, 0xbd7de007bddee161U,
