/**
  ******************************************************************************
  * @file    speech_data_params.c
  * @author  AST Embedded Analytics Research Platform
  * @date    Thu Dec 28 17:38:45 2023
  * @brief   AI Tool Automatic Code Generator for Embedded NN computing
  ******************************************************************************
  * Copyright (c) 2023 STMicroelectronics.
  * All rights reserved.
  *
  * This software is licensed under terms that can be found in the LICENSE file
  * in the root directory of this software component.
  * If no LICENSE file comes with this software, it is provided AS-IS.
  ******************************************************************************
  */

#include "speech_data_params.h"


/**  Activations Section  ****************************************************/
ai_handle g_speech_activations_table[1 + 2] = {
  AI_HANDLE_PTR(AI_MAGIC_MARKER),
  AI_HANDLE_PTR(NULL),
  AI_HANDLE_PTR(AI_MAGIC_MARKER),
};




/**  Weights Section  ********************************************************/
AI_ALIGNED(32)
const ai_u64 s_speech_weights_array_u64[12178] = {
  0x3f2a86e1404c7414U, 0xc00d320bbdb86651U, 0x3fedb6cfbfc6af9bU, 0x3fdaed4a400dad50U,
  0xc044b2b1c02209b3U, 0x3f01690f4098cfc6U, 0x3ce5877b3ed7eebaU, 0xbf897e42bf3d1f64U,
  0x3eb1b9c43f5b4dd0U, 0x405a6af83f81e6b5U, 0xbe5048ad3fd3aad5U, 0x400f4bcc3f0acd07U,
  0x3e8e6c1a3fc3cce0U, 0x3e080d46bf00c52fU, 0xc0629d73be0d1bc5U, 0x3fe31f783f839d90U,
  0xbf4b717c3f2dbd45U, 0xbf83cbc0bfa160b0U, 0x3f6bf1133f9914a8U, 0xc05c909e3fba460fU,
  0x3f70c8f43ee77924U, 0x3fa4e8f03f814d87U, 0x3fbe051b3f75ae18U, 0x3f87da403f802578U,
  0x3f8f20bd3f745ba4U, 0x3f9d6265be322a7aU, 0x3edb93374014ef54U, 0xbee55bcc3cc04e14U,
  0xbf9faecabf619289U, 0x3fd90f95bf0deb4fU, 0xbf205aacc0cef037U, 0x3f9b76113fdb4d3cU,
  0x3c12850b3e874e35U, 0xc055010e3fec17f7U, 0x410993acc060cc3cU, 0xc0bd4b7341090fa4U,
  0x40171d58c133b9baU, 0x405afd4e4159d0a5U, 0xc0b9bf3bc1462a21U, 0xbee7459d41140785U,
  0x3fb7bf9f3ff10d07U, 0x3f5f14933fa77bbaU, 0xbf023e2ebe98c65aU, 0xbfc5704fbfa6ce0dU,
  0xbf746995bf740f20U, 0xbf3fa255c0777de9U, 0x403279663e3aaecdU, 0x4000c9fc3faf08aaU,
  0x3eb6819e3f021cbdU, 0xc02ed0cdbf79310aU, 0xbfaafb3ac041d5eaU, 0x3f94b0e3403c3453U,
  0xbf87d59a407f08cfU, 0xc065f86fbd905610U, 0x3ee45299bf3dbb1dU, 0xc02383f94081c624U,
  0xbf2b6b63bff960e0U, 0x3b819b44bd41c61cU, 0xbeeb55673ebd25a0U, 0xc018b08e40b895e7U,
  0xbfcb1b4fc03b4f6bU, 0x4086138f3f061456U, 0x3f958f3b408277a2U, 0xc090f556c08d7c62U,
  0x40ed306fc0804662U, 0xbf935018bd44064eU, 0xbf720798bf9b09fcU, 0x3f419e26bf90a9e2U,
  0x3fc7d3a73f4d70d4U, 0xbdd9f79c3f1f8601U, 0xbfc72696c01889e9U, 0xbf5046c9bfa138acU,
  0x3f4809ebbf0b1a90U, 0x4002d8223f9b520bU, 0x3fabceef3f999fa5U, 0xbeb316dabe970b91U,
  0xbf87a881bf4a08b8U, 0xbf82463ebfb85b48U, 0xbf1d01abbf93a92aU, 0xbe6e678cbefd6f7dU,
  0xbff64f4fbf505bf5U, 0xbe88dac9bfd4cb35U, 0x3e8df1d73ebc1446U, 0xbfc9cd04bf6f4ed0U,
  0xbf3cc4bbbfdef8c7U, 0x40b66b74bfc5ab1bU, 0x41a4c31cc1451408U, 0x41f68c9fc1de02baU,
  0x419ce421c1dd7cf6U, 0x40419f20c124d102U, 0x40152232c041750aU, 0xc0b8780ebf0e3ad8U,
  0x40b6e7f140bc6227U, 0xc0288f48c07103dcU, 0x3fe28b6b3f111b2fU, 0x3f1c0ecc407777d9U,
  0xbfc19e62bfad34d5U, 0xbecbef04c01f3fd4U, 0x3ecf8259c02c5273U, 0x406a66df3f1a8c55U,
  0xbe8da071c0a70cbfU, 0x3fe3a7493fe91706U, 0xbee8c8c0c024aefaU, 0x405056dd3f129a94U,
  0xc0b817f13fae09ddU, 0xbf0130f4bf431688U, 0x3f71273a3f4b77cdU, 0x40146ebf3e901776U,
  0x3f96f05abdee3002U, 0xbfe54e9f3ef26c53U, 0x3e85683fbdafda2aU, 0x3f1f889b3f2d7295U,
  0xbf50e820bda0b42eU, 0xbf77a580bf868d35U, 0xbe74464dbf12ea8bU, 0x40527c91c08819feU,
  0xc107538541357c84U, 0x40a21da5c15671dbU, 0xc0de48f34191b65dU, 0x40e66e2ac13fa504U,
  0xbf8ebf0e40d349dcU, 0x3f4dd79bc04c1f28U, 0xbf25a9acbe9e4943U, 0xbff99f25bf90746dU,
  0xc05be4e54060677bU, 0x401fc6d83f6998d8U, 0xbf3f9066404e52e0U, 0xc0801272bff0bbf6U,
  0xbeeac879c0166929U, 0x408d9b793fa750ceU, 0x416d9638c0b8f9ddU, 0xc0b67cd4c13d858aU,
  0xc178942741a442d8U, 0x4188320dc075e570U, 0x409459e8c16581ddU, 0xbf5d127bbf919276U,
  0x3f400f283ebdb666U, 0x4004af843f9fe1e4U, 0x401498604016dc5fU, 0xbf854c6cbfa030baU,
  0x3ffdcdb440912ac8U, 0xc0fda1b7c05dca7fU, 0x406b4a2cc07da997U, 0x404ba62f41068676U,
  0xc06d638fc026dd7bU, 0x40940122c0b6aafdU, 0x3f41e0f940c22443U, 0xc0d06ac5c0c559e6U,
  0x40a4f12b4033eaa8U, 0xc091371940448893U, 0xc0379630bf7114a0U, 0x3f40e5c8c0161d88U,
  0x40651eb540318b16U, 0xbe30e8da40007525U, 0xc03aef2bc0177ca2U, 0xbe770c4ec0261828U,
  0x3f6c955c3f6ecb66U, 0xbfac6c7cbf58db1dU, 0x3f824423c0108df8U, 0x3fc080de400e5442U,
  0xbd5c9a1f3e0a560dU, 0x3e60aa1f3b86a474U, 0x3f13755a3ea4435dU, 0x3a50ada83e3cfbedU,
  0xbc4c4a0e3a1cb148U, 0x3f14175e3de966d3U, 0x3dfaec5fbc8576bbU, 0x3be933693b587617U,
  0xbb7bc22a3eb9bbbdU, 0xbcfedd55be93d142U, 0x3b7feb7c3d9272d4U, 0x3c85ad743e8e63faU,
  0x3baa2c3c3bb054f4U, 0xbf5e88dabb0904c8U, 0xbaa8d162bbb2bdedU, 0x3d1dec4f3b22b951U,
  0x3ad4dd273c4a3eccU, 0x3c7625a63d545864U, 0xbc7ac8503c661d34U, 0x3cfe53a93d6261faU,
  0x39bc2bb53c2de668U, 0x3b8c7a36bd143782U, 0x3d0c1f06bd317c63U, 0x3c7f30d53d04660dU,
  0xbca7721f3d0f7058U, 0x3d729f8b3c6ab2ceU, 0x3c9a9c973c81e1ffU, 0x3d91d8ba3c76d83eU,
  0xbdb77ec43d007391U, 0x3bae7a5b3bdd6397U, 0xbd18f885be33ec9bU, 0x3cf84b4abd4f0814U,
  0xbcd8d2dabc4114f6U, 0x3c7cee1dbad01120U, 0xbce58e7d3b1414aaU, 0x3d02717e3cae571dU,
  0xbb8fdd1ebd01acb7U, 0x3d663968bdd1c064U, 0xbb512de6be036e84U, 0x3cc264f33d07a190U,
  0x3af3f0523b2fdba2U, 0x3b9c7e553a3bc78aU, 0x3d22d4c43b1dbdb4U, 0x3b476e3fbb5ce98eU,
  0xbda5aa323d2aea1cU, 0x3c95eac03c9a4a27U, 0xbd7c7cbfbe38c421U, 0x3bc2ce64bd715225U,
  0xbd173e323d460b63U, 0x3b73279e3a2c295fU, 0xbc8ba522bcecf7d7U, 0xbc68fbf03ce7e51eU,
  0xbd6475073b136fe4U, 0xbbb1bf6ebd2c72fcU, 0xbc090c55bdb560b5U, 0xbb5e8c823ba5bbdfU,
  0xbc45efdbbc8cd26aU, 0x3c0af4333cb62f9aU, 0x3cb932eabcc37427U, 0x3d732b56bc4c44a8U,
  0xbd823ff43d2de120U, 0xbd66b3e23d8d88d3U, 0xbdb4dd1bbe621b8aU, 0xbb3b79debd7408b3U,
  0x3d03e412bc96587bU, 0xbcc13aed3c347a58U, 0x3c6e5b613cc3328dU, 0x3df30be8bcdda578U,
  0xbab1a92c3bafce92U, 0x3c93f4203bc2ca88U, 0x3c807e11bc5ce4c5U, 0x3ae8d6cc3bdfcb74U,
  0xbd2d674ebca2f551U, 0x3ca48f293ba3af5dU, 0x3c3ce9c43c2452a6U, 0xbc23b6f2bc3562feU,
  0xbb85c3543b172b0bU, 0xbcf89b5cbd22dc77U, 0xbd4ac608bca31a33U, 0xb9a58a88bb66c64cU,
  0xbc275b58bbc18ad9U, 0xbc2a9122bc44a60cU, 0x3c41d97d3ab38137U, 0x3c9bb845bca9895eU,
  0x3cb903343c17709dU, 0xbcadeba23c0a111fU, 0x3c7fbda6bcb95e77U, 0x3c516a253b348fd9U,
  0xbcd0e750bca7001eU, 0x3be4607dbd06b31bU, 0xbca72d3f3d359f3bU, 0x3db636f73cab38ccU,
  0x3b70391cbcb276cfU, 0xbd033156bd27c5edU, 0x3d13a0413befe469U, 0xb9886683bbbf8081U,
  0xbd0e72eebce62f78U, 0xbc3c032dbbf15602U, 0xbc19ad313a470bf8U, 0x3c91bb34bbef10fdU,
  0x3ccb26563c0ac7b5U, 0xbc3e076e3caad8ecU, 0x3b12eccbbca8168cU, 0xbb089c853c280547U,
  0xbd4dfb25bd0047bcU, 0x3bf1006abd46a95fU, 0xbc6b59563d7593b2U, 0x3d72d88a3c95d73fU,
  0x3c151d2dbcd426d4U, 0xbd0d2cafbd2615c2U, 0x3d2a08fb3a024f97U, 0xbc67a401bcbdc092U,
  0xbca11ea83ba8a9c5U, 0xbcb8d075bdbd73e4U, 0x3bea7a04bdd8082cU, 0x3c992424bceef45fU,
  0x3abab87bbd9e383bU, 0xbc2eb91ebc2c207dU, 0xbc5faf073c8737e1U, 0xbd987926bdb6abc7U,
  0xbc49facfb93e2aadU, 0xbc91a2733ca83150U, 0xbd5c44903ca0cda7U, 0xbbbaa6f8bcc1e326U,
  0x3c893c00bd3dfe70U, 0xbd9423b93c54bd7aU, 0xbc24ca2b3d34d2acU, 0xbd2e1fe63d6dca50U,
  0xbbf0a779bbc77554U, 0xbc804a82bd24da72U, 0xbd5ee2c0be12b833U, 0x3c0623babcabd3c4U,
  0x3d72c7f8bd5b222eU, 0x3c93bd683ceeb8d3U, 0xbcdcb8da3cfe3f46U, 0xbd7baa89bd810a43U,
  0xbba89e183cfd4c03U, 0xbc311620bc9269b4U, 0xbd1414ab3d18bed9U, 0xbaed029cbc75ea23U,
  0xbb6ab791bce078ceU, 0xbd8e75b83d1e38d2U, 0xbca0480e3c34ad59U, 0xbcd328713d960532U,
  0x3b354b7fbd0779e5U, 0x3c5c1b51bd464e83U, 0x3d517834bd7e721aU, 0x3c2843f13bc6249fU,
  0x3d1df755bd79fe26U, 0x3c9b61c73cea341fU, 0xbd0d310a3ca173c4U, 0xbda6fbdabd8a7b77U,
  0x3ce7afdabd3fcd7fU, 0x3c8e6b3bbc8b9187U, 0xbc15ec5a3baf1941U, 0x3c96e79e3b395dceU,
  0x3d9ae2debcf6d15fU, 0xbd621ba33d3741a0U, 0x3c9b02b63cc21425U, 0x3bfee8623d041059U,
  0x3c81de0e3b414e03U, 0xbaa475173c847e96U, 0x3d1b184a3cce2692U, 0xbb045b5dbc8dc4cfU,
  0x3d32879a3d1631ceU, 0x3d2c8b1d3cab0921U, 0x3d0583bd3be37038U, 0x3a0a484c3cbcfb2dU,
  0xbca7295f3ceeac7cU, 0x3c7892a63c1427b7U, 0x3c1c09d83cba6c43U, 0xbabbee2b3cb4306aU,
  0x3c3986de3c2fffc7U, 0xbbfa7a573b391749U, 0xbc5c99fd3c6a46f8U, 0xbc4af1413c92b417U,
  0x3d4d6bb0bc8154eaU, 0xba827778bb0f56daU, 0x3d1084803c2b2e48U, 0xbc52c2afbc5a6f9fU,
  0x3d319ef33b356b14U, 0x3c0832bf3c3889b4U, 0x3c9120383bd92085U, 0xbc2521373c027eb5U,
  0xbca32d743cb4fe84U, 0x3d062743bc38548fU, 0x3af4fd373cdd7b7dU, 0xbc8052e93c3af8c5U,
  0x3d37b190bc776678U, 0xbc4f4b343c219f11U, 0xbca542d53c445df2U, 0xbcb48b653d14e2bfU,
  0x3ae765893bcda1b8U, 0xbbf45129bcd1c710U, 0xbbf5d3d0bc2f7a0eU, 0xbb784087bcbec71aU,
  0x3c36a302bc1627baU, 0xbb00dc3abbc3f019U, 0xba2864b0bba86fadU, 0xbcd45467bc74a01fU,
  0xbc4271f23ba7a03dU, 0x39c48de3bcd9b2b4U, 0xbc2e2a79bb9aadd5U, 0xbb5bd8ca3b39356aU,
  0x3bb9e03cbc5ab633U, 0xba97ec613b67cfe1U, 0xbcd632653a8c9bd8U, 0xbccb3e5b3c96b73eU,
  0xbcff99a83c41c249U, 0x3c3fc76bbb40febdU, 0xbd0713763c5d1b11U, 0xbce6c9edbcf20f03U,
  0xbdada94fbd05ae8fU, 0xbd921e52bdb665faU, 0xbcefc69bbd918e70U, 0x3c33335bbd080d72U,
  0xbd16e32f3c150ee6U, 0xbd527397bd06ee62U, 0x3c3a69053b512c74U, 0xbd30148cbc82d674U,
  0xbdf697adbd1f0e0bU, 0xbd06ed313c79963bU, 0xbbeb91bebd7e6094U, 0xbc4417ecbdbd7e1eU,
  0xbbac664f3da4ccd7U, 0x3cbe9a1b3c5beba2U, 0xbd29f505bb224b83U, 0x3c8e8bf63cb02582U,
  0xbd8769a73d2d7b6eU, 0xbda62629bd963e0eU, 0xbca519bbbc83f8b9U, 0x3bf0e1b33c9d36c5U,
  0xbd2f79ad3cb73a47U, 0xbd4c8169bc7d2219U, 0xbc4aa308bbae17d3U, 0x3d0730b13bb629deU,
  0xbe14ecce3c8af3f2U, 0xbd01bb40bd4d451fU, 0xbc2f054dbd13c0e7U, 0x3ce87affbd8eff0dU,
  0xbd2306e83d07756fU, 0x3cafc30c3c82f884U, 0x3be23a5e3d3d5ae2U, 0x3db3ab413cd9b10aU,
  0xbcc4d2c8ba87ababU, 0xbcec86b7bd209135U, 0xbc7368e6bbe86c90U, 0x3ce021373c5fe15cU,
  0x3bac9ee6bafa251dU, 0xbd13f9803bf1241aU, 0x3d6c4ab23d3c3876U, 0x3c80d6f73c6ccf61U,
  0xbde5d98a3cf4cd3dU, 0xbd8224033d494d75U, 0x3dbb92c9bc7f6f72U, 0x3d2d2b63bdbc4dd6U,
  0x3c0cca75bd81099fU, 0xbd87ecd6bd01abb3U, 0xbc359ac2bc894254U, 0xbcd4eb62bd0b0099U,
  0x3cf7f7873ba04e80U, 0x3caad8e7bbde2182U, 0x3cf24af8bce1432cU, 0xbc10dc5e3cb07d7dU,
  0xbc9d0a64bd04969cU, 0x3d893588bc7da6ddU, 0xbc54ab7c3c042b09U, 0x3c7fc1aebc864184U,
  0x3c44437fbce5a4bdU, 0xbc0092513b4fda76U, 0xbd4297febcf39eb9U, 0xbc78f46dbc003801U,
  0xbd1030acbd8c5590U, 0xbd35cb8fbd2500e4U, 0xbce0c2093cfbef1aU, 0xbaea6ce9bd1026bdU,
  0x3d935d463c61e96eU, 0x3d4f97c33c423005U, 0x3d7c2824bd56e9b7U, 0xbbc2f4603d6f298aU,
  0x391dd441bd4bdf1fU, 0x3cf502b13c867bc6U, 0x3b13203e3d907d2bU, 0x3ccbeb39bc5dccf3U,
  0xbc87ddc4bd19accaU, 0xbd441db93c94550fU, 0xbd13319dbd3e05f9U, 0xb97601273d20ec14U,
  0xbc95eed8bcc81e64U, 0xbd06c89e3d393fbcU, 0x3c273fb63c834554U, 0x3bf4d667bcefeb12U,
  0x3d85b7883d8e1b50U, 0x3cfd69333c8d350eU, 0x3d5225a5bd168d75U, 0x3cb9000c3d71d158U,
  0x3cfd87e53c1e7f8fU, 0x3d6f69ce3c2eebb6U, 0x3c9f60593d09ca2eU, 0x3d107a6c3d387046U,
  0x3c2d5a36bc5692e5U, 0xbca33e013ca9dc89U, 0xbd396d17bcb32fcaU, 0xbc8b45213c377c30U,
  0x3922b2fd3bfdbb4eU, 0x3c935406bb621bfdU, 0xbb0d9c78bc6844b7U, 0xbd917d513be0a693U,
  0xbd0338c3bc9883d0U, 0xbb080a66bd35b3dcU, 0xbd0d65583cc77faaU, 0xbcea98a5bd1229b2U,
  0xbd1fe5033903b4c3U, 0x3bef58863c183aeeU, 0xbca1775dbca03289U, 0xbe0ca4e1bcd652a9U,
  0x3c75cbd83b10a460U, 0xbca4d81fbdb2b92fU, 0xbc91cedc3d13f536U, 0xbb0ea4febc95020aU,
  0xbc886172bc466475U, 0xbc45c7b93cb1b747U, 0x3c9730793d10a32dU, 0xbdac4b383d0ecd86U,
  0x3bed1f723c3b806cU, 0xbc9d504dbbe9c070U, 0xbccea23bb99de105U, 0x3c48eb0cbc891d14U,
  0xbd199b673cc6b0f0U, 0x3c6bf8243ca8f3f1U, 0x3c766930bc1ebbfeU, 0xbe09a895bc3e2b51U,
  0x3caf218d3c47171dU, 0xbc89836cbd82259eU, 0xbd5584bb3c55552bU, 0xbcaa36a33ce662b2U,
  0xbcf1f87b3ccf851bU, 0x3d0279163bf5cec7U, 0x3aeb2d613c2bb65dU, 0xbd7916c83c1e30afU,
  0xbca55b513cfb5089U, 0x3b1dffeb3b1f9f0fU, 0xbcd5d54a3ca0ed6bU, 0x3d345c07bcba892eU,
  0xbbedb6943d239dbcU, 0x3d0d7c063ba4d1e7U, 0xbc9f6c70bb9e0a02U, 0xbe0138b7ba00adceU,
  0x3cb906763d1d11ecU, 0x3b91c265bd9176d4U, 0xbc264a6f3d0fb8ddU, 0x3cba34c73cdeab86U,
  0x3d4081d93d809d44U, 0x3d6cf6b83d0dd608U, 0xbad77e3d3b29fce6U, 0xbd3116043d6d06a5U,
  0xbdfe59a6bd129d0eU, 0x3c7d9f4ebd7268adU, 0xbca84215bd18c524U, 0x3c9f1535bb2a53c0U,
  0x3bc53bc73d46ba81U, 0xbe1f816bbc902585U, 0x3be7395c3d4ff7a1U, 0x3c587fe5bcb953cdU,
  0xbdffb91d3c322182U, 0xbd821065bbe56a7aU, 0xbd41d96fbdf8ae2dU, 0x3ab7d793bd87d3c7U,
  0x3dae6bd13d075be6U, 0x3d4f756e3ceb95c1U, 0x3ce1207a3d10b6afU, 0x3c77fec83d8a3071U,
  0xbe045a8dbd7cc041U, 0x3d16e875bda435f9U, 0xbd1d3a49bd6c9d1eU, 0xbcacba59bcfb27d8U,
  0x3c7a125a3cc3cbc8U, 0xbe10b470bba58b97U, 0x3ce47fc13d01e534U, 0xbd0d7bbabd0f3a41U,
  0xbde3ec9b3d2b3125U, 0xbd4e9d963ba0e80fU, 0xbd09812bbdda392eU, 0x3ce41f9ebdaf99a8U,
  0x3d6fbaa63d26a60dU, 0x3d31c47ebd20ef90U, 0xbccacb42bced9dd3U, 0xbd383a783d68d7bcU,
  0xbe232639bd666149U, 0xbd2b2489bd8ca6f5U, 0xbd0d7fe5bd09efdfU, 0x3c214cb8bc9b85d6U,
  0x3d4042f03c962752U, 0xbe3a2e773d4cdcdaU, 0xbd09e8713d045653U, 0x3ce918403c4ddd98U,
  0xbe19c6d93d52f420U, 0xbcd7ea363ca52fa0U, 0xbd3033d3bdf5665eU, 0xbc93e066bde425abU,
  0xbd7d60443d0719e4U, 0x3ca786ce3cf5dec5U, 0xbd5cdcd5bcec9bb2U, 0xbc4a2fe23d1ccf3dU,
  0xbc762ba83be58e97U, 0xbd483edabc310ec6U, 0xbc04b9423bfcf0c4U, 0x3d866fc63c7a826aU,
  0x3b4dcf3f3d2a5ebfU, 0x3bb0de833becdf4fU, 0x3bad00f9bd4c2eeaU, 0xbc0e3d4ebbf0c6d1U,
  0xbb003b593d4950fdU, 0x3d20a659bc2855b8U, 0x3cd38d3d3c8ec0c6U, 0x3d1b3271bc946fb1U,
  0xbcbcbb7d3d0251beU, 0x3d4e39f43d180963U, 0xbc41a2773d803dd9U, 0x3a0159803d7bd52fU,
  0x38fc2e293ce5005bU, 0xbd60e4643b946b3eU, 0xbc59717bbcaaace3U, 0xbd0769c33cc7f38fU,
  0x3b7d3ce0bd8bc834U, 0xbd04decb3cc857beU, 0x3ce8da00bd87cef1U, 0xbc5e43aebc78078cU,
  0xbd39eae03d3e1a82U, 0x3c3c810bbc515733U, 0x3d21ee883bedfeb4U, 0x3cdb52593a44b301U,
  0xbd6957553a78cc06U, 0xbc95e4d63cbf9f7fU, 0xbcf5964e3d470213U, 0xbc21eae73d7c73afU,
  0xbcdb8cf53b251a6aU, 0xbd36f63bbc3534ceU, 0xbcd62659bbae6576U, 0x3d83523b3c790ebfU,
  0x3a9c55d93cb243c5U, 0xbc7521f83ce605ffU, 0x3cf01953bd14e38aU, 0xbbac7fe9bcd182e7U,
  0xbc54765b3c9ae00aU, 0x3c5ec071bbfe815cU, 0x3cbdfae33be8811eU, 0x3d5e611fbbbe5bdbU,
  0xbb80fc3a3c0c7e8bU, 0x3ca4d6563c946bfaU, 0x3cb670503d25ef4eU, 0xbc9cacbb3d43efc8U,
  0xbc83f8903c5e5cbeU, 0x3adc8173bd00a827U, 0xbbf226533c644a00U, 0x3c6a7ef33c8f7570U,
  0xbe0cfb9c3d0838eeU, 0xbc494aae3d641141U, 0x3c046f1abab9e8edU, 0xbdda15ab3bebca24U,
  0x3ca8c3f03d194a33U, 0xbd473214be1465beU, 0x3be087ca3cc9789bU, 0xbb92c5d63b24a749U,
  0x3acd9acd3b8a1ac3U, 0xbbd0ff7bbc944fb0U, 0xbcab8a633b815ad9U, 0xbd5d10513d3e1876U,
  0xbc06abcebc55dccaU, 0xbcb7948fbcd78ad1U, 0x3cc9920f3d5e0e88U, 0x3b959af5bcbba9d1U,
  0xbe23b08abc22acf7U, 0xbb57e7a93d0f5b8dU, 0x3b87a8b2bcc5e34bU, 0xbe061b163a860153U,
  0xbbe7ed2e3bebd58cU, 0xbd364b6bbe29409eU, 0xbc939ceb3c7a5eedU, 0x3c3b92eebc9a2b10U,
  0x3c33fa043cc50d18U, 0xbc18d7a43cafad85U, 0xbcd711fdbd170f4aU, 0xbd857876bb031a6eU,
  0x3c0f714fbcb0c426U, 0xbcdb5ca6bd05c055U, 0xbcb459ec3d283730U, 0x39dd44dabd522710U,
  0xbe0ede08bcd2fb81U, 0x3c6441cb3d3f35a3U, 0xbb763ba7bca62a19U, 0xbe2a6c3dbca9d672U,
  0x3c4965efbc05b5a1U, 0xbd416290be430564U, 0xbd1edac53cb18ae3U, 0x3b14e09a3d1568ddU,
  0xbc132da73d07daa2U, 0x3c62fe423d242e41U, 0xbc21e0203ae65875U, 0xbd88628f3d7437e2U,
  0xbd7b21783aa1ea8cU, 0xbc0cda2fbd51b09eU, 0x3cb8938c3d19b28bU, 0xbbbdea123c1f55c6U,
  0xbddb1ea9bc0ccb53U, 0xbd01845c3c57d1b4U, 0x3c458193bcb680e7U, 0xbdd4bb53bba64f3cU,
  0xbda4e4d13cf146a0U, 0xbd577a82bd27456bU, 0xbd286b4c39969e7eU, 0x3d17ffc8bd8b891cU,
  0xbcfe70e03d4cf4d7U, 0x3c776ec73cf85d39U, 0xbcdb43ae3aa5ec12U, 0xbdc29b543db29c96U,
  0xbda3fd8b3d221890U, 0x3c1b220abd88bf82U, 0x3b91b75f3bd9a12fU, 0xbd0157383d32f6e4U,
  0xbdf8f10fbc1e2179U, 0xbd2dbe823c44604eU, 0x3b8e4283bd088dc0U, 0xbd878eed3c3187c1U,
  0xbd822a713d5fcaf6U, 0xbcf03393bd19e09cU, 0xbd447e6bbcbfd935U, 0x3c9e6085bd53250aU,
  0x3c8fd9fdbb0c9039U, 0xbb17ce0ebc36f0bfU, 0x3d4761963d635fd1U, 0xbdecc38d3ca27261U,
  0xbdcacdf6bd2447acU, 0xbc3cace4bda95964U, 0xbc20423a3cfce8a8U, 0x3d063986bd12cc0bU,
  0xbdc5cde13d21bb65U, 0xbd51bafc3bf2175bU, 0x3d358aed3d37e66bU, 0xbde63930bc8ba6c5U,
  0xbdadb3c5bca72567U, 0xbc973330bcd5016bU, 0xbd2f5586bd1fdcc7U, 0xbcf38526bd825854U,
  0x3bd2c884bda918e4U, 0xbd50ae62bdce16b9U, 0xbd88c2da3d719ec9U, 0x3c37d4533dcffd1dU,
  0x3c4cdf64bdc8db64U, 0x3cf750a4bcd4dc0fU, 0x3d5118cb3a8137a2U, 0xbcc8cc633da86ce8U,
  0xb909aab7bd394547U, 0xbb3a19073d142337U, 0xb9ad14053c23e248U, 0xbb176c0dbdea74c9U,
  0xbcb6b202bdc5e49aU, 0xbd076a37bd0de68eU, 0x3c15638c3c6cfabeU, 0x3d8276be3a24da79U,
  0xbbdf0344bd1a17c7U, 0xbd09c17dbd0d0221U, 0xbcc1c2ffbaf858bfU, 0x3c7a6c593caf3854U,
  0xbd02d974bc821636U, 0x3b5e9c1abd2a39faU, 0x3c30b8cf3c25876dU, 0x3d19d8ae3ce19c71U,
  0x3cb49e363d0bbd09U, 0x3d6557aebc89345dU, 0xbd4c182abc419400U, 0xbbdf033dbcab4f9cU,
  0x3d1117dfbc9a27afU, 0xbd292f36bcc5304cU, 0xbc8dbc653c33051aU, 0x3bbb31bcbc9e8d1bU,
  0x3b00628dbdb9713fU, 0xbdb463a7bd6f8048U, 0xbd6128363d114d21U, 0x3c6a39da3d45aeeeU,
  0x3c9e5882bd624127U, 0x3c70390fbccfa483U, 0x3cbf46aebbdda765U, 0x3c9a76e33d38800cU,
  0xbce4225dbc8bbc5bU, 0x3d27e3113b1d9d70U, 0xbcf31718bc0db403U, 0xbb911296bda56b55U,
  0x3cbfd3c4bd72b436U, 0xbd0ecf0cbd4f5a43U, 0xbb5b21303d3eedcbU, 0x3cceb2bcbc17e138U,
  0x3d130c653c5598f1U, 0x3c33c1bc3c7133cbU, 0x3c2e676b3d052b8dU, 0xbc5e09873ca79769U,
  0xbcf4dfa03b65381fU, 0xbd086bbcbc27fc48U, 0xbc16630f3cf1dd86U, 0x3d06d94c3b45ffe1U,
  0xbd9b6bb33cb77d0fU, 0xbce8edf93b9f40aaU, 0x3c9aa5debab8d31fU, 0xbd34c05c3aa33bf8U,
  0xbc9828183caddec5U, 0xbc7d5d5abe146e86U, 0xbbbe1a303bb52e3aU, 0x3c62130f3c92d354U,
  0x3b99537f3cafe5baU, 0x3c9286383c85eae4U, 0xbb587bab3b8800daU, 0xbd32e04e3bc4973eU,
  0xbb95b395bc21c565U, 0xbc01c10d3bcfbb7bU, 0xbbf47180bb483224U, 0x3c25e8643c445a98U,
  0xbde3e6b93b882ab0U, 0xbc86b632bc691471U, 0x3be9ffa9bb1ff9edU, 0xbd83f288bc814bd3U,
  0x3cb91defbbcc0618U, 0xbcd79a21be35f254U, 0x3cf7b3583acbb431U, 0x3cd2baa93c8b3a0eU,
  0xbcbcd88d3cfa902cU, 0x3b20a0323bed58caU, 0xbcbefcb1ba902142U, 0xbcb2d205bc1ac69aU,
  0xbd10c9b6bbfeebccU, 0xbc94afffbd0b9bd6U, 0xbb5a09f93d0a6876U, 0x3c0aff313b23aecbU,
  0xbdfc8ae73cf0bcfeU, 0xbd1b411c3cd808b8U, 0xbc9015f9bca81898U, 0xbdb7b5463c0d5070U,
  0xbbec280ebbe532beU, 0xbb975c60be546ec6U, 0xbc8bdae93d3bce63U, 0xbc24ddf43c95c159U,
  0xbc250b7b3c27b1bdU, 0xb983c9903b936d8eU, 0xbc6285f53c96d551U, 0x3c09a324bc239104U,
  0xbcb7df4bbc3d62f9U, 0xbc51e433bceb321eU, 0xbb72f53abcd815bbU, 0x3c272b9e3819feeaU,
  0xbaa446093cf9f3a8U, 0xbc47895abcbfdc71U, 0xbb826d55bc309129U, 0x3bc32276bbaa56a9U,
  0xbd2e5958bba11008U, 0x3a211c09bc0146bfU, 0xbcbb38b2bbc03588U, 0xbc07e998bc154365U,
  0x3c44e4dc3ca4a20bU, 0x3c80a022bbe36510U, 0x3b8e5c883c7c59c8U, 0x3a1def933bff39e2U,
  0xbcc2d4233c6b4eeeU, 0xbc758e77bc9a0a3fU, 0xbba0229a3bbf9c52U, 0x3c66f3923972a8c2U,
  0x3c74714b3c9819f8U, 0xbb8ada5fbc82eae1U, 0xbc77881fbc97140aU, 0xbc6feeae3a3857c2U,
  0xbbae1bd43c5b73d4U, 0xbd0079dabb24044eU, 0x3bbf75183c0deec8U, 0x3b0bb296bc85a714U,
  0x3cf5a1ce3a13df96U, 0x3bba6dd2bc2198b7U, 0x3c8a49713cb5e81dU, 0x3be466db3c15c717U,
  0xbae40f9b3c5cd7dfU, 0xbbb52f413c3ca084U, 0x3c20f6403cdaf633U, 0x3c80a8783c91914eU,
  0x3c0760233cdb1e80U, 0x3c6dcddfbb8c047eU, 0xbab434aebb9b7f78U, 0x3bfdad133c903bcaU,
  0x3cd467cdbbf46248U, 0xbc6e4cad3c997493U, 0x3d54beb43d28e0c3U, 0x3cef14373c74a254U,
  0xbcaceef4bcae990eU, 0xbcb607c0bd8610b5U, 0xbb5d7c0fbd73ce57U, 0xbc082926bd206713U,
  0xbd9a0015bd8b0599U, 0xbd027145bd5daddeU, 0xbd583034bc50546dU, 0xbd6f044abdc65fabU,
  0x3cd9a65fbd4c5bcaU, 0xbde51a3dbd15ae6fU, 0xbd32b036bd225dbaU, 0xbcb3dac1bce63a1aU,
  0xbd20d07cbd8f1015U, 0xbd742f86bb7d42aeU, 0xbc7647ec3be1de3eU, 0xbd1ea8bbbd09d8faU,
  0x3b8ef3813ca04366U, 0x3be4e1b7bc74b3e6U, 0xbb61f2033d1015c7U, 0xbcac24e53d1298a6U,
  0xbcec3f14bb39766dU, 0xbc9ce7b9bd027ddaU, 0xbbc10428ba2d0ed2U, 0x3c319430bc7a81e9U,
  0xbc4757363d585500U, 0xbcd521df396f06ffU, 0xbb8b88ffbcb1d340U, 0xbd04efd83c5d2166U,
  0x3c2af6e5bb42cec7U, 0xbcfc8d8ebc628946U, 0xbc827c7c3c005c41U, 0xbc013b9c3c5bd632U,
  0x3c95ce333d152dadU, 0x3cd769343d2f3248U, 0xbad8a23c3d994d88U, 0xbb40bd2c3cf0489fU,
  0x3cc4b2cc3cc6deacU, 0x3c19cf7d3af8ca77U, 0x3c5921f33cbbffcfU, 0x3d05d9933ca402daU,
  0xbb8a10993d833875U, 0x3baf6149bc10c17eU, 0x3bfa7f1c3c1f1d2aU, 0xba328e6c3b82e1c6U,
  0x3ab7b9f63cc7d3a7U, 0xbd3de04b3bc32ec0U, 0x3ca613ce3c5d1a72U, 0x3d24cf263cd7d02eU,
  0x3c458ff5ba18202cU, 0xbb904dfbbaff1a75U, 0xbc3762283bbd9002U, 0xbdfb0374bc8e0748U,
  0x3c4ab7d1bc440aa0U, 0x3c502b353c27e77cU, 0x3c2150463ca90e49U, 0xbbfd00973c0d767aU,
  0x3c8c34c63d7d39d1U, 0x3cbaa38abc0e46e4U, 0x3b49272f3ac79e72U, 0xbdd914e1bc2f9ef3U,
  0x3c4b6ae53b9b93b9U, 0xbc10ebd2bc00f36aU, 0xbd2f6e5d3c18570fU, 0xbd1b97a43d8a8bfbU,
  0x3c8386fdbc573effU, 0x3cfb3050bd32b19eU, 0xbc19056d3c31a760U, 0xbe0df76eba3beb42U,
  0xbd5a1377bd1efa5eU, 0x3d040224bcf6fd76U, 0xbc87364c3cce55deU, 0xbcc5e82dbc34a42dU,
  0x3cba7754bc8b6c2cU, 0x3bcb4c76bc252f67U, 0xbca5e623bc717677U, 0xbe0a80cfbd107cebU,
  0x3c669d593c909e6aU, 0x3ca366b33c2cd15aU, 0xbccaf5933cda8a25U, 0xbc4c1937bccda1d9U,
  0x3d4f07d7bce51688U, 0xbcb61ea9bcb9d183U, 0x3d1bd4833c815737U, 0xbdffd2e43c4644a3U,
  0xbd1afb8a3bae55fbU, 0x3c88185a3632c044U, 0xbd4380c63d653307U, 0xbcb37bb4bd394be7U,
  0x3d796132bcb5a233U, 0x3d0c3fd2bd19f7eeU, 0xbd24e11bbcde07ebU, 0xbdd05d3a3b9285ecU,
  0x3d586996bc75e791U, 0xbd54d7303d1faf7fU, 0xbc1e4feb3d3fe318U, 0x3bc917adbd2b1436U,
  0x3c37e603bbcd63d1U, 0x3b1f1a7c3cffd659U, 0x3c8c0852bb8363b4U, 0xbe0f5ddd3d023ff3U,
  0x3d3e184e3c8b2e3dU, 0x3bbe3d32bc7b0b12U, 0x3c9d7d83bdc5623fU, 0xbcf51ba33c9f8e07U,
  0x3935b67ebc96555dU, 0x3d1b4bc3bc43cbaaU, 0x3c32aa01bcc4411dU, 0xbd210de4bc91633cU,
  0xbbc15ddb3b702907U, 0xbd0551823adc3f44U, 0xbe0d1ca9bdd6ae73U, 0xbadd68823cf5f693U,
  0xbc5e57a6bd0a31dbU, 0xbd1b9cd2bd1fb48bU, 0xbcb8cd05bb6b71c5U, 0xbe1d933e3c3d35c2U,
  0x3cf8d1613c27b0ebU, 0x3d39a8743ccddb63U, 0x3d40633abd3f89f1U, 0xbc6ac6363ce1b0eaU,
  0xbc90e3513d0a7c3dU, 0x3d096133ba20ba8eU, 0xbca820a5bc58d57fU, 0x3c9b656d3be9a852U,
  0x3b63cdce3d019fb5U, 0xbda8827f3d93748bU, 0xbe056c95be0aeca9U, 0x3b1736003ce7d9a1U,
  0xbbb337023b0dacd0U, 0x3c5be5c43d20fb6dU, 0x3c856221bbe73ba5U, 0xbdebacccbc179c47U,
  0x3cbf7b883c4b8a2fU, 0x3d3e311dbc5b6988U, 0x3c8620b4bd8b62aeU, 0x3cb1cec63c92c2b0U,
  0xbca749283c1f55dfU, 0x3d2bdee9bcaddef6U, 0x3bf1c13cbc2d54a8U, 0xbdbeac963afa26e4U,
  0x3c309aad3cf4285bU, 0xbd1280533d5f7324U, 0xbe271c84bd9329adU, 0xbc4cbdd03c9ea814U,
  0x3d255a183c89e41aU, 0x3cbfcd47bc2b6255U, 0x3c42305f3ce957feU, 0xbb5863df3ce41045U,
  0xbd2b7ed7bcc93888U, 0xb97d599fbc9bd74eU, 0xbd0b0a57bcbd63d3U, 0x3b91a57ebd0b0bafU,
  0x3cc4773e3c44e501U, 0xbdb37f63bb3f201aU, 0x3bfe7c573b99d84bU, 0x3afa2c71bc873b5cU,
  0xbceda4cfbb55bad6U, 0xbc895fb43c0d707aU, 0xbbff880bbc6bfd79U, 0x3ab1c692bd07f952U,
  0xbc20bb86bb878ca1U, 0xbc0bacddbd223593U, 0xbd21d3a1bd3b442eU, 0x3ce83357bc73a6c4U,
  0xbd4209dabd8ea78bU, 0xbc6e1782bc6b006dU, 0xbd5be73abd05adffU, 0xbba9b067bd8ac8bbU,
  0x3cb0af353ba12e40U, 0xbd97095fbc41971bU, 0xbd29fcce3d214565U, 0x3c4c27a6bcea34faU,
  0xbd6908803bfdb224U, 0xbcf43c363bfed6d2U, 0x3b813441bd10cde3U, 0xbc96decdbd2f4b08U,
  0xbc3a7af53b58fa02U, 0x3c8ae270bc267641U, 0xbba6efcdbd16e638U, 0x3c9cf63f3c891277U,
  0xbd4f4461bd8046e1U, 0x3a2375ab3c582352U, 0xbd452fd9bd066aa3U, 0xbc1fa00cbd7856b2U,
  0x3c69d189bc2c26c2U, 0xbdae8c673c40c610U, 0xbcf74a433beaf694U, 0x3cacff28bc9eb055U,
  0xbd6342adbab46dd1U, 0x3a60d0d63ad10723U, 0x3bf7a39fbbddccedU, 0xbd05d9b6bd36094fU,
  0xbc8b54c83c35ac81U, 0xbc84ecd4bccb8d25U, 0x3d0511bd3bbee2dfU, 0xbd92bad73d9167d7U,
  0xbb664aab3c6a1648U, 0xbd9738853d1b9ea1U, 0xbd2b5a4d3db3dd36U, 0xbc551aaf3bf7f07fU,
  0x3bd0c5a93cc1c1f6U, 0xbc6b27f33b532635U, 0xbcabf108bd53e0fbU, 0xbdb31a1f3cd2fae2U,
  0x3d52bc0dbd314b92U, 0xbcf2f9383c8f0fa0U, 0xbcc1f91ebd242b07U, 0x3c70dcb2bc288f84U,
  0x395386863d184c84U, 0x3d038518bc36064dU, 0xbcfc7c51baecf9a0U, 0xbd52498e3ccec319U,
  0xbc15080cbaff36beU, 0xbac83cafbcf9b627U, 0x3bbe17e83d81fba2U, 0xbb028c36ba3caa41U,
  0x3aa8118a3ceec596U, 0xbc4dd8a5bd004661U, 0x3bc30ecfbd5355a2U, 0xbdc26304bcb81317U,
  0x3b38fa543cc53e08U, 0xbd03a69cbcb4bfe9U, 0x3d4c8d603da16b88U, 0xbcb4edf53d7b1574U,
  0xbba193853d268e6fU, 0x3d0c97363c13137bU, 0xbbecec893b8b5847U, 0xbd50fed03d118237U,
  0xbb159f16bb0d5466U, 0xbc1e032abc9d81c2U, 0xbc7e0c013d1bf20eU, 0xbbf3c47bbbe4ec6eU,
  0xbb20a7673d39ea7eU, 0xbc838b1dbd15cf6aU, 0xb87c7fc7bd41fda9U, 0xbd961d3ebc1fc390U,
  0x3a1ed8393c4c8e1cU, 0xbd1c5d1c3b81e62cU, 0x3c94385d3d7a77ceU, 0x3c8b09a13d2d8c83U,
  0x3cf7f2273c9597ecU, 0x3c9c0d3abcaf265dU, 0x3c5648e83cb667f7U, 0xbbdd7bf2bbd302e4U,
  0xbc85ce60bcd1ea7eU, 0x3ae2680cbc12bd85U, 0xbc0ae1953c144ef7U, 0xbca2aa6dba3a822aU,
  0xbc413f633b04c871U, 0xbc9520a6bc9af737U, 0xbc200dbfbc2cabdcU, 0xbcb0c7263b9619aeU,
  0x3c2b46bfbc31c81dU, 0xbc3cd7b9babfdc2eU, 0x3d3265893d684aeaU, 0xba91c3a33cce89b4U,
  0xba97c5063cd68188U, 0x3c84bdd4bbde6d38U, 0x3ad9739a3cad055aU, 0x3bcc4903bbf40ba4U,
  0xbceab9e2bc970832U, 0xbc33020dbd1e9d23U, 0xbcb3156cbc8e9152U, 0xbc1ca5b73b9e5611U,
  0xbb9e3ed5bb8697deU, 0xbceac8efbd27ebc5U, 0xbbeb1291bbb2f800U, 0xbcd86e21bcb23a0cU,
  0xbb92be25bc6f1b22U, 0xbc84eda1bcacdc30U, 0x3cbd07be3d3fd760U, 0x3af79bc23c71a498U,
  0xbc3b3e533bfb7a0bU, 0xbc4c4e51bc5c877dU, 0xbacbcc12bc85bb30U, 0x3c8539f93cc2ba83U,
  0x3d0c409abc3f2bdeU, 0xbd196c6a3d2da727U, 0xbc375f303da5e440U, 0xbc078787bc1dd166U,
  0xbc11ac823d13e7efU, 0xbcf15efb3b94c8c7U, 0xbc8d0e49bc1775e3U, 0xbd070ebd39f8982cU,
  0x3c5a2cbebcf956cfU, 0xbb9d84c4bca15c0bU, 0x3c1202243d16b752U, 0xbc6a55b43d84c32fU,
  0xbc92ec113cf5c21fU, 0x3c9f4ba73d1673e0U, 0x3b612f733d20a9e5U, 0xbe1c6c173c821385U,
  0x3b70fca43c14c013U, 0x3cbdb794bb7f7c3bU, 0xbc83cac23c85de8dU, 0xbac06a34bce05033U,
  0x3b46c4f53c2d9c96U, 0xba8220883c48337aU, 0x3b65fb0ebd26452fU, 0xbe2a1e37bcb266caU,
  0xbc27f8103cd535a6U, 0x3d30576a3cdfa117U, 0xbcbad21c3d31135dU, 0xbca093183c080e73U,
  0xbd6423243c55f6b5U, 0x3c4649883b0d8659U, 0xbca006443bdd4d7eU, 0xbe1ec6793d2982c4U,
  0x3c9daa9ebcd5669dU, 0x3cefffccbb399520U, 0xbbdadde63cd5c6bdU, 0xbbf43ff0bcb2e1eaU,
  0x3c1267cf3c056785U, 0xbad5225bbba4d960U, 0x3c5f41d0bd14a2bbU, 0xbe3a2e5abd029d4aU,
  0xbc53a2db3b13519eU, 0xbd8fdb56bd001c51U, 0xbd5ce2483d708541U, 0xbcee2fe93d75999eU,
  0x3c59e2863bcbeae1U, 0xbc7ff0e53d080ab6U, 0x3cee42373c9b3107U, 0xbe1ad6813d5d2eddU,
  0x3d515f41bbb9292eU, 0x3c7813833d2273acU, 0x3968f61fbba67aebU, 0xbce6fb643ad4ef7dU,
  0x3c93151b3ced87deU, 0xbc9c7d54bca46d75U, 0x3cf7595ebd202687U, 0xbe2d2be5bd0960baU,
  0xbbdee3bebcd1b27fU, 0xbda5a49bbc836d2fU, 0xbd5730bf3ca6e252U, 0x3c0880e53d6243a4U,
  0x3c6c3b833cc91baaU, 0x3cb9db16bba6961aU, 0xbc09bb7ebbfeb13fU, 0xbd9c6d84bd342f46U,
  0xb9508fc0bd141123U, 0x3c3e9e50bc5f1259U, 0xbd080709bd2bb653U, 0x3c842aaebcb864d9U,
  0xbc51c1073cc108f2U, 0x3d4dbef13dd81524U, 0x3c072ff83c68ab62U, 0xbd96d0b8bcc29595U,
  0xbd2ea065bd1e0afeU, 0x3d338980bd781915U, 0xbd101c95bd8da78fU, 0xbcf407b6bc0aa2ceU,
  0x3d358ff33b8231b9U, 0xbc095a5ebd21ed29U, 0x3c873ebd3c2c6680U, 0xbdb0f19ebd1123bdU,
  0x3989ff18bcefed28U, 0xbcffa812bca5629dU, 0x3bc53323bcd353f4U, 0x3b1276edbcba6effU,
  0x3d6e3a083c95f182U, 0x3d2eabf43db09bf2U, 0x3cc9c5c3bb8f217eU, 0xbc98dab5bc065f2aU,
  0xbd996cb7bd0e8bc4U, 0x3c1324d0bd412026U, 0xbd8f52e8bd576592U, 0xbccb96dbbc6de2f3U,
  0x3d3a32633d112359U, 0x3d1d1475bcd81a34U, 0x3c6b4b53bcbdc099U, 0xbe0cee64bcdc64b4U,
  0xbd254729bd3f3fdeU, 0xbd1910f0bc73f4c5U, 0xbbd86a30bd740eefU, 0xbb0e19d2bd032471U,
  0xbbb9814f3c8f5d73U, 0xbc9b3d4f3e0933e2U, 0xbcce403a3ce4f686U, 0xbde2357fbcc3eadcU,
  0xbdb80c0ebd363e36U, 0x3d81b8b3be111ff1U, 0xbdb9a37fbdba6fb6U, 0xbc29ae4ebced30b5U,
  0x3d8322fdbd8e2db5U, 0x3c0d99c9bdcbcf14U, 0x3c22ab3abda89af5U, 0x3c1b05c83c9bbd1aU,
  0xbcb9fd4cbe25d1dbU, 0x3d7f10133d79a6f6U, 0xbdc07c8bbd1baa17U, 0xbe2abf5ebe1a4745U,
  0x3ccfd7c2be22de41U, 0xbc96d8eabd80400bU, 0xbca0313fbd5b7900U, 0x3cf7386cbda05d88U,
  0x3d8ba0d7bd8e055cU, 0x3d7cc3913c3361cfU, 0xbc21770fbcab166dU, 0xbda4579bbd22981fU,
  0x3cd17e7fbcc6635bU, 0x3c974880bdcb78b6U, 0x3c6c6453be4cccf0U, 0x3d1f6e64bd48119aU,
  0x3bfa50abbe2369e5U, 0x3d75af9d3d908e70U, 0xbcc39d1b3cc5fc2bU, 0xbe313f55be22a808U,
  0x399a56c0bdf69e72U, 0xbd2aa49bbd8dcfb7U, 0xbd6704a43c61c791U, 0xbaaf205fbdbc6fb7U,
  0x3d84f26e3b956ab6U, 0x3cf475333c0a5083U, 0x3d51c2183da67c4cU, 0xbd26faaa3d5e4205U,
  0x3d0dd7f5bde2525eU, 0xbc05747cbdaff8d1U, 0x3ab601c5be47fc3eU, 0x3c55c332bd4b2788U,
  0x3d18ba8cbe1aa6a7U, 0x3db876c03d9cd0ccU, 0xbdd93a2b3d08d3faU, 0xbe398b5ebe3a381cU,
  0x3cac4ce2be271f24U, 0xbc90979abd321bdcU, 0xbd98465fbceced44U, 0x3c355631bdaf5604U,
  0x3d964e8fbcad285eU, 0x3c7021653c917f7dU, 0x3ca67a223d32f362U, 0xbd88c31a3d6f3abcU,
  0xbb9eecb4ba77df51U, 0x3b200bda3c4d033dU, 0x3bd524afbb6f723bU, 0xbc51f04abb6ca6e4U,
  0x3cb885b1396e68d7U, 0xbadf33c83bd7de74U, 0x39f08d8f3abbce20U, 0xbabc2930bab71128U,
  0x3d6295f4bcaa84b7U, 0x3b799715bca6e36eU, 0xbab19d583cfb97b9U, 0x3d035ba8bbf76899U,
  0x3bd79114bc227107U, 0x3bd8b6713d400913U, 0x3bce761e3b27a7fcU, 0x3c2dce6abba0b259U,
  0x3be849243bdb08a8U, 0xbb94f2eb3aa1c090U, 0x3b44ee483abeda1cU, 0x3cc567b8bc114131U,
  0xbb432dfd3c7728f6U, 0x3c67f5863b2ec045U, 0xbad4bc723c7ab585U, 0x3c0405bfbba89d5bU,
  0x3cd06c94bc3ad766U, 0x3cb510b1bc719d75U, 0x3c1924a73b63e20bU, 0x3c9896893c314cc2U,
  0xbb7a7626bc6a90a8U, 0xbab80a5f3d3edaa7U, 0xbb0607603b013da1U, 0x3bbd70babc927e73U,
  0x3915ce20bc580563U, 0xbba209d63c1bfa4fU, 0x3b41618b3b32b4c5U, 0x3cf37a66bcaf8d06U,
  0x3acad49c3cbd0173U, 0x3b893cce3c4406f9U, 0x3c1dc4e4bbefbb67U, 0x3b5430653ad1f279U,
  0x3c899853bc3ff0b4U, 0x3a59bbd1bbdeae93U, 0x3bb455773c315223U, 0x3bd157253bfd1d09U,
  0xbc3adaa73c11019eU, 0x3c05c66e3cf8075aU, 0x3c1b462ebc081f50U, 0x3b56d1abbc040e79U,
  0x3c068a263c02dc7dU, 0x3c8798263bb2aecfU, 0x3c30cce93d7e8891U, 0xbcc74e3e3b355fe3U,
  0xbc82c7b73c4313edU, 0xbc10707dbcd28163U, 0x3b4b0f9dbd48f7e0U, 0x3d1e581fbbac5983U,
  0x3cac3b773d1639acU, 0xbab07f1cbcdf146cU, 0x3d22d83abc4db098U, 0x3cc56ec53a2ada83U,
  0xbd30a04d3c435536U, 0xbb24906e3c096f70U, 0xbd54abfdbd841d43U, 0xbc4615a8bd0c5aa7U,
  0xb89d91b73cb28260U, 0x3c698f1a3d008e48U, 0x3b59957e3d201b7dU, 0xbc8387993c2d2e76U,
  0xbc746ded3bc793dcU, 0x3b8aaed1bcb5c812U, 0xbb56df2cbd5ee5beU, 0x3ce69c413c592b7dU,
  0x3b915df23d049434U, 0x3b15ffbc3bcf1419U, 0x3cb48b453b671d8cU, 0x3cbccb07bc6098e1U,
  0xbd0c21963b264907U, 0xbd0d56df3c8c7bd3U, 0xbd6ba9a9bdc00b55U, 0x3bd4cdfabca9c73cU,
  0xbc58f8aebb7dea04U, 0xbabbc9043bb421beU, 0xbc86d3cd3d2c5f4bU, 0xbd10190e3c9f5dd9U,
  0xbc90c7b23c130307U, 0x3bee44fcbc1ce04eU, 0x3c36a53cbd3f5645U, 0x3c165dd83cae01a2U,
  0x3d2c832f3c2896dcU, 0xbc05504b3b33a0ddU, 0x3c8018c6bbe58346U, 0x3c9e06d1bc2d3c5dU,
  0xbd0849a03cf66790U, 0xbcc811593c8dc7eeU, 0xbd3b7115bd885298U, 0xba6fc398bccb3fe3U,
  0x3e24a9963c83740bU, 0x3bda0bd43d132e2dU, 0x3d3bc78b3df409dfU, 0x3cafec4a3cde5a6eU,
  0xbc97f3313cf28de7U, 0x3d117bad3c826d50U, 0x3a98b7153bbde3e1U, 0x3dc95a323d0c760eU,
  0x3a45c4f93dd5ff60U, 0xbd93ff36bc6437aeU, 0xbc4dd0973d905531U, 0xbb3608b6bbb02d56U,
  0x3d2ee1133c7ec1aeU, 0xbd5a4f893cf00adaU, 0x39e8edbc3c27126fU, 0x3cf9f37e3d3d8189U,
  0x3d84a110be2cd85fU, 0xbd0ca8ddbe2cb165U, 0xbcb4253dbe27dc29U, 0xbd992ee9be38c0aaU,
  0xbd5be0d0be15cbafU, 0xbd666bd6bcd5889aU, 0xbdef103ebd68db64U, 0xbd486457be6bbb42U,
  0x3cc171473ba2b75bU, 0xbe1af75fbd887838U, 0xbe14c2d23d9cad5fU, 0x3c8b5efdbd865df3U,
  0x3befe1e9bdeca595U, 0x3cbafc52bba5e66fU, 0x3abaa5d3bd0b4b8aU, 0xbdb52886bd3a4558U,
  0x3e47096dbe072e5eU, 0xbda7b82dbe2fe23bU, 0xbcb641f8bdf3fd41U, 0x3d6a522bbe180ce6U,
  0xbd0151c9be42fa92U, 0x3d6d214e3d30b6a7U, 0xbdaf8e7a3d15f602U, 0xbdaa62c8be5c4915U,
  0x3c3b0be5bc9d69b4U, 0xbd92f81fbbd9c254U, 0xbdd0a7843cafbe1bU, 0x3d0d7355bd93eb91U,
  0x3d8f94bdbe3dbb57U, 0x3db9817bbce9a3cbU, 0xbd0515053c98deefU, 0xbdac51303d210523U,
  0xbc279cf53b03084dU, 0xbab8c1703c7ecbcaU, 0xbc72cfdb3b993524U, 0x3bc2684e3a76a58eU,
  0xbb3e31473c552cacU, 0xbc860508bc1496c5U, 0xbb0aa6f53c442409U, 0x3c34e2343ce1675aU,
  0xbd4eb459bc9cddfeU, 0xbb1768593c315a36U, 0xbb764322bcdc9a59U, 0xbce3950abc6d4957U,
  0xbbff0607bbec3c10U, 0x3c401978bdb057acU, 0x3c998ba63ca5b9bdU, 0x3bdd2b6ebac11982U,
  0xbc9e03cdbb97ef61U, 0xbbccd69e3d0a35c7U, 0x3bedde393bcb1ab1U, 0x3ceba5943b5b2b8aU,
  0x3c94ca773cb370e5U, 0xbd2e6db13b06f989U, 0xbcaac80b3bd2b57eU, 0x3cf553e43b04e14cU,
  0xbd832012bbb2788fU, 0x3c7c3e7fbceeff68U, 0xbbea59bfbc883e19U, 0x3a8aec13bb0ff767U,
  0xbbd7483fbbc91df0U, 0x3bb3b10ebdb465a5U, 0x3c8390613cf5427fU, 0x3b17c593bbc0c1c1U,
  0xbd022a853d5c69d0U, 0x3d22f7563d076a8aU, 0xbc2906fb3c39fe65U, 0x3d394ae5bd1d4844U,
  0x3c249a803d0eb4d9U, 0xbd3b3a973c9ebaf0U, 0xbd63406b3c5ca762U, 0x3cebd7cebc18e1ffU,
  0xbd14e48b3c3b0da7U, 0x3c8eba93bce088e5U, 0x3c25ec50bd411ad0U, 0x3be90a0d3cd3bf5eU,
  0x3cb499f63d0a2f36U, 0x3a876791bd92f018U, 0x3caf2b723c7204b0U, 0xbba11b41bbe694a3U,
  0x3d763f50bc2434c1U, 0xbc5675593d2e50edU, 0xbcf1a92fbd6781f0U, 0x37494ec33d0ff542U,
  0x3c4457c43d09c853U, 0xbce0010abd7be120U, 0xbcb282cc3d2c6becU, 0x3b429e93bbed3f34U,
  0xbe9c0fdfbd23755cU, 0xbc95f9af3e128df0U, 0xbd01e17bbb657b88U, 0x3ce96efbba462438U,
  0xbd58056b3ad775efU, 0x3d8c3fd23c6d6ef7U, 0xbc4abed9bab5d7d2U, 0x3ba90491bbb9121cU,
  0x3d9a7310bc945921U, 0xbd094605bccc6e5dU, 0xbd025f8fbd36ff9aU, 0xbd26f4f0bc3ca248U,
  0xbcda494abca8c429U, 0xbd42ef81bd9b0a1bU, 0xbd0817433cfe191dU, 0x3d4bd0f7bd85d1ceU,
  0xbebaf1edbccdc535U, 0x3d0f672f3e2fbb98U, 0xbc02ef6c3cae2ac5U, 0xbd162cd7bcfd2d1fU,
  0xbd6989dcbb89629fU, 0x3d15713bbbd4d282U, 0xbdac2ebbbc0b3444U, 0x3bf2a926b98c853bU,
  0x3dd972c937da1f43U, 0xbd086c6abd0b97f3U, 0xbd1d5c3abcd37f75U, 0xbbe6c894bd7ca1b2U,
  0x3c83fce3bd59e879U, 0xbd2ac74fbdfd5261U, 0xbd09b5463d310985U, 0xbcf4ee90bdb2e470U,
  0xbeac3ed8bd8d4e9aU, 0x3c7087253e13542bU, 0xbc91f043bcd9b3ceU, 0xbd53d753bd99c855U,
  0xbcf54891bd9cf70cU, 0x3d95fe22bd446700U, 0xbd7d831e3d4e8fbcU, 0xbd92354c3c7c439dU,
  0xbc89482bbb9b7436U, 0xbd3fb0fe3b7da1e8U, 0xbcf69de1bd033b68U, 0xbcd7074dbd0bae5dU,
  0x3c0bfe17bce910f0U, 0xbcbdf5f4bb5a10b8U, 0xbc98ebd2bcba1572U, 0x3a930f9ebc11e175U,
  0xbe3c7c25bca99304U, 0xbac60b9fbcea3778U, 0xbc27293fbb43e6a0U, 0xbc96b1603b91a1d6U,
  0xbc5fb669bd4dcdfcU, 0xbd27f1b3bdd99436U, 0xbd2b551cbc325039U, 0xbc1da83ebc07e83bU,
  0x3bded8fc3c223c8bU, 0x3cec99bcbc93551bU, 0xbb0d0427bc02c283U, 0x3d598613bd05f0d7U,
  0x3c57153fbcff7d10U, 0x3d5f17313c338adcU, 0x3a22c05e3ccf745bU, 0xbd041b9bbc65a288U,
  0xbdee56f4bcd1a9ccU, 0x3ceb7a0cbcc69151U, 0xbca9e8bd3c9c035eU, 0xbc31ed7cbc2696c1U,
  0xbba9098d3bfd3323U, 0xbd8cd876bd1ea66bU, 0x3da3aec43d80ba69U, 0x3a918f6a3d10c939U,
  0xbc8ed27d3c36eec5U, 0xbc701678bc05b9a4U, 0x3c5eec86bd15d3abU, 0xbc9a3b24bb9a9b22U,
  0x3b129e813c31621aU, 0x3b75f37abb8260c0U, 0x3b9247953d2067c7U, 0xbd1eff273b4a207dU,
  0xbddce0ed3d06df10U, 0xbbc835e2bd04df80U, 0xbce8f407bcd6b373U, 0x3cf6e7c33c5be311U,
  0x3ca0ee58bd1447b8U, 0xbdb0a86cbd8f9f23U, 0x3c8bdb0eba48fc29U, 0x3c9715b23d55ed8fU,
  0xbd5b16a93d03ec92U, 0x3c55a0583c9ada7aU, 0xbbbfd3453d1335dfU, 0x3b5a6a073c489146U,
  0xbcb84e0bbcd07e9eU, 0xbd593e45bd2227efU, 0xbcbc6ba4bd887e3eU, 0xbb4295ecbb0f6f08U,
  0xbcde5782bd7bd664U, 0xbb2240e93c8a2127U, 0x3d0cc823bd1ec9f4U, 0x3c7d4c47bd73d2eeU,
  0xbd8ea2edbd812eb6U, 0xbd133443bbf6a477U, 0x3d1e9fa5bca8319fU, 0x3cd54a58bd319ac1U,
  0xbd8eb6fb3cd607c2U, 0xba8f95c73d45e354U, 0xbd88dc503c90a608U, 0x3d17bdd63d6dff13U,
  0xb92e25473cd8ec41U, 0xbd343494bd825f4cU, 0x3c05dd75bcfa45ebU, 0xbc12fcc13d6b4e9dU,
  0xbd2c26d2bd587cd0U, 0x3b756a033d1de686U, 0x3c9e72c7bcc6294dU, 0x3c91b787bc984291U,
  0xbd73f1c73cbe75b9U, 0x3c54e450bbbed5a2U, 0xbbd2eb7bbd8cb970U, 0x3d469698bd043847U,
  0xbd8c857d3cc1887eU, 0x3bcb36ee3d35c813U, 0xbcb3d03a3d4a6b9dU, 0x3cde65f0bcd2c5f1U,
  0xbb7a61ea3d1080fdU, 0xbd65380fbca48335U, 0xbd0e1214bd001ca1U, 0x3d98bb93bc96fef4U,
  0xbd35aea63d157005U, 0x3d4486673c1322c8U, 0x3d462d34bd2b8672U, 0x3c83d0de3c8f3a84U,
  0xbd29bbef3d2852f4U, 0xbb0e2159bb71181eU, 0x3cd31126bc8358e5U, 0x3caf5880bd833e66U,
  0x3dd439b5bd3a4adbU, 0xbce215d7bc5fe180U, 0x3cbec3113cbff40fU, 0xbcec6873bd130846U,
  0x3d38b4b0bcf6434bU, 0x3ac80143bbd086ebU, 0x3c656a56bbca1363U, 0xbc727407bd173cceU,
  0xbd98c5573d488f6fU, 0xbaa202f8bd3a79e8U, 0xbc519c293dbc9b8dU, 0xbb975011bc6ae20cU,
  0x3d53c59dbd6b782aU, 0xbd8dbd85bcd82661U, 0xbd8cc81dbd8017caU, 0xbd4f81fc3cfa76e7U,
  0x3da20e75bd7a3a0eU, 0xbd3293f0bd8797caU, 0x3c2f2964bcb68e2fU, 0xbd6ce5b1bda685a1U,
  0x3add73bcbd23a697U, 0x3c5daeae3c6f6bfbU, 0x3cc2b6bbbb1b4e92U, 0xbd4d03d2bd2f7d8bU,
  0xbd40db583cf9d0fdU, 0xbdb908dfbda06389U, 0xbd81517f3d66afa2U, 0xbcade0d83bc8af0eU,
  0xbbf74d9dbd6224cdU, 0xbdf1cd3fbcb98948U, 0xbda49450bd6569e5U, 0xbd882221bb85905aU,
  0x3d6293adbd1380a4U, 0x3af4bb7ebd30fe1cU, 0x3d9f45adbc22108fU, 0x3d91ac89bc57243eU,
  0x3c64f32ebd4c8941U, 0x3d971c4b3d0fd5daU, 0x3bce119f3cbfa8adU, 0xbd50fcfbbd753186U,
  0x3d6dafebbd0acbd5U, 0xbbe66a66bc50d620U, 0xbc87f44c3d969578U, 0x3d87d49b3ca65d13U,
  0x3dc48d0cba203688U, 0xbd904a8f3d5eb598U, 0x3cd924183d1087f9U, 0xbc4ae76a3d6132aaU,
  0xbbabfdb4bad79c8eU, 0x3c246c823c5b8a8eU, 0x3b66b356bd1f6826U, 0x3ba31bbbbd969713U,
  0x3b1275733d1ed648U, 0xbcea4c7a3d1ffd39U, 0xbd3bf465bca3b329U, 0xbcfaa601bd370825U,
  0x3c96dd93bcd1419eU, 0xbbf06760bc466e91U, 0xbc21028fbcde109eU, 0x3c1b50873ccf6f68U,
  0x3cae80a13ca64f3aU, 0xbb9eee66bbbfaa1fU, 0xbc0d71f5bc57c33dU, 0xbd5e8709bae69392U,
  0xbbb9610e3da294ecU, 0x3db27a2b3d9ed37fU, 0x3cc85c5abc94416cU, 0xbb78a490be2201adU,
  0x3d52bfe63d94a1aeU, 0xbdb890cd3d684ae9U, 0xbe0921453c1c962eU, 0xbd02aee9be1ae16dU,
  0x3b7b311d3c58b2f9U, 0xbc92d554bd897135U, 0x3b6bce9a3b519752U, 0xbb7f8f483d80123eU,
  0xbc28972f3daeefabU, 0xbcd1d54bbbefa94eU, 0x3b87b295bd127db8U, 0xbe10ec29baa79782U,
  0xbd0880fdbcb42d57U, 0xbd2418ae3c921b2eU, 0xbd09e450bca9b45fU, 0x3cb4a76939e8d7eeU,
  0xbbbe11b63cf4cb91U, 0xbbff91bd3c34518dU, 0xba954c7ebcbea992U, 0x3d487e5c3cdb4404U,
  0x3d00f0c43b7956feU, 0x3d03fe05bc246329U, 0xbc8abf96bc38cd39U, 0x3c79eef1bc46697aU,
  0x3ca60255bbb5a07dU, 0xbd5b45d53c142b02U, 0xbc3c83573b856082U, 0x3c8a5d66bc478aa8U,
  0x3e7e96983e0a7e30U, 0xbd9156ec3ed605b2U, 0x3ce64a8f3e890a10U, 0x3e95293e3d4035b8U,
  0x3e8f6af93e33f1f5U, 0x3e31f2e63e0e46a4U, 0x3d8b7b4c3f2b33d5U, 0x3eacbfb03f19641aU,
  0x3f2a10c83e989606U, 0x3e6f02a83e930885U, 0x3ea2acc43de38638U, 0x3d7842483f1e8cb5U,
  0x3ebd06ba3f1be4d8U, 0x3efed4783e11d94fU, 0x3f08d0fe3ecea0abU, 0x3e96daf73e48c772U,
  0x3e7aee07be9ad89eU, 0x3e1c717d3e862668U, 0xbd030075bee58950U, 0xbe8e5588be33f2edU,
  0x3d3d7cd0bf0635d2U, 0xbe850cbd3cbc1f40U, 0xbcbf50ddbe0be185U, 0xbe5a5114be873b5fU,
  0xbe8568073e7fc5bfU, 0x3e7a6508bd605af8U, 0x3d1d1b28be3ebdc1U, 0xbbd10281be226323U,
  0xbe34952ebe404fc1U, 0xbe49442abdbd6ac3U, 0xbe2ddbb13eb7018bU, 0xbe49380c3df30283U,
  0x3c5f5cb7be9610d0U, 0x3da6217cbdab8449U, 0x3d55b4a9bea98436U, 0x3d5e1638bdb6c50fU,
  0xbde0bbc5bebeee8cU, 0xbde432d5bdd59c2aU, 0xbe0cf5973e7e7b53U, 0x3e0aa83abd569e90U,
  0x3e48bc263e4b1a56U, 0x3d2a293e3d852bd8U, 0xbd22297fbe2488e7U, 0xbeba57b9be1e38bdU,
  0x3cbdd0f73e8e8172U, 0xbec95b003d48d8a9U, 0xbe57841d3e726abdU, 0xbec48e2b3df140c0U,
  0xbe020469be40e403U, 0xbdfcba013e891608U, 0xbe8e6317be9c6d8aU, 0x3e88ae16bd45e5cdU,
  0x3d6bd23dbea0c80aU, 0xbe96bc3ebe7fbdfbU, 0xbe5a9a733e06cd7bU, 0x3e433dcd3de641e0U,
  0x3f05d2343c16b35cU, 0xbdbba787be31e685U, 0x3e68267dbd6546c5U, 0xbea29a3f3f3e5fb9U,
  0x3f0c54183cb90098U, 0x3d7d29c0be297729U, 0xbe83f5963dd59c32U, 0xbe2766f6bcb8b1f0U,
  0xbe3d1912be57eca8U, 0xbb758865bc9f0e46U, 0x3ca44df5be8c1614U, 0xbe2a449c3e15233bU,
  0x3de12aa93d9c6dccU, 0x3e5a4cc1bc3e1f9aU, 0xbd8b97aa3ea7023fU, 0x3e1c54b2bd24256aU,
  0xbda3d7d43d890088U, 0x3d0784653d8cd7dbU, 0xbcda6b413ca3ef6cU, 0xbe28ba52be49f2afU,
  0xbe13c2e6be01ddebU, 0xbd8f7af23d79ec2eU, 0xbe3521b53e1f10e0U, 0x3e1f363fbe2c9467U,
  0x3d8573f6be1988edU, 0xbd824dd43b20fa7fU, 0xbe644f0ebdb7b6b1U, 0xbd7a2ee6bd5eac02U,
  0xbdee3bf13e0f11d3U, 0x3d58debbbc36a8b4U, 0x3b6a6dff3e293b6eU, 0xbdee00c2b94c3481U,
  0x3d0628efbe32d4ecU, 0x3da430dd3d6c81eaU, 0xbddf0839be3f7766U, 0xbe1bbb9ebda6895eU,
  0xbd4d036fbe974d72U, 0xbdb8d18f3e634b62U, 0x3c5b2cc43d9a43dcU, 0xbd307d40be1a3175U,
  0x3e94466c3d945ac5U, 0xbd8c452abdc4e48fU, 0xbe1580703de6b3b6U, 0x3daae289be26f657U,
  0xbd97de30bd62a1e7U, 0xbdadaa20bce83b4eU, 0xbcadaad6bec50bd3U, 0xbed7b7abbd8dcf01U,
  0x3df90be9be7206f4U, 0xbe002220becab6b0U, 0xbd8e1563be7e7deeU, 0x3cb232d13c5a9986U,
  0xbddcfd1bbdb548b4U, 0xbd85b7253c51a815U, 0xbda0a77a3c0fbfadU, 0xbe2c31333c7e625bU,
  0xbd0876babf158b60U, 0x3c1f1a623ea48a0dU, 0x3a4ee448befc6784U, 0xbd0c5ee7be121644U,
  0xbde3db38bedcac83U, 0x3d3c0a0bbeb50360U, 0xbe957e8e3e6ae4bbU, 0x3d83d5c33ebd4736U,
  0x3ebf7e433df71ddcU, 0xbab32b20bddb01deU, 0x3e317c8cbdc7d759U, 0xbecd64483f5893acU,
  0x3eab4f71bef64ae3U, 0x3ed9e1483d0e0322U, 0xbe8e392e3e7d0076U, 0x3d3b76f13e74858eU,
  0xbe21f99bbe982185U, 0x3e86cdfb3e2872edU, 0xbe1ff4f03e259d8dU, 0xbd3f96c0be20da41U,
  0xbd1f1012be9448a9U, 0xbe25408fbd6afc13U, 0xbe4d9397be20a46bU, 0xbe30cbea3e66e5a2U,
  0x3e24e830bed6b597U, 0x3cabd3033d3aa71bU, 0x3e77b059be4bd4bbU, 0xbec21ee03f0b4c76U,
  0x3e97275cbc7d6a0eU, 0x3ed0375ebdb8dfe3U, 0xbe583f593e86fb40U, 0xbeb06977bd8b3d08U,
  0xbe16b3af3dfcb65dU, 0xbf0294f1bf3c7a6dU, 0xbe54923d3ec67504U, 0x3f11c73cbe138b51U,
  0xbeffae153e897f6cU, 0xbe97f9013e7ff60dU, 0x3e8e7b42be7e0340U, 0xbcf8e0c63df6ce37U,
  0x3d9758983e90b60dU, 0xbe83fca2bda2f9b0U, 0x3e3980813d08927aU, 0xbe88819abf547708U,
  0xbf3ca0db3ee9024eU, 0xbda5e14f3d84af6dU, 0x3e21340ebf030c54U, 0xbe6507d7bde4bb21U,
  0xbe950402bdee3f35U, 0xbd57a5283eab7925U, 0xbdbd383abe055d3eU, 0xbdf2b001be678d3bU,
  0xbf6b821cbde5f945U, 0xbf0b74f7bf339690U, 0xbe141166bf148b99U, 0x3e98b8243efd4ea9U,
  0x3f002d713e7d701bU, 0xbc674bd03cf17550U, 0xbeb8a07d3d8248f7U, 0xbc3e7df23eb17707U,
  0xbd5c39d83dbac963U, 0xbfa96c3ebeb5b39dU, 0xbecdfe63bf032459U, 0xbceee5c5bc743e0eU,
  0xbdb21082be6b3c6dU, 0xbe446048bde1ac7eU, 0xbe9831a9be229cb1U, 0x3dd233f7bd17d2dfU,
  0x3d07fd8ebd6572c8U, 0xbe4d32483d39b63cU, 0xbe42038d3f2d2fcdU, 0x3d14b7ccbe60b0ebU,
  0xbd9826633ea9f57fU, 0xb7746ab9bdaa737dU, 0x3efb30793dec2d75U, 0xbdf1fbb1bd1616f4U,
  0xbe1e87adbeb641bfU, 0xbcb490c9ba8f7916U, 0x3d3de7563e234927U, 0xbe9f34fbbe3d7a0bU,
  0x3c3e4e23bc4bd913U, 0xbdee98173e23b4ddU, 0x3e615c3a3df9f864U, 0xbe30b1bdbd031e1fU,
  0x3f0a9ef73b2c2b04U, 0xbd8675cd3eaf6befU, 0xbe14d2083f045a5cU, 0x3dbf147dbdcf46caU,
  0xbe57aa263eb2a523U, 0x3e016ba0beccde75U, 0x3f496df2bcd5172dU, 0xbe152f513e8e20bdU,
  0x3e8ec3f1bec5a6d1U, 0x3f7d0701be5843f5U, 0xbe210b783f05a581U, 0xbe1601103e0c9ac4U,
  0xbbc0aa8cbe953629U, 0xbe380d2e3e19428bU, 0xbebd06b8bb6bcfabU, 0x3d35cb1f3db36972U,
  0x3c416a4ebd010d98U, 0xbe1b88dcbd02e01eU, 0xbc89e0613e87b8aeU, 0x3cb54e553dcff893U,
  0x3bf0ab70be19a7cfU, 0x3dd4bc813d81ac1eU, 0xbe0bc4803e36fde2U, 0xbde7d76d3d5fd125U,
  0xbd483d9cbdefe831U, 0xbe29384e3d6e4f11U, 0xbd1d07fa3de12b16U, 0xbe528e873e32db0dU,
  0xbd07e8cebdbc738eU, 0xbe345525bdf01691U, 0xbdd38ce43d92c33fU, 0xbe7768663d8cee5aU,
  0x3d1dc6a13e191df6U, 0xbd36ecdfbe0ffe55U, 0x3c8b00753dd3e961U, 0x3db274873d195007U,
  0x3da22b78be33f729U, 0xbc4dd3b73d8e7cf9U, 0xbb8381e03d90a38dU, 0xbe1ca1063cec1b2fU,
  0x3d70de32bdea2148U, 0xbd19688f3e06ca70U, 0x3de9bab4bce49373U, 0xbd63a5f2be4ce95dU,
  0x3d5bf0aa3e568171U, 0xbe1287cabe991298U, 0x3dace52f3d0e076aU, 0xbe0e3fd83b9bca91U,
  0x3d811e473e8bedf0U, 0x3dad56ffbd9dbec0U, 0x3dc16c29be29aae3U, 0xbcc9bfa0bde510bfU,
  0xbdc59f12bcf8e815U, 0xbdcdcf82bb2e57a8U, 0xba8cf027bd530463U, 0x3e24bcaabe99d21dU,
  0xbd02d41d3c50d616U, 0xbc8585013d68b4c2U, 0x3df94dfabe834559U, 0x3d1e3a78be609c37U,
  0x3dd66034be88cdb9U, 0xbe4592afbe8b62a3U, 0xbe96c8b9bdf1a642U, 0x3dd4a70e3e662032U,
  0x3ec215c43c258f6aU, 0xbd04e18f3e0933ceU, 0xbe3348cc3edf11daU, 0xbcc038403e00ef67U,
  0x3deef16f3e4152a2U, 0xbe2cb110be876a73U, 0x3e238adb3c4c7283U, 0xbef69cc9bd022715U,
  0xbd6374143db4366fU, 0x3ce5ad113e33d296U, 0x3d23977e3e6c01b9U, 0x3daf6198be87b85bU,
  0x3e26156abee464f8U, 0xbe8fea26bdf20dbbU, 0xbee2c378bd236457U, 0xbe6ae9a43e289892U,
  0x3ea95a683e13cdc5U, 0xbba5d3b4beb84938U, 0xbe54d8e33f5c05feU, 0xbe51a44dbe530621U,
  0x3dfc33b7be9b12fcU, 0x3e74bd7b3e85cf10U, 0xbe87f98dbe27779eU, 0xbf0905ee3df6e8b2U,
  0xbd9a8ceabea7066eU, 0xbd9a10263eab2c43U, 0x3e3d66593ef9e2baU, 0xbdd7087e3ddeff4bU,
  0x3db8b33d3d0c62a2U, 0xbe4fa39cbe76a344U, 0x3e13773b3d81d77bU, 0xbea2d7abbe978cefU,
  0x3dae5fc53e5d86fcU, 0x3df4344dbf1f65caU, 0xbdd2738d3ea4985fU, 0xbf0d316d3dc1ad17U,
  0x3bf6c7bbbf083f15U, 0xbd53a9a2be871962U, 0xbed75d4bbee63c2dU, 0xbe9a8f10be689745U,
  0xbd8bd6c93d23b5bcU, 0xbd94ee2d3e14e768U, 0x3e3dfcf83e9e6059U, 0x3dc40a68bd259cb7U,
  0xbebab034bd79598cU, 0xbda0818bbe2a76fdU, 0xbda59ea9be1630cbU, 0x3e13681f3db90dd6U,
  0x3dfb9a81bd93ac3dU, 0xbe02d41b3d2abde5U, 0xbe6343e83e01c5eeU, 0xbdacb3c83e260b7fU,
  0x3e57b27a3e848a50U, 0xbe6a7704be2a0bb9U, 0x3e94aed7bdabc5f1U, 0xbeda51ffbd87fbbeU,
  0x3cab98ed3d79284fU, 0x3e053e93be84cc0eU, 0x3e012a5e3cb0cb15U, 0xbe285c8abd69b44cU,
  0xbe44d118bebd4b74U, 0x3d1692edbe8939ccU, 0x3e2a3915bd6e2219U, 0x3ca813933d7e34e7U,
  0x3d98078dbce419ebU, 0x3d9ab275b9b2eb6dU, 0xbcad2ab03d39c187U, 0x3e3799403e5d4a03U,
  0x3e8576043dc5447fU, 0xbd8d05ecbd70d535U, 0x3e8c608e3e41db34U, 0xbd8e33703e0dd41fU,
  0x3dcb6dbabe42b3a2U, 0xbd900dcbbc8ec430U, 0x3dd5ab06bea2cd4cU, 0x3da5fcccbdc24aaeU,
  0xbd104bbabe364e37U, 0x3d38de48be713e9fU, 0x3daee539be2ea074U, 0xbee13acb3dc15db7U,
  0xbe5eea1f3be63761U, 0x3de8322abeba152aU, 0x3dedfe6fbd81117cU, 0x3ddd604bbcdb8159U,
  0xbebcdf893c34485dU, 0x3dd3e5aa3c253a79U, 0xbe72f8b03d815166U, 0x3d873a22beee1241U,
  0xbe5caf41be169b4aU, 0xbe7508d63c52b4f8U, 0xbc979e78bd29f3cbU, 0x3dff76813d565e5fU,
  0xbd6d7b64bccd70f0U, 0xbd7cecefbc03bd93U, 0xbdf6f0903d8df93cU, 0xb8ed6a33bdac7541U,
  0xbe1a4ce6bdd9ec04U, 0xbe05af37bde31666U, 0xbe52672e3deead88U, 0xbe3a5d3a3b5592a9U,
  0x3de6fa2d3df32b51U, 0xbdf80c90be07fcdeU, 0xbc858d11bdf6b7cbU, 0xbeeced453d8ca5c1U,
  0x3dd63b4dbc82ff2dU, 0x3c096a9abe156db2U, 0x3e1cff753e066b45U, 0xbde2b448bd462b01U,
  0x3b184951bd783735U, 0x3db80a793da2d227U, 0xbe9753493df091a8U, 0x3d084f67bde96acdU,
  0xbe11c87dbe308b6dU, 0xbe37f214be51a668U, 0xbe5861fcbd5822f2U, 0xbe0ed223be14184bU,
  0x3e876350bd558892U, 0xbda29b9a3bf184c3U, 0xbdf68518be9f82b8U, 0xbe9e6c9e3e6dc52fU,
  0x3ec5762dbd818abaU, 0x3d138030bdccc0e1U, 0x3dc6f1213e047dd7U, 0xbe44d26b3daf8f1fU,
  0x3dbdeaedbdb9820bU, 0x3deb3ad03e2861a3U, 0x3e41bf843e19f511U, 0xbdc7d25cbdd53bd7U,
  0xbe569139be9a82feU, 0xbe484b63be836064U, 0xbb7923523ce0279bU, 0xbe5802c33d8f4d21U,
  0x3e14f1c9be5ad6f6U, 0xbc91ea1bbccca754U, 0xbe408edcbd24b180U, 0xbdd254c73e88aab5U,
  0x3e9f440cbeb4ff87U, 0xbd5c6367bd63858eU, 0x3d36ad493e563724U, 0xbe4b08e83e7e2d2eU,
  0xbe930e36bef9d14cU, 0xbd6259e93cc51399U, 0xbe230022be540bbbU, 0xbee82bc63ac86776U,
  0xbc5f9cfb3e4f56f8U, 0x3ddd1ebbbeae86e7U, 0x3de05a06be54bea6U, 0x3e3cb768be311227U,
  0xbd781a9abed43110U, 0x3e941f3f3e95800aU, 0xbe2609a93db0b399U, 0x3d75219a3d903f32U,
  0xbdd5bcb3becd0d81U, 0xbcf5ca5f3e1b41b6U, 0xbdb2309fbe3c46c3U, 0x3d9b6f69be4f6c98U,
  0xbea0945fbddf0c13U, 0xbb6f742cbe615f94U, 0xbc113d923e9ea222U, 0x3caac10a3e3819aeU,
  0x3d635798bb7897ddU, 0x3d85c65d3e35abf7U, 0xbddea8f63d6be2afU, 0x3e9634b23ea9f5dcU,
  0x3d7269683dc41866U, 0x3c60a70f3d0946ffU, 0x3e3d2ae33e7bd262U, 0xbe35abe2be0e7e96U,
  0xbdf32cd73d4318fbU, 0xbdda0566be08df17U, 0x3d9d9d083d31ce11U, 0xbce5848ebe835f53U,
  0xbf03ee5a3d11d873U, 0xbea64bfabe7b1eb7U, 0xbdcd11503dbae572U, 0x3ed774643e89b73aU,
  0x3db8d2a5bdbdae0eU, 0xbc8858ad3e69c243U, 0xbe59bacb3e51bfbbU, 0x3e6836f3bd140978U,
  0x3e21d6e13e38f8deU, 0xbea67284be0dbdb1U, 0x3ec45ebc3e643654U, 0xbeb883b4be14fb30U,
  0xbe39aba03e9107ecU, 0xbdbc84d9be4a2e7cU, 0x3cd5356bbd34a647U, 0xbe81ff783c8ce53eU,
  0x3daf3ffb3cdf2faaU, 0x3e036a6fbe060550U, 0x3d82452ebd73f349U, 0x3e08ff81bc25f1c9U,
  0xbc627d1e3e166d39U, 0x3d0b7b143d3084f7U, 0x3cd0b161baedbc8bU, 0x3d866b58bd88a839U,
  0xbc9905aabdbf7c1fU, 0xbc245180bca9ecacU, 0x3c9918ec3b1eb00aU, 0x3e0cd22bbd581383U,
  0xbb85be0c3d539b1eU, 0x3c316f553d768398U, 0xbd212dd33d32db68U, 0xbdc70f973cf0c500U,
  0x3c90d91ebd4b5affU, 0x3d166d1abe791835U, 0xbc8af9d73cfa3559U, 0x3df2d09f3d64b4c5U,
  0xbd0379fb3de30109U, 0xbd6c1ea83d44b09cU, 0x3c8bb658bd359bbaU, 0xbc28b96b3df35765U,
  0x3d04dae7bcc63c9dU, 0xbd06c6c2bd2bba84U, 0x3ce91c723d08f6c5U, 0xbd9cdc0ebd95e2f2U,
  0x3c7527553d63a067U, 0x3ce2b6f63c10bd31U, 0xbe55620a3ce4afd1U, 0x3cd9f36e3d22a588U,
  0xbdaeb5323badb3aaU, 0x3e2f029abdeafac1U, 0x3e248b1c3d83ece9U, 0xba45b2c73de8d33bU,
  0x3c9ba73c3e6e2023U, 0x3d91e9d93d9ebcd1U, 0x3deb60af3d990df3U, 0xbcc2a7ee3e037836U,
  0xbcea2a053ca08ec7U, 0xbb1724b6bc520babU, 0x3c601d533d987a22U, 0xbd143692bcb2af04U,
  0x3e05aed83d84ba9bU, 0x3cb781003e0c5492U, 0xbe042f11bca53ad2U, 0xbb25d6213d85b8aeU,
  0xbe06cbfebd5c73a6U, 0xbe92c1513df93f4aU, 0xbea6f0db3d1db8f8U, 0x3e89e7033d5e573bU,
  0xbde3b9a1be6f1915U, 0xbedc256c3ca43c93U, 0xbdb621a0be0f1274U, 0xbea39e963df7a44cU,
  0x3ebb13543cd96220U, 0xbe6210bfbe8cbaf5U, 0xbde2703cbb982b51U, 0xbcc87fa83ea616e4U,
  0x3da78b6b3e1da0eeU, 0xbe607c12be1f7383U, 0xbea2826ebdab722bU, 0xbecd31a83ab3cbceU,
  0xbda39c693da4f5a0U, 0xbe84f0a63d837378U, 0xbe299d81be2fc6c2U, 0x3d7572a3be8a49bfU,
  0xbec93a53be274529U, 0xbebc8668beb595fcU, 0xbccd4ee8be8ece41U, 0xbe6de92b3e5bde48U,
  0x3ee05d47be928aa6U, 0xbe286d9cbe09eeeaU, 0xbddd3e60be9c5676U, 0xbd0adf293ef7bc1fU,
  0x3e230768be538138U, 0xbe5dc966be452cc9U, 0xbe351d29be1187c9U, 0xbf08f0b3be11a1c5U,
  0x3db94bf63dfcc60bU, 0x3ddd3d14bdb2a17aU, 0x3d028f9e3d95c6a3U, 0xbe1163d43d35e2fdU,
  0xbd20f29a3dda91daU, 0xbe33ef8dbc9a2cbfU, 0x3e0d3596bcadf7ffU, 0x3e7aa0553e64cda8U,
  0xbd29d7a6bdabe1aaU, 0x3e265e4c3d80a030U, 0xbe557f393e1e16daU, 0x3d09995f3d5da54eU,
  0x3e2ded72bcd2ecc4U, 0xbe6093ac3c5085e3U, 0xbe00e84a3d9a577eU, 0xbe3fd5253d495268U,
  0x3e167508bd815a07U, 0x3c63219cbc5704f9U, 0xbd2ebf0d3bb3eb20U, 0xbd942476be860b82U,
  0xbd977aea3cfc7bf7U, 0xbd281a99bdd157cfU, 0x3e1ddac0b8de9f5cU, 0xbe8727ecbe1562e3U,
  0x3cca4092be4a515eU, 0x3df54fc5bd220f79U, 0xbdec4a62be885be2U, 0x3c99fffcbcd6a7d7U,
  0xbd142bc9bd8d16eeU, 0xbe2646ae3deb3fe1U, 0x3dbff270bba71f84U, 0xbc8e8f603cac0c5bU,
  0x3bf972debeaa89daU, 0x3c9e53d3bd3057d0U, 0xbd2389bdbe21c044U, 0xbd4c733abd8b7a89U,
  0x3c75b2853d923cfbU, 0x3d97188abddb7463U, 0xbd402cb93e2853ccU, 0xbc28ee64be2689c9U,
  0xbd706764bbaceefaU, 0x3dbd851c3bf4e0afU, 0xbd91f6babd6d595dU, 0xbe0b98abbdca5852U,
  0xbe71249abe8e48b8U, 0xbd963b753dadc92aU, 0xbc7c88d63e2c98fcU, 0x3d0485563bc6edefU,
  0xbe757697bee752dfU, 0xbd08588ebe6070c2U, 0xbda32d66bdfdf0a0U, 0xbabbed943e6b9356U,
  0x3e73b85cbdc4d89eU, 0x3ca39fae3a55aa51U, 0xbe8817853eeab14dU, 0x3e55e58ebe659c76U,
  0x3db18b2f3d86d937U, 0x3c85a9793df428feU, 0x3e3e479c3e9c0743U, 0xbeb7dd31bdfc478dU,
  0xbd49baffbe1749d8U, 0x3d78de773d69ac23U, 0xbe4a0efa3e056d2aU, 0x3d88e989bdf595afU,
  0x3d942cad3dd5d554U, 0x3ed0c682be587deaU, 0x3e2d9337bda4ec32U, 0xbe2f579f3e77423bU,
  0x3cfe3e263f004b9fU, 0x3e2302f6bd56e9a0U, 0x3eb7a36fbc37855bU, 0xbe3af820bed19e89U,
  0xbe03df2b3bfd00c8U, 0x3d2227863da2ee7fU, 0x3ccb51163d81b21bU, 0x3ebf091dbc062107U,
  0x3e6b19ee3cee1c93U, 0x3ddd195a3db9809dU, 0x3d5b7de5bdea54e6U, 0x3dcea6c6bdc6f97eU,
  0xbe3bbf66bd60eb77U, 0x3d4f0d643cf214f5U, 0xbe4c3d32be0fdec2U, 0x3e831d11be24a1d4U,
  0x3e8f07b6be1bec66U, 0x3d55ecd13e19bf0aU, 0xbe40eeb53e9043d1U, 0xbd45349ebd96449cU,
  0x3d11c47f3d24007cU, 0xbd5f4a63be17b5d6U, 0xbc969137be0421aeU, 0xbe884cc63d92b27eU,
  0xbc15f1873e263122U, 0xbcfaa6a9be1065abU, 0xbdb78a053e4ba2b6U, 0xbe2522073dffdd21U,
  0xbde93f25be6e7195U, 0xbe9a00b93e9a06abU, 0xbe720f7abe6a7b67U, 0x3dc284033a9512a5U,
  0x3e657cb1bf42a682U, 0xbeb82a313d3f07f0U, 0xbed34b70bd0e5521U, 0xbda04e7cbb7d7d9dU,
  0x3e7985d3bd8b842aU, 0xbeb3839ebee96daeU, 0xbca59aa0bdac73a2U, 0xbf07a4c73eabce52U,
  0xbe8322dcbeb4aa84U, 0xbc977c4abeb8d707U, 0xbe9173903e529557U, 0xbe0952fe3d0da9bbU,
  0x3b177ed03da7c9c4U, 0x3e259e64bdfb3674U, 0x3d8359b63e5cf191U, 0xbe5d65093dcb1065U,
  0xbe2844333e6106b9U, 0x3dec7306bcbad7d3U, 0x3dbdb4acbcecab94U, 0xbe21f24abea0caeaU,
  0xbeb6b9363e6c9ef0U, 0xbe14b891bbf53927U, 0xbe82dc463dfbacd4U, 0xbdcd81f7bf246439U,
  0xbe84ea7a3dd77942U, 0xbdfd122e3e7df848U, 0x3e608e953d5b2fa9U, 0x3e20aa20be6c86a2U,
  0xbe2d8d923e14d3d6U, 0xbdd49912be1125b8U, 0xbb1f773bbdf4bac0U, 0x3d3d5c183d1cbbfbU,
  0xbe08a082bd8c6bd9U, 0x3d562370bded295fU, 0xbdc513943d9e5774U, 0xbd4c8668beba85ecU,
  0xbd4e55f33d7b118aU, 0xbe71f82abd572f55U, 0x3daaba57bb934fa4U, 0xbe48086ebe2e36f1U,
  0xbef3070d3e3d387fU, 0xbd43cee7bdb54975U, 0x3d0582cb3e0e84faU, 0x3e385b64bdbceb6cU,
  0xbd8048db3d70acdcU, 0xbec1fe533e679088U, 0xbe0ff5aebe6ed3c6U, 0x3e1338393d854e37U,
  0x3d362215bea2d9e2U, 0xbe58c506be53b0a5U, 0xbe91371dbc55135fU, 0x3d6a5f42bda4c967U,
  0x3eb03d49be39d362U, 0xbe799c7dbe785400U, 0x3e9721d3bd3bf9c3U, 0xbe9c2fb33eb37805U,
  0xbd3d6aeebd70d607U, 0x3e3aed92be6672d9U, 0xbe7c3ea33e3a46c7U, 0xbded4bcb3e899e84U,
  0xbde83ea13de8777fU, 0xbe929a91bdbe8726U, 0xba14df9a3de03f6bU, 0x3da64346bdc80e35U,
  0xbe0b3d733c7e42d1U, 0xbc749b75bceb778bU, 0xbd3983bbbd933c26U, 0xbd8b05c73e0d1b97U,
  0x3e01a68d3e4dbe4bU, 0xbe58a994be523cc2U, 0x3d77598dbd923bf9U, 0xbbebc4793d1e2464U,
  0x3c7701f43e889098U, 0xbdbdd602bd2ffc47U, 0x3dd51922bdd3bda7U, 0x3d29a15dbd4b3359U,
  0x3d252c3f3d379a97U, 0xbdf7f7b6bdab1b41U, 0x3d7d42ca3dbe73a2U, 0x3d117a2abe009708U,
  0xbe720a5f3c5b3db3U, 0xbb98895cbcb01b22U, 0xbda3d2cfbe7dde14U, 0xbe45f8bfbd815b84U,
  0x3ca3d0e93dc66b6aU, 0xbdef41dcbe9bb4faU, 0x3d87052fbd8b535fU, 0x3df15038be3aacdbU,
  0xbe03f240bcaca3b4U, 0xbbf9ba1dbe27cf6fU, 0x3d819cb4be3290f9U, 0x3d973de4bde2274dU,
  0x3e01201fbd890cffU, 0xbb5ba6f1bd585f5eU, 0x3d331a7a3d0bf742U, 0xbe8ca10bbdfec10bU,
  0xbde5ebf7bddec3b4U, 0x3d9e4141bd7a8d75U, 0xbc05c377be23aa49U, 0xbea737c7bd837c42U,
  0xbe90ef14bdba2db1U, 0x3c2b8a08bd2f1b90U, 0xbddbbf86bdb57400U, 0x3d50e262be91ff81U,
  0xbe2033e6be386d94U, 0xbaac9c7d3d4c1a73U, 0x3dafc010bd2b8371U, 0x3c7501e93d34ecf1U,
  0x3cb7129cbdaa2707U, 0xbe8f1c3fbe890428U, 0xbe8bc6d33e5bcfd6U, 0x3f21d5a5bc4af636U,
  0xbe24e57cbe674fb1U, 0xbe058d5c3ebec3e6U, 0xbea04400bde91fb2U, 0x3e8d08dd3e53cd96U,
  0x3ee6e0d33eb2509dU, 0x3d9f0e973dba0f4fU, 0x3ee9e44f3de12aa0U, 0xbe80370fbe92c9b1U,
  0xbe594ffbbe3aa880U, 0xbe919198bdac1303U, 0x3da377ccbca8195eU, 0xbdaf898dbf07f0efU,
  0x3dd298813e691ac1U, 0xbe4e63cabe923244U, 0xbe7e66b83de01516U, 0x3ecf7faabda5982bU,
  0xbe6cb899be8069bbU, 0xbd9a0f6c3e09e83cU, 0xbeb56c023db45bffU, 0x3cf742c7bedb5ffcU,
  0x3e499c0d3f06e727U, 0xbe71cdf4be21f9eeU, 0x3ea195edbd1d9607U, 0xbe6971b6beda8ccfU,
  0xbe218d0a3dd19a8aU, 0xbe01b699be3e9525U, 0xba576006be9589c3U, 0x3cf1850dbf1ce1dfU,
  0x3e0ac7a93de3c23cU, 0xbe9c8ba1bd5eb0ddU, 0x3e6b32dabd9c4020U, 0xbe93b5783b383673U,
  0xbe0eb27ebeaf10dcU, 0x3cd31d83be0c8c2dU, 0xbe9b8a97be53099dU, 0xbde12de6bf1823e5U,
  0xbdb312093ea963f5U, 0xbf07f396beb62d85U, 0x3d8443263e498d2eU, 0xbcbe7d27bee6adafU,
  0xbf172b3cbc6acc21U, 0xbdfc81aa3c94eeb1U, 0x3e67330cbe80cf12U, 0x3e2b677ebe37bf04U,
  0xbe9be1e0bc7194eeU, 0xbe4e14ddbce49301U, 0xbf001f973ea8b551U, 0x3f691bbbbdf76dbfU,
  0xbdc4fa6ebde16428U, 0xbebc9a653ed7f9e1U, 0xbe4a28563ea78fc1U, 0x3e01574b3eddf409U,
  0x3f16ca1fbd0920bfU, 0xbdc28124be124309U, 0x3f291d03be2a7fadU, 0xbeddfaae3f1dedfbU,
  0x3e8aa57f3dec0602U, 0x3e40c9b6be8e0859U, 0x3d78eb5abdaa1bfeU, 0xbec749ab3bb425fdU,
  0x3d9a5566bf1ac191U, 0x3da72dc63df88f2bU, 0xbe02320ebdf2eec9U, 0x3e072ab6be8edbcfU,
  0xbe12e02cbe48a047U, 0xbe842048bd9fe05bU, 0xbd3d1bef3e84b77cU, 0x3e94694d3de7f8faU,
  0x3eac6b6dbec0bab3U, 0x3e630ac63de1af36U, 0x3e028e4ebe31b76aU, 0xbccb1b833e564c28U,
  0x3e2359c2bf0654a1U, 0xbdd210e6bcfeb9f9U, 0xbe805f983e9fcce9U, 0xbe42fbd7be627ed1U,
  0xbd3e5ccdbe7444b7U, 0xbc511b1abe20ebbdU, 0x3c2d6deebe33aa67U, 0xbe978e4b3de10588U,
  0xbe9f2cbbbdedd26aU, 0xbde27a59be0c6598U, 0x3dd389b0be23c87bU, 0x3cb36bf2be8c8165U,
  0xbedc8b3cbe80f13eU, 0x3cf6feb73dd6362fU, 0xbe5f0aa5be2b6427U, 0xbdb2b037bee97bb1U,
  0xbec7ca9ebe6647c0U, 0xbe8220fbbdaea96eU, 0xbec73ecbbe078961U, 0xbe525836bdee573eU,
  0xbe8e4dedbf348a56U, 0xbe3890a33e77329cU, 0xbea80f5abec74eafU, 0xbe5758823eb93d17U,
  0x3e8cabdd3d394af3U, 0x3c00c0803e1e2081U, 0x3da778913dd74fe7U, 0x3f1b7caa3eee2982U,
  0xbe00bcc1be0f97fcU, 0x3d68dbdb3dbfdb4dU, 0xbe9596943ef58a36U, 0xbd47edf3bf0d0463U,
  0xbeb3f840be125f7aU, 0xbe9e0be83d9a7201U, 0xbdf5ea17bd206a7fU, 0xbc5bc600be30a8e6U,
  0xbe4471e5bf3d85a5U, 0xbec1ed013e3f4e28U, 0xbc85039ebe16ce62U, 0x3dc0c2073eb91f3aU,
  0x3e9df2a3be45b25fU, 0x3e12255c3e2ced56U, 0xbe3cceb33ccea669U, 0x3ea8930a3f058618U,
  0x3d8e41883f1ba22dU, 0x3c9247a53ba8db04U, 0x3e7149bf3f28fcceU, 0xbd495fdabeb645a8U,
  0xbeb65fc9be3cc59cU, 0xbea345f5be7d10ecU, 0xbb141f6d3e3c6bd3U, 0x3e1ff5233e2a35d7U,
  0xbde28b34becd01d3U, 0xbe81f863be26e21dU, 0xbec0028cbf10dfefU, 0xbd3669213e83a1bfU,
  0x3ef91243beb23a19U, 0xbc3a4d993db3f7a6U, 0xbe17fc6b3ea77171U, 0x3f01ab6a3ed2fca6U,
  0xbc94e16b3f175115U, 0xbe20febbbe2d47e0U, 0x3e80c3f13ec2266fU, 0xbdf581b0bee04b74U,
  0x3e073b71bd16a0d1U, 0xbd72b359bea3f7f6U, 0xbdab804f3ea35fceU, 0x3e0747fc3e961a1eU,
  0x3dd365ee3e120746U, 0xbd44296c3e67dbe5U, 0xbd8bf7603e53c5f4U, 0x3e07c7a4bea56f62U,
  0xbe8261dbbe133524U, 0xbe515109be11006bU, 0xbd2a5309bed95c09U, 0xbee84096be0f7dbfU,
  0x3dea8aa83dd2edc7U, 0xbe3b7578beb6d5d2U, 0xbd92c26dbee0f5a0U, 0x3e68c7cdbdb63ee9U,
  0xbe97ce99be345f2fU, 0xbe4d2790be7c35a5U, 0x3e18dba1be0e3663U, 0xbea14700be5591beU,
  0xbab665673db45ed5U, 0xbe536fd73d9e80fdU, 0xbe978e38bd218c58U, 0x3ec7d92c3d8ff583U,
  0xbd0504e5be517369U, 0xbe729bcf3b34ad4dU, 0xbe2d7db2bdd103d9U, 0xbe82b0863e54fc2dU,
  0x3edbbcbb3e09675eU, 0xbe566d51bea01a26U, 0x3d689587bdc91ac3U, 0xbe91156c3e942321U,
  0x3eede312bd8ab6f3U, 0x3e1a8ef7bea6bb57U, 0x3cd3334fbefafab2U, 0xbe87cd8dbe7af7ccU,
  0xbe34918abf02ba8bU, 0xbcd7917ebf26b205U, 0x3e10a6703e7ca132U, 0x3d4f8fba3e7f0163U,
  0x3e644fc8bd41ce85U, 0x3ec6f18d3ca30bc7U, 0x3d9e69173e0421c9U, 0x3e812e143f21a470U,
  0x3e426e4a3de13d39U, 0x3d7620a73e280d27U, 0x3e7cafee3ebccf06U, 0xbe8bfba4becfce84U,
  0xbe6cbcd5bf1e37a8U, 0x3e926e823eab3e9eU, 0x3da84a973e1190f9U, 0x3ead32633cbdaf2bU,
  0x3d22fa923d4de245U, 0x3dd38a2cbdad0655U, 0x3d43d0adbd915c7bU, 0xbe3330febbbc7691U,
  0x3c7cfe83bd9d2984U, 0x3cfab17fbca420a0U, 0x3d490de5bd209110U, 0xbde362e5bd88b6c1U,
  0xbe13f60dbd6f667bU, 0xbd33f523bcbff977U, 0xbdc35803bd688882U, 0x3d99da0ebe1464ecU,
  0xbdcf5bf9bd7d7ea4U, 0xbccbc9db3c7aaa44U, 0xbc6bc8c0bda98193U, 0xbcfdef283ccb50b5U,
  0x3d12776ebe1fa625U, 0x3d87268b3c5c7828U, 0xbd7f064abe215d78U, 0xbe4d5691bd1e01c9U,
  0xbd4e27a2be2ca5c1U, 0xbc1b6654bdeec1ebU, 0xbd2582f3bd9f86cbU, 0xbe0e34fdbcc8a204U,
  0xbdfdb748bdda320aU, 0x3d85e909bda3034eU, 0xbde2f66abe11ef8fU, 0xbcabea3bbd19fcf2U,
  0xbd9fa467bdc329f6U, 0xbcb5f9d0bcfb3c49U, 0xbd8f12df3d435822U, 0xbda412823d39ee3fU,
  0x3da2b02abe102b70U, 0x3d8424863df46a4bU, 0xbdd4ef5abe4ff347U, 0xbd8791043d296235U,
  0xbc7a607dbe1f8e57U, 0xbd581ec8bd37d8eeU, 0xbdb0750f3c8d9de2U, 0xbc4be596bdf8fa01U,
  0x3dbb0cd4be2d3042U, 0x3d4f9049bdacd756U, 0xbd8302b3bd9767ccU, 0xbd7471d93e078f21U,
  0xbd8ce9543cc82f6bU, 0xbda60a51bd0658ecU, 0xbe32f4853d874b34U, 0xbdde9d8e3e132f04U,
  0x3d97a9683b4f6672U, 0x3e08dc55bd4b57f9U, 0xbca0655abe30be60U, 0xbe2b896ebe187b9eU,
  0xbd50d3fc3d5bef2dU, 0x3d49e168bc7f2575U, 0xbc8a3767bdad3ea0U, 0xbec2c166bdc8ccf0U,
  0xbe2b2718be1c791bU, 0xbc590aa5bdb51f9bU, 0xbe3e1e9dbe104548U, 0x3e390123be85c6d0U,
  0xbe114290bde8e6ebU, 0xbd4f4f023c838969U, 0xbca92f85bdafb7ebU, 0xbd4903d43df4db22U,
  0x3d7c4b903c94d5f8U, 0xbdcf720d3c81eb8dU, 0x3db72359bd9fc9d0U, 0x3cfe3869bd8b1234U,
  0xbe0392f0bdae22e3U, 0x3c2123bebdd22292U, 0xbd513a353c501e14U, 0xbe9260b1be4a6641U,
  0x3d9fd5fb3d2dff17U, 0xbd4c09e8be86fd8dU, 0xbc611198be0b25daU, 0x3d2866b1bd8b8b8bU,
  0xbe3d24703c81b12dU, 0xbdbcda81bd13f2f2U, 0xbb73e1c43d34acd6U, 0x3d2ffd613e2fafc2U,
  0x3c8f998d3d523631U, 0xbe6dba6cbd1f61dcU, 0xbb1245f03ca58ad1U, 0x3d7b076c3cb79d3bU,
  0xbcf61308be378dd5U, 0x3cb34bb03b802841U, 0xbe729aa93d5e87cbU, 0xbe070958bde20c5aU,
  0x3d808d823e327051U, 0xbebe9148bebe4640U, 0x3dbab8efbcf492bbU, 0xbe0a508dbd560715U,
  0xbd6e14663e1bedc6U, 0xbd466856be550423U, 0x3de18ce73b88fbf9U, 0x3e654b5dbd06b641U,
  0xbe23406c3d6dca8dU, 0x3bd13eeb3ea199b1U, 0xbd9bd62fbe54cb3fU, 0xbda5f1c33d6a3ba6U,
  0xbbacf0023d125dc4U, 0x3db304063da94e37U, 0x3c9fb9a4be80e15bU, 0x3cd441e83d242030U,
  0x3d6dc92fbd840e71U, 0x3dc508c43e140a0fU, 0xbc7673dcbd51ef46U, 0x3e31a1f53e03b59aU,
  0xbe1203f0bd75772dU, 0xbe10f4e3bd0f1a6eU, 0xbd24bf36bce6bc58U, 0x3ce65a05bd9350d3U,
  0xbee9128dbe0c020bU, 0xbd0eeab1bd738002U, 0xbc8f3d82be69ebb2U, 0xbe3793193e399de7U,
  0xbd43ed0c3c194575U, 0x3d36f492bd1c4497U, 0xbe214ee8bc3b23b8U, 0x3e271868bd879185U,
  0xbe2662bf3e57eed7U, 0xbddca7c63cb2d518U, 0xbd43739c3e170d6aU, 0xbe220749be3fce99U,
  0xbd9ea6a1bd2f6156U, 0xbe04f27cbcb5dd63U, 0xbd77f460bd3d12c0U, 0x3d7bdd7ebe1c1298U,
  0xbf18c3e9be8ec557U, 0xbdb0eae3be673dbdU, 0x3ccbefe7be8a8df7U, 0xbe23d34e3e103a7aU,
  0x3d036c07bc9ec72bU, 0x3deeafe8bd165e18U, 0xbd7b26173d97bf5fU, 0x3e77d8a9bdc08e73U,
  0xbe8181443e80d281U, 0xbd5e44b13ddb116cU, 0xbd48d95f3eafa164U, 0xbe8cef34be3ee7abU,
  0x3a8e0d9d3d148cb2U, 0xbdc2b0d5bd91bb54U, 0xbd7bd0bfbda27792U, 0x3d2f09bdbd85937aU,
  0xbd9d8c5dbe0caabfU, 0x3e84b2ad3ca1f125U, 0xbba652f0be2d0af8U, 0xbec10085bde9adcaU,
  0x3cb77425bed1ed2eU, 0xbea8f000bc2ac343U, 0xbe11a986bd89fbaeU, 0xbe40cc5abd8e56c5U,
  0x3b90796dbd92f75fU, 0xbe73125bbdecd157U, 0xbda67781bcc62863U, 0x3ca263f53cd4296aU,
  0xbe0c04c23cc29b31U, 0xbda92f46be716d43U, 0xbd5cc1edbcdb4adcU, 0x3d1852cdbda70ae9U,
  0xbe37109abe6b051cU, 0xbd7f9546bda68b21U, 0xbad35c0ebe1aa478U, 0xbe7e78a83d43974fU,
  0xbd1f8316be836c50U, 0xbe99d9773d1ab21aU, 0xbcdeb733bd8b53b9U, 0xbca26ab3bdd687dbU,
  0xbdb3c65b3d169457U, 0xbe303ebfbe2d448eU, 0xbd9a2dd93dba6b13U, 0xbdd2fe05bcb3520eU,
  0xbe6f1736bd0f0a74U, 0xbe169350be136ae3U, 0xbd4f520fbdf2904fU, 0x3d0d3f49be41e72dU,
  0xbe7a8a9fbd8b0d1bU, 0xbd4e60a5be6f252fU, 0xbd5b3393bd80cae2U, 0xbdccad67bd14253aU,
  0x3d8a77d3be8858cbU, 0xbe88e5ca3d717b07U, 0xbe6180213e44b35fU, 0x3ca73e51be72b7d5U,
  0x3e01bd1f3d7d9fb4U, 0xbe7287b8bea1ec6bU, 0xba822ef43d95d246U, 0xbe3631c1bde07123U,
  0xbe6062043e20813fU, 0xbe5e11a6bebed871U, 0xbd01a6faba07b747U, 0xbe7f123abdb27db1U,
  0x3db355a5be7c0aceU, 0x3e3dd38bbe7f7279U, 0xbe50129cbea5114aU, 0x3eaf35163d5fb9e5U,
  0xbe643b62be8fc133U, 0xbd55dcf43de8829fU, 0xbee0576c3da2e250U, 0x3dfb4d60be486cabU,
  0x3ecc1b5bbc87fe12U, 0x3c0aaf27be26714cU, 0x3f39cb443e36af97U, 0xbf40ad413ecd8dfaU,
  0x3d3c2987bd7c72b7U, 0xbf6e2935bce88e08U, 0xbde52394bcd50f3fU, 0xbe5d8582bf0be76dU,
  0x3e259d7cbe96f7d9U, 0x3ddb909cbeb1cd5dU, 0xbf055496be85990dU, 0x3ed8cea4be0cd932U,
  0xbed93278be002bd3U, 0x3e0479543e1222b3U, 0xbe89c4c33e06daddU, 0x3d87241ebf415ec1U,
  0x3ec58daebe0911ebU, 0x3de2eb7dbe7d0b18U, 0x3f9002f33d986b6fU, 0xbf1031293f49b7f6U,
  0x3f115ad6bed92227U, 0xbfa3f89e3cf53e80U, 0xbd16dde6be4a2b00U, 0xbea347fabf6a9458U,
  0x3ce0f0dbbee76ed5U, 0xbd8b6260bdca14baU, 0x3dd9822a3ee94112U, 0x3f04b864be5cfca6U,
  0xbf7b943e3e848f00U, 0x3d90b7893d419b04U, 0xbce583b1bdc38ce3U, 0x3dc16a45bea54bebU,
  0x3eec13eebe3e945aU, 0x3de18f54be873f65U, 0x3fa2963b3e5f7dd8U, 0xbed983fb3f6bab85U,
  0x3e37af84bebd93b2U, 0xbfd1470e3da2ae4fU, 0x3e7dffbdbf1fee29U, 0xbec05a1ebf4e7198U,
  0xbe9001c23d613cf4U, 0xbe2cdba0be0a38c2U, 0xbe09b962bebca4abU, 0x3cb213bc3e1d0699U,
  0x3e16939dbe446bd0U, 0xbeae61323e0fb7dbU, 0xbdd455823ded2c96U, 0xbe1bdf4fbdfc4eebU,
  0x3dab849a3eab9cd2U, 0xbde3f5cfbdcdb357U, 0x3e349c853e0c97efU, 0xbe69a7dcbe0c0f70U,
  0x3d873bde3e3dca36U, 0x3e54f0e3bdee1de8U, 0x3e035c0f3daeb300U, 0x3d0a1f3abdb5bf0fU,
  0xbf0ab1dbbedfa9c0U, 0xbb53e5d13e56b90dU, 0xbd2c235abf07dd8fU, 0xbe86bee33e858d9eU,
  0x3e84a1edbe8999edU, 0xbaafea4c3da3aa79U, 0xbe61c4ed3e457617U, 0x3ec33d76be9154d2U,
  0xbdd482b83ef80600U, 0x3d62bb5b3ca3fe45U, 0x38244def3ed5c399U, 0xbec91a08bd0c1befU,
  0xbd9fc1a2bdbd2823U, 0x3d91d29bbe0f88c1U, 0xbe6ce5293e6f4299U, 0x3d8b86193de60bd5U,
  0xbee51eeabe9704a9U, 0xbd9685d83d8460f9U, 0x3d632733be86a102U, 0xbea75d623cc1e003U,
  0xbe6f0e5dbe08f83aU, 0xbc5cf347be0bcb99U, 0x3ba7fb15bdb3bbc6U, 0x3e1f360abcb7145dU,
  0xbe8aae52be496523U, 0x3e0015adbc0c3d9dU, 0xbe72c10d3d1b9e0cU, 0xbd85099bbe03bc02U,
  0x3cdbce38beae735fU, 0xbdb7e967be349e10U, 0xbf109861bdc49c97U, 0xbd04d8c83d794797U,
  0xbdfb341c3de7739dU, 0xbd6dc7d53dac6b54U, 0xbda23dc63ccc3a59U, 0x3e29ff90be0afdb0U,
  0xbdbdd2f8be35eef2U, 0xbe46da353e0ac74fU, 0x3d23b70dbdae36feU, 0xbcbe40093df80db7U,
  0x3c53a545bd515e02U, 0x3d0bda5b3d3d498bU, 0xbd888f7fbdd94962U, 0xbe37bf7a3d688717U,
  0xbd97846f3e292064U, 0xbc9ccbdcbdb3b36bU, 0xbd04e6443d47ca3eU, 0xbd9a51e23e29b4bdU,
  0x3d6ff2a5be2bef9fU, 0xbbffa006bd285806U, 0xbd1ffc29bdeb4e78U, 0xbe4bfae8bd87cb7bU,
  0x3cc351e0be19be49U, 0x3c294bd23d8f3d39U, 0x3d8e0ed53a187054U, 0xbd392844bd3952d9U,
  0xbe2460813cd67ddaU, 0x3d9f34983ce78a7cU, 0xbc374f52bb8a6839U, 0xbcb1f4ff3dacc0acU,
  0xbe2229a2bda9f69fU, 0x3cd614793cc12e3eU, 0xbd09eb4c3c31104bU, 0xbd8c2b3ebc371f96U,
  0x3d84b6e3be42c879U, 0x3d38c265bca73fe0U, 0x3d9745c2bdbc6bf1U, 0xbec06983bba49bfaU,
  0xbdbd056cbd98a968U, 0x3c8d5799be1b0ec1U, 0x3dc4b51b3c1af048U, 0x3d946ae1bbe3b75aU,
  0xbe906ef8bc825d63U, 0x3de95dab3dfe50b1U, 0xbe06d590bcb1b32fU, 0xbcbc1986bd772b44U,
  0xbe3d7415bdf72736U, 0xbd6a3ae33bf2da68U, 0xbde407083d9d9eaaU, 0x3ae125083da8ea31U,
  0xbd879fe9bca68950U, 0x3e3511d23d4b4ab1U, 0xbbd05261be16bed2U, 0xbe7bef063dbfc5c1U,
  0x3d88c82dbdfddaedU, 0xbdafaf21bdc9c109U, 0x3da563a63da8de79U, 0x3e339f4fbe712532U,
  0xbd9ba598bc566f96U, 0x3e13bf1e3de3c405U, 0xbdd3b9443e04a6b9U, 0x3c3120e13ded1ebcU,
  0x3d1e74b9be28220eU, 0xbb2fc374bd13b37eU, 0xbec6f213bcd25a81U, 0xbdd6e6963d8a1e54U,
  0x3c851a12bc4c9b33U, 0xbdc584573c949d6fU, 0xbe3a20d9bdbb5521U, 0xbe42fe85bd4bc4ecU,
  0xbda364b1bdaebeb4U, 0xbdec50adbdbaae65U, 0x3bdba9a8bda592c4U, 0x3d0aa90e3dec1401U,
  0x3d212044bda6f1d8U, 0x3d8b5b6a3deb506eU, 0xbdc5ce46bdc2b783U, 0xbd5e266cbad7f265U,
  0xbda027b3bd53cbf0U, 0xbc862211bd85e442U, 0xbd46efb13e049fa9U, 0xbe4b73e23d48f47dU,
  0x3c509cfa3d96fd51U, 0xbdbb41c43d8d962eU, 0xbe0c5e2cbde8caaaU, 0xbd9dd270bdf078eeU,
  0xbd9c8ff3bc21a100U, 0xbdffbd19bccb9996U, 0x3d91f8e0be1a3245U, 0xbdf6c7533d958361U,
  0x3cc6ea95bcb72306U, 0xbdd2123bbe1dedeeU, 0xbcd7c4dfbe530815U, 0x3bc1f1763e48c889U,
  0x3de53f053e5e0184U, 0x3c5c73a2be344b5eU, 0x3d1a258ebe0fa65dU, 0xbe07349f3cf14e0cU,
  0xbcaf31ca3dd1511dU, 0xbcaed1cfbe0a8823U, 0x3bcde47f3d4757fcU, 0xbbd1246c3ddc28f1U,
  0x3d1aba283c926a65U, 0x3db813eebc808c29U, 0x3d5c9c443c3bdbaaU, 0x3d574224bdb410cfU,
  0xbdd010883da09296U, 0x3ca8c1113d19ff99U, 0xbd1de9743d5a3adaU, 0xbb20acdcbda6d881U,
  0xbcec68ea3e08da14U, 0xbc619cd43d797b23U, 0x3d0730b2bd390cc8U, 0x3e121924be08b240U,
  0xbd7cad93bd85f681U, 0x3d066e28bd9cd9bbU, 0x3d0613723c3f87eeU, 0x3c37181f3d2e21b5U,
  0x3c86a7463d0509dbU, 0x3cfb7291bbf6cf3bU, 0x3c8bb982bdac3278U, 0xbcfb45ae3c1b5ab1U,
  0xbd45faa3bc01c269U, 0x3dbf34523cc199b9U, 0x3bcbf3383d9d1b53U, 0x3d0e92dabc7931ddU,
  0xbbfc94e4bda37c72U, 0x3c7a6b75bd963234U, 0xbe09efc9bb91370cU, 0x3cbe864cbd8ab7ffU,
  0x3c827d70bd89ff29U, 0x3d41066bbb091b67U, 0x3d12dbb9bc7f63c2U, 0xbcf081d8bc4f3e20U,
  0x3b94319dbd57470cU, 0x3d205697bc495642U, 0xbcaa88bbbdb796d7U, 0xbe19e6a73cd09ebbU,
  0xbd3fe62cbd4aabdbU, 0x3d7333d23c1b42b5U, 0x3c882b5f3a3960a3U, 0x3e4472b3bcbb6bcbU,
  0x3ce11404bdc5e8e7U, 0x3c855942bd880f9dU, 0xbe10ec1dbd3141e7U, 0x3d47ce0abd883b72U,
  0x3c98fdae3ba3c083U, 0x3cb9f2dabdbdeb70U, 0x3da7cf1d3def8541U, 0xbd9e32463cd9e169U,
  0xbdbf79c4bb95c9bbU, 0x3cb26e00be62913fU, 0xbe07b37c3ce7e87fU, 0xbc24029e3dc3f326U,
  0x3d2e21d83d500ff8U, 0xbe57c4e4be169708U, 0x3d7dfe133e0db7ffU, 0xbe3d67193d925796U,
  0x3dc6bb18bced133eU, 0x3bedb0873e0539b9U, 0x3d20e2273de8d40dU, 0xbe2d0ea23c077f18U,
  0x3da19dfa3c404f14U, 0x3d153380bdc01481U, 0xbc0cdbbabc8ba558U, 0xbe5fac25bac6d12eU,
  0x3b813ec5bd91b45eU, 0x3dc3aa2dbda2e4a5U, 0xbdbc63443c714d44U, 0xbe08ca5cbe7f96b2U,
  0xbe94d055bcc2eb60U, 0xbe924ee9be01fb9aU, 0xbd95ee7bbd3564a3U, 0xbdd04bf7be3ca987U,
  0xbdf3968c3d18599dU, 0xbd268bc53bbb52f5U, 0x3d0c0961bd226cbaU, 0xbdc46776bdd50bafU,
  0x3dd85cb0be2de1bcU, 0x3cc23987be21553eU, 0x3e20315bbe305db6U, 0xbe029b90ba2a9f5bU,
  0x3cdbf902be247327U, 0x3c325703bc415477U, 0xbe389b903d6bf604U, 0xbde4c658beb507c9U,
  0xbe5f31093d03ac89U, 0xbe52205ebe936189U, 0xbcad0994bb06ec67U, 0xbe1ef1dabe482fc1U,
  0xbdbae8d7bdedebc3U, 0xbd2d3d673dc43ffbU, 0xbd837bb23c431076U, 0x3e9648793d5db89bU,
  0x3c29d43abc26edddU, 0x3e1c62553d2f74c0U, 0x3dcd0d63be7390fcU, 0x3d044551bdf95191U,
  0xbe3bc9403da19827U, 0xbc8e9adebda11099U, 0x3e556704becaf38eU, 0xbd486158be715e76U,
  0xbdbb7e0bbd9b247cU, 0x3d60a78a3d3adb9bU, 0xbcda8e3ebe5bbb86U, 0x3eac1254be746986U,
  0x3e3a6adebe8c0ae0U, 0xbe4d8a423da3acc1U, 0xbe070846bd79a72cU, 0xbd2600463a756c88U,
  0x3c7291f2bd802825U, 0x3e6d8018be31fb88U, 0x3dbd36f33d5d5d1dU, 0x3eac4001bc098a6fU,
  0x3e156f323e0fbb7dU, 0x3df7025b3da1e865U, 0xbc951b65bd533bcaU, 0xbcd8cc1abeae32aaU,
  0x3e8f601b3db19ccfU, 0xbd02c8693d233dcbU, 0x3ebc7afa3cfd2fafU, 0x3e486badbe68be70U,
  0xbef0351ebbc0606aU, 0xbdbca75d3cd53df8U, 0xbdc5b2bcbdf74a19U, 0x3dd701f7bdfd7b5bU,
  0xbe93e4273c2a6d36U, 0xbebe59d2bd4e5484U, 0xbee8eb4f3e24f1f0U, 0x3b9a03913dcc7a3eU,
  0x3e3a49d6be275c3cU, 0xbdbda5af39943a21U, 0xbed44d303e4eb8bbU, 0xbb0c8a983e6430ddU,
  0x3dbfd3283e8e75bbU, 0xbe18d0b7be04ddf0U, 0x3e8cb6323dc2f439U, 0xbf222ae73d709232U,
  0xbe5688343e9e770dU, 0x3e4ad76bbe35cff2U, 0x3e980d443d956d40U, 0xbe1b7a98bdd541aeU,
  0xbe180a953d91ae3bU, 0x3d0bdf8cbde88211U, 0xbe21a2dbbe474e6aU, 0xbe326eb53e5e686eU,
  0x3e51e01b3e688e81U, 0xbe1a0e373e013276U, 0x3d4aba25bc825c0cU, 0xbe09457cbec513e0U,
  0xbe05effc3d4e5438U, 0xbdd60e463d986c57U, 0xbe0499613e54a5b2U, 0xbd9d6c06beb04d3dU,
  0xbe2bb7fc3d81a9d4U, 0xbe177761bcce5cf6U, 0x3d57d9b0be5af7bfU, 0xbe2f322dbe5250b5U,
  0xbeb60e70bea9b273U, 0xbe0fbaa93debd94cU, 0xbe2aa5c6bd94b956U, 0xbe41066c3dbef34cU,
  0x3e32b9cfbdd369daU, 0x3da154763dda0efaU, 0xbe64458b3e1bf435U, 0xbdeb2c04be13a3d7U,
  0x3cc8250e3e5f748dU, 0xbe6ce9c73dee7478U, 0x3e22dadf3e02f899U, 0xbe8685663c9df391U,
  0x3cbd7fbabe953679U, 0x3cd15ae0bbf20666U, 0xbd9af69c3d3f3d5fU, 0xbdf5785bbe91b76bU,
  0xbeb5e6a4bec1815bU, 0xbe00a3a5bde01002U, 0xbe81364fbe412b9cU, 0xbd3214253e4ff435U,
  0x3e26c326bdba0c49U, 0xbdebea1e3c836159U, 0xbe9b78cf3ec652baU, 0x3dcf9778be88dd57U,
  0xbc95f3dd3de02c4dU, 0xbe39e6943de2884aU, 0x3db5da353ea32321U, 0xbecc5a773d3917ccU,
  0xbc5a2735be48b0f1U, 0x3d812ef4bdbd5649U, 0xbe4579e03c55241aU, 0xbc98864bbe80e14bU,
  0xbc9dd428bd8b5eedU, 0xbe2ca151bdf16a8fU, 0xbe6c20ac3d54571aU, 0x3d259f0bbbde7bf8U,
  0x3d214607bd0b23caU, 0xbdd841863ea373d1U, 0xbdad5d613e19b85cU, 0x3c0735a2bd1913d2U,
  0xbe32f0283dd1d628U, 0xbd83175dbd18d3b8U, 0xbda74eb2bc498ccfU, 0xbe6a2fbfbe33a02fU,
  0xbe2916063e1f1949U, 0xbd57d3e7bd5456caU, 0x3d94169e3d6c8afdU, 0xbe56238c3cbdabfbU,
  0x3d2fac0dbd685b78U, 0xbe2c890b3da2802dU, 0xbe0381f6bcfcced9U, 0xbdd120f4bdf1d483U,
  0xbd695aebbe20fe74U, 0xbe74bc4e3e2e3704U, 0xbc150267bdb18624U, 0xbcc28eafbe2728f9U,
  0xbdf809cdbcee6e55U, 0x3de112e93b1fe987U, 0xbd31ce0dbe1d95b1U, 0x3e0ee4dfbd52aaf4U,
  0xbd98f4403dba9f57U, 0xbd3b013abe572849U, 0xbd46ecd7bc3ef106U, 0xbe081b093cb5f5f5U,
  0x3b608364be2eb13dU, 0xbe063c033da0e46fU, 0xbc9cd72bbdc4973aU, 0xbea39129bdf9242dU,
  0xbddbd528be1e4f19U, 0xbd3b66f8bd97532eU, 0x3d9935e6be4b3ddfU, 0xbd16e309bd9a787eU,
  0xbe1b8d62bd9dc57bU, 0x3d8c41ccbd2f6503U, 0xbda8eb04be2ec4efU, 0x3e36f2f3be265dfcU,
  0xbdc878d6be811c0cU, 0xbc37cd45bd2394a6U, 0xbea48f5cbdc20559U, 0xbaa9961abd945041U,
  0xbe045968bdbfbf85U, 0x3bc75fdf3de098cfU, 0xbed8a857be8399bdU, 0xbe269058bd92ca42U,
  0xbd674d58bd12db3fU, 0xbe92ce2dbdeee216U, 0xbcfdfe60ba9db995U, 0x3d9447e8be0e126aU,
  0xbe04f6adbceea1bdU, 0x3e0c0d163df93b79U, 0xbe0b64513d6b4cceU, 0xbe346bedbdc2a36eU,
  0x3c403ef03d59dcc3U, 0xbe3ee76bbe2ce00bU, 0xbe6456bf3df98eccU, 0xbe8a33bb3e17166aU,
  0xbddfe35cbd3b37d8U, 0xbe14c5c9bd8baf8cU, 0xbec7d8b9bdd6b462U, 0xbdc61bf2bdd93442U,
  0xbd6c63c63d31474cU, 0xbebca49dbcc6b1b0U, 0x3d0de7a63b47fb9cU, 0x3cccb3543d2ee5d6U,
  0x3c055665bdbad3ccU, 0x3e1f6e4dbc8e9511U, 0xbe0f788f3d408a74U, 0xbe6746d8be234dd3U,
  0xbe73da1ebd708a98U, 0xbddd6155bdf1e1ddU, 0x3c1a22223dc23fa1U, 0xbeed9bcdbe14d6aaU,
  0xbc24369abd79c2c6U, 0xbd150d413cf99209U, 0xbe9a7e95be34b679U, 0xbe4c4cf3bdafe7ccU,
  0xbd814c0fbeaacbccU, 0xbe946a1ebe185a0aU, 0xbdd34bb7be0993c3U, 0x3d8952a13c88e316U,
  0x3dbf0c21bdfcc3abU, 0x3d4d1ddbbda0635cU, 0xbd7c8518bdbda631U, 0xbe911ab33e03494cU,
  0xbda436e3be1ddf14U, 0x3d4f0fc3bea6379bU, 0xbdc709c03d2b0f58U, 0xbf1943433cfa7b88U,
  0xbdbeb73ebd8c58edU, 0x3de691acbea0b0caU, 0xbe45d191bdb12648U, 0x3dc30a293e2ae1aeU,
  0x3e3d602dbc9bc625U, 0x3de9f0d63dea6d0eU, 0xbe76d1bc3edcfb65U, 0x3d9386cfbe7d4cdbU,
  0x3ee1271d3e6da16eU, 0xbe50915cbe89612aU, 0x3f07e9a33e18d370U, 0xbe9d635c3dede6c4U,
  0x3f0f6512be8342a6U, 0x3ee7ecbd3d3a325cU, 0xbd7d29203d7dcf08U, 0xbe4b15e33d9fb2beU,
  0xbd7be20fbed46a64U, 0xbdd90b633ebd0b14U, 0xbdce457cbed0c1c2U, 0x3de50a45bdd7ce93U,
  0x3f040064bf12ab11U, 0xbe7cfb2abe92ed09U, 0xbe85799c3ec28272U, 0x3e059091bcb90e14U,
  0x3f4647a53ead77bfU, 0x3e052eec3d6b4730U, 0x3eb641393d019f8fU, 0xbd64acab3f3c5975U,
  0x3f47f195bf40be46U, 0x3ed80993be560a4cU, 0xbed52dd03ddd0211U, 0x3deb4ea33e31899fU,
  0x3e0ef26cbe8ac446U, 0x3d2a3eb4bd866376U, 0x3ea492f4bee1bbf2U, 0xbf185610bd36a6d9U,
  0xbea533febe634bfbU, 0xbe1447a4bf1cb1b3U, 0xbcb6076abe818bc8U, 0x3d4b513d3ca81ecfU,
  0xbdf350643e21e5abU, 0xbdef762cbe25cb39U, 0xbec6bf293bba2df9U, 0x3e0b1aeabe2fc8b0U,
  0xbe8d5cc7be4ea8efU, 0xbec5bfcf3d129ca8U, 0xbe05cb143dbf6506U, 0x3e16bb9ebe669f02U,
  0xbd9e4307be8c3c34U, 0xbec603983d85f48dU, 0xbc9000503e53be84U, 0xbdb289473db89b2fU,
  0x3e8548a7bd53868bU, 0x3d33acb63d357d79U, 0xbe57a4eb3f25d265U, 0x3cf57f8b3ed098cfU,
  0x3dd890723d917c10U, 0xbde8cfab3c9c9603U, 0x3f1ba3f43cea6012U, 0xbe7da90b3e084071U,
  0x3d6a7e51be775654U, 0x3f1f01f23df67501U, 0x3e9151f23ec4293aU, 0x3cd3f63f3e788a78U,
  0x3d766d4fbd883221U, 0xbd543b5e3d1600a9U, 0x3eae232d3d807759U, 0xbef074eb3dddd2afU,
  0x3dfd2b143d7c4031U, 0x3e520d03be8ca08eU, 0xbe5d3149beaac7c1U, 0xbdb8c859bd92318eU,
  0xbd7957063e9424f6U, 0xbe047d1dbe81d0bcU, 0xbef45b123dabaa97U, 0x3dce10f0be7b174eU,
  0xbebd8eb2bd9ff8eaU, 0x3d2e1df93ded070bU, 0x3da8b600bd8f7c28U, 0x3e5392923e0b102eU,
  0x3d0f10733e543ea9U, 0xbed9fc8fbe336523U, 0x3e00c6a63e342494U, 0xbe378eb1becd15b7U,
  0xbe46a48cbebbd326U, 0x3a86f0c9be77295eU, 0xbee6fa26be4a129cU, 0xbe5aee183e322db3U,
  0x3e83f85d3e907a42U, 0xbf0b2a8cbf0d5e16U, 0xbec987c4be73a35bU, 0xbe5ca98fbe0a8604U,
  0xbebbe2d73e0970a3U, 0xbe9118fabe137ce1U, 0x3e60aa38be909463U, 0xbd4b7d2dbbfaa721U,
  0x3d1358cabd704f0dU, 0x3d596b433ca38df7U, 0x3cc7b5603cb3424fU, 0x3e2d05ecbdf991a4U,
  0xbe117cb2be0cd4efU, 0x3d1563683d1b5596U, 0xbd9647abbd8a2fb4U, 0xbdad318fbd91a608U,
  0xbd39591ebd4d7079U, 0xbc8bb83fbe1385d3U, 0xbccbe9d5bde067c6U, 0x3cceef9dbd1cd7f3U,
  0xbe081da13d12986eU, 0xbdc47e65bd2c4116U, 0xbd2441b4bdbba4f4U, 0x3c8988b7bd7037e0U,
  0xbd9e152cbc96e923U, 0xbdfded3cbe150028U, 0x3df4412bbd0ccd90U, 0x3dc80847bd22bb0fU,
  0xbdeeadf83d4df4c4U, 0x3d43fa3dbdc9fdabU, 0xbde4a325bdc88abeU, 0xbd54f752bda1565cU,
  0x3cd9b00f3e27ae4eU, 0xbe8c2c51be1aee79U, 0x3cb041b93cd2f302U, 0xbd17f1dabdb83b58U,
  0xbdefe3893e643a2eU, 0xbd88cbc3bda59df6U, 0x3d892af5bdf5e3b6U, 0x3e0d38e9bd4c24b2U,
  0xbd96fdcd3d646194U, 0xbd4c9b57be8e273aU, 0x3df9dba1bafa5f15U, 0xbdaf3b8e3d859c7eU,
  0xbe00e84f3d003e91U, 0xbd0ffa96be54503cU, 0xbd5a639bbe03c44dU, 0x3d20287bbd0401ffU,
  0xbd7409ce3e85b087U, 0xbeb5181abde14cf9U, 0xbda02a7f3d474ea4U, 0xbd73ec68be9023c8U,
  0xbe37bac33e33e0b3U, 0xbe1fbd44be088e7cU, 0x3d207696bd3ead78U, 0x3e238879bdc389d7U,
  0xbe57f3a4be0a72d0U, 0xbcc18035be54396dU, 0xbe24da413cffe251U, 0x3e9248ff3dca8048U,
  0x3e3a95f8beafca3dU, 0xbd75d0813e2f6087U, 0xbe7991bc3e66acddU, 0x3def169d3e955bbdU,
  0x3da8b53f3dd2cf16U, 0xbca7b2e3be188ef1U, 0x3ebe29173d9eb80eU, 0xbe84daa6bd3eaf70U,
  0xbe87ab9ebd2da175U, 0x3e328521bda4edfbU, 0xbd9f83d23e1e28dcU, 0xbe23cccdbeae855bU,
  0xbef658f4bde7b973U, 0xbe058c74beaf6494U, 0xbd912af8bc8a17daU, 0x3dd3a48a3def57fbU,
  0x3ca280e5bc42e640U, 0xbe05925dbcaeb0f6U, 0xbd71e5c2bd8b1a75U, 0x3e5f7d37bdb88836U,
  0x3e35db9a3e84a1baU, 0xbe94d0e53ad63f11U, 0x3f180dd23e9d45f2U, 0xbe956349bdb8e34dU,
  0xbe30d5f63dce04dbU, 0x3dff3c93bd045703U, 0xbd15520fbda255fdU, 0x3d0e4d68be9a9d4fU,
  0xbe0fba3abd491437U, 0xbe080715be09c23eU, 0xbe0015b1bdace239U, 0xbe07bbddbdbb6e9cU,
  0xbd8fd9dc3d7835b5U, 0xbcd849fabe0eaea5U, 0x3e4b55bc3d356770U, 0xbe2bbc00bddbd1b2U,
  0xbec899443c17b07fU, 0xbda9b4493d97fe7cU, 0xbdd28e4a3dbba877U, 0x3d85127bbefef2e7U,
  0xbf0f30213deb3e9eU, 0xbe74a5f6bd80ce7eU, 0xbd49261f3b62ba2dU, 0xbc889f693d07de79U,
  0xbd7d95663e11efc1U, 0xbe1b8edabea1d416U, 0xbe77ac083e1615b9U, 0x3e8cd6c0bd841759U,
  0xbb4bb4783e3a0e8bU, 0x3d0c89bf3d978cb6U, 0xbd8ee0663e490f48U, 0xbd97c962bc983462U,
  0x3d8fe5a43e33acf9U, 0x3c8d410bbe152dc3U, 0x3e0a2d6c3c777153U, 0xbdefab6fbd9b7b68U,
  0xbe7d66923e81fbbdU, 0xbd520cb33e70661fU, 0x3e867baa3d82c0e5U, 0xbd5abd22be44b1dbU,
  0x3de43be0bdf48c09U, 0xbdd97e4abe92853aU, 0x3d1f56043e7b786cU, 0x3e0dd21d3d507a7aU,
  0xbb3996903c6ce2f1U, 0x3e3060b1be6d1a82U, 0x3cf382773e1395d2U, 0xbdc83f73be2a4525U,
  0xbcdb3b72bccedf74U, 0x3ca7055bbe56441aU, 0xbda8cb67bd60e606U, 0xbe1e6202beb92bc4U,
  0xbe914ce03dc4fe36U, 0xbe17af8f3dcdf9b5U, 0x3deb70cbbd575cf5U, 0x3e8ec916be559d33U,
  0x3d4c0915bed1e8abU, 0x3d3c56323d993fc2U, 0xbb8dc5713ba4e378U, 0xbec5c393be5aee8dU,
  0x3d8dafc5be688415U, 0x3d81b2fcbea0ff79U, 0xbe81f346bcfb2699U, 0xbe374253be03c7ceU,
  0x3b34b42dbeb856c7U, 0x3dfd3f5cbc3e62b7U, 0xbe0ee451bea0fffdU, 0x3d2c2706bc13104aU,
  0x3e52224fbeed0674U, 0x3dde1efd3e129691U, 0xbe97a42d3e0f0901U, 0x3a1f6ec9bde1c50bU,
  0x3d756f18be085aefU, 0xbea30dc53d1838b2U, 0xbe9c1da4be0a1142U, 0xbcd25943bd22f8d9U,
  0xbbe348223da888e3U, 0x3dedfe10bd83da3eU, 0xbe041f723dbb2dcaU, 0xbe21d89bbd74f181U,
  0x3e81aa0bbe78394eU, 0x3d3f17383e164a61U, 0xbded1016be207e84U, 0xbe6766ca3e28a1dfU,
  0xbda7b44bbebcb328U, 0xbe711f203df60508U, 0x3cc558523c9720c5U, 0x3cce030fbe8087f9U,
  0x3e171ab3bbc8754cU, 0xbed50baebda8b814U, 0xbee8067cbc99a748U, 0xbe05b1e13dc1e71eU,
  0x3d28f3503e4b4574U, 0xbccb6805bda21ed4U, 0xbe79f1593e7d1d93U, 0xbe8388ccbdf580b9U,
  0x3d98f598bd2565ddU, 0x3e26e790bd163f06U, 0xbdc821c0bc48ed04U, 0xbe830b62be53d0c5U,
  0xbd16d5adbe837d6cU, 0xbe162bdf3e769069U, 0x3e8ab9d53cbf9b00U, 0xbdc71574bef8d36dU,
  0x3e3cb54c3e45c4efU, 0xbf22bdefbe66f22bU, 0xbe941f9ebc51fe8bU, 0xbe36d9e63d998c03U,
  0x3e047d963d86f0d3U, 0x3d6f709f3b3476abU, 0xbe9767a83e8066d1U, 0xbeb41723be3a34f8U,
  0xba6c07503dd76458U, 0xbe21d71bbe2f252fU, 0xbd319e583e396db0U, 0xbe9c399cbe29b31aU,
  0xbe6b849c3dd0bb10U, 0xbae7c79a3de09387U, 0x3e5528343da5103eU, 0xbc5ff7dabf0ead7fU,
  0xbc39c9c13d12537cU, 0x3d0b0302bcb3a50dU, 0xbde77da0be05fcd9U, 0x3d85b1a6beb12389U,
  0xbf038023be630fd3U, 0xbdfb5bf7bd315686U, 0xbe740686bf04cd92U, 0xbe9e8d1e3daf62a6U,
  0x3e0aa10e3ec0bf61U, 0xbde5c099bda53404U, 0xbce61608bdcd7102U, 0x3ddcf09c3dfda4f2U,
  0x3ce795d23e67609aU, 0x3e303fa9bcd68a9cU, 0x3e7c1db33e841c68U, 0x3d971af33dbd5b19U,
  0xbccd901a3d6f0a15U, 0xbe91a22fbd81af4dU, 0xbd9621d93ecc8b92U, 0x3e24bb14bdf8abd3U,
  0xbe9bbd05bebb9d26U, 0xbd999b9d3eb98100U, 0xbd77fafabed093f8U, 0xbd9b2e5dbd21f11eU,
  0x3cc08bfd3f11a664U, 0xbe8377283d1af6ddU, 0x3df8b90d3debfdb6U, 0xbe16dd1dbcbb17e3U,
  0xbdf54bad3e2b4d8fU, 0x3e38fec0be0f6085U, 0x389c4af4bd10cbe0U, 0x3d5f3c4bbd85f917U,
  0xbddfbb2a3e3ce33aU, 0xbe0fc46fbefbfe11U, 0xbf1a34933e5f85bfU, 0x3f89aeac3d18cfa3U,
  0x3e46db7dbf2ca42fU, 0xbe8fe87c3f35742aU, 0xbe5475663ee151f3U, 0x3e76c9dabea65d88U,
  0x3e3412983e5da7f3U, 0x3e36d4cd3c8d15efU, 0x3ebca9573d0144faU, 0xbeb8c264bf15c44dU,
  0xbf2883973dbdc80fU, 0xbea2bda2bf018234U, 0xbea341babef25b50U, 0xbf3ae7f9be8356c6U,
  0x3d79fdb9be1a5e38U, 0x3e8e79a7bf533937U, 0xbe74ce083d421814U, 0x3e48dfd0bcb156e2U,
  0x3dea51d33e5930cfU, 0x3d5902823e31d806U, 0x3ea480933e639a25U, 0xbd1485e9bd8b0c38U,
  0xbe21db183dac3300U, 0x3c8296b7bd34131aU, 0x3e81a0623d968dadU, 0xbe1bf078be8120b1U,
  0x3df22be03ee6673aU, 0x3daed899bc60652aU, 0x3d70f67bbea87ca5U, 0xbe806a233c4c6be0U,
  0x3c9063f6be055ab4U, 0xbba08a54beabbf3fU, 0xbe823d593e34491aU, 0x3bd14a39bbb7ea00U,
  0xbde4bff5be167e00U, 0xbeb97642bddc6a34U, 0xbdd954603c4d34a3U, 0xbd800a7ebdd44a7fU,
  0x3dc175663de460d4U, 0x3d04790abe6a2a12U, 0x3ca0622d3d19c637U, 0xbe462dd3bd897da0U,
  0x3e4d2196bbeb7f4cU, 0xbb84ca34be374b1dU, 0xbd8ef695be3e5a86U, 0xbece8801be0f3a54U,
  0x3dfbb8b23d827cecU, 0xbe914d433e8ade74U, 0xbef738aebe8346dcU, 0xbcccf0cebebc6837U,
  0xbe387ea3be80cf50U, 0xbefb6f28be8fe20aU, 0xbe8b1ba1be8f06a7U, 0xbe75f914bdb66152U,
  0x3f09b558be10c1d6U, 0x3d355701beac9b72U, 0xbe56b6aebea9f59bU, 0xbdb7502c3e4d5a37U,
  0xbd6d3cfcbebcba41U, 0xbdc26c97beb32682U, 0xbe5f4d53bdca0b1aU, 0xbf1c1bab3e12e0efU,
  0xbe9ba1aebdedff98U, 0xbe7cc2cd3db29eb1U, 0xbdc385cd3e45a8e4U, 0xbd6e50703e439d90U,
  0x3e133d7ebd5c422eU, 0xbd9d0d303c84ef88U, 0xbe1f21ef3e244a39U, 0x3d86be3f3f044c8aU,
  0x3daa3b2dbc4419b7U, 0xbe126f0bbc14c463U, 0x3e8fd3053d6a180aU, 0xbe5cbaf83ebc9b9aU,
  0x3ea09e5bbdced454U, 0x3ed55f2dbd8c3f5cU, 0xbd30c5293e96bea5U, 0xbe4d08efbd6af817U,
  0xbecca4653dc52251U, 0xbe05c300bb662e86U, 0xbe044eb53e0025abU, 0x3df7b478bd28f81fU,
  0xbe0c06573d987297U, 0xbe177ac43d3c6b0dU, 0xbe2c126cbe3800b3U, 0xbd955802be99f6bcU,
  0x3b234a4b3eab3e0cU, 0xbf0dcd9cbda37ef3U, 0x3e1d17523d1a576bU, 0xbdc773933d364898U,
  0xbe2e03713e89a621U, 0xbcb93cfebea18005U, 0xbc7c2afcbe81012dU, 0xbde402fe3cf42e7dU,
  0x3da534a33e3e70dfU, 0x3c33cd5dbe8a2406U, 0x3e9923813e0152c6U, 0x3d251ce83dc1b655U,
  0xbe99aaffbb75ae29U, 0x3dcabdb2beba79a4U, 0x3d89b7bbbec6588dU, 0xbc77ceedbd08fbc6U,
  0xbcc78daf3eb5477dU, 0xbde6556fbe284ea7U, 0xbdda39703e057789U, 0xbd8421a4bedb756cU,
  0xbeb874603e3e8766U, 0xbe16e3e13e0afe14U, 0x3d533393be8cfd46U, 0x3ca11fef3d9646fdU,
  0x3d809087bcf0ddacU, 0x3e5f15f4bd126818U, 0xbe34cfd43c9d8114U, 0xbda5094ebda8e560U,
  0xbdd7e81e3d82be67U, 0xbce43e8bbd41643dU, 0x3cd678ab3dee83ecU, 0xbe8cf524bb43104bU,
  0xbd3c8468be864fc7U, 0x3e6e45d93e4c62f6U, 0xbe0eb24cbe125a23U, 0xbcfa3c10bd7d3c62U,
  0xbdcc4c81be792457U, 0xbd581ab73e5c2402U, 0xbd9d43703e2301d1U, 0xbd37f47ebd8d5ba5U,
  0x3d7a21ec3d729ae4U, 0xbdff3111bd602bd2U, 0xbc80c1bc3e89e018U, 0x3d800d17be699ad9U,
  0xbe348931bd7918f1U, 0x3c5fee1c3d544987U, 0xbd4c5916be2976fbU, 0xbe2f0cafbdcb26fcU,
  0x3dd07c933dda1469U, 0xbdaecd1dbe8d5023U, 0x3d2bb90cbe1a7f46U, 0x3dcd111c3b9296c0U,
  0x3d83ca373d8fc798U, 0x3db9f9cbbda768e1U, 0x3cc093e2bd902987U, 0xbd8bb00e3d6e151eU,
  0xbe0729913e0ca9c5U, 0xbe953f95be31d743U, 0xbc8261503e59a611U, 0x3e2c7909be15034aU,
  0xbe2b33a5be02ea09U, 0xbda813af3d8fc4e4U, 0xbd0459ebbe0fdfd3U, 0xbd954c93bdc18e07U,
  0xbbb626473ee8a23aU, 0xbef43771bed3be44U, 0x3c50b600baa0df3bU, 0x3d737299bdc856e0U,
  0xbe4f38ab3eb97f3cU, 0x3c8e37f5be9caf88U, 0x3d26c459be5595d9U, 0xbdd34937bc014e35U,
  0xbd10c220bcdcba99U, 0x3d02ef43be01ae90U, 0x3d9870eb3e2e3d8bU, 0x3e9809963e04f6caU,
  0x3ba141b4bdfa4792U, 0x3d2f058d3e178d1bU, 0xbe1f8c743d2af103U, 0xbd2f0c0d3db22a3cU,
  0xbe178ca13ded872fU, 0xbda1d536be3ca90cU, 0x3d9426ea3d5df5d4U, 0xbe6d367ebddda700U,
  0x3c811effbd81674cU, 0x3bb68d85bd43ceecU, 0xbaa43fe63dbd94f4U, 0x3d589407bcdcb72dU,
  0x3d5e4d15bd8ab0f5U, 0x3d67ea97bdfeda37U, 0xbe02df51bcec091fU, 0x3e58d4f73d89ab87U,
  0x3dbf2ac9be09244dU, 0xbd7ed4983db7b88aU, 0xbe1f47df3e1dcc68U, 0xbc08d317be0dcc79U,
  0xbe176e883d03d841U, 0x3d0486eebdf68e38U, 0xbd53fa0b3c15774cU, 0xbe566ac03c79bcbeU,
  0xbcb1a554bdb5ee39U, 0xbcc847ed3d8ddd79U, 0xbdae45a03d01606aU, 0xbcd6a315be003cc2U,
  0xbcf399883d9425b2U, 0xbd7a655bbd4dc992U, 0xbe5adea1bc083d14U, 0x3e0cd27e3dcb91fbU,
  0x3da5f2dabd9ceec8U, 0xbdc9d419bd52c51aU, 0xbca5368c3c930d70U, 0xbd31a7643d9ed61bU,
  0x3ddb66463d14707fU, 0xbd847081be092915U, 0x3d166e0dbdbc0bb3U, 0xbe9b11f23da896b8U,
  0x3da0eba6be2018b6U, 0x3d65f3ef3ddf08caU, 0x3de5ab9e3d7fb1e7U, 0xbde6f1e03de1b709U,
  0x3dba84f4be1ca1bdU, 0x3d90e12d3d6509e1U, 0xbe18fae8bca08859U, 0xbd804aa1bda581efU,
  0xbcc4cd3ebeaa1591U, 0xbdd0550cbc77e2f4U, 0x3c967e7fbc5e8513U, 0x3c9b194a3dc3435dU,
  0x3de903bcbce60fc0U, 0x3e18ea4abd64a4dcU, 0x3da6a2cabe792830U, 0x3d1617b53c15ab20U,
  0x3ce2cd19bea2445cU, 0x3d176cabbd9ac571U, 0xbe3d8d4d3e65fe86U, 0xbe1277e4bc9236caU,
  0xbdba4b683ba31758U, 0x3df66d3bbd1e0863U, 0x3e046af1bd133b1dU, 0xbde781063db57525U,
  0xbdb4806dbe5a6a67U, 0xbdfef931bda09385U, 0xbd532a27bca81400U, 0xbc6361b4be151156U,
  0xbd2c30c7bc0ccabfU, 0x3caa0c343dc76e24U, 0xbbbd659fbc41d7d0U, 0xbbaf8031bdbfb67aU,
  0xbdd97aadbd3813f8U, 0xbd3af752bd05f450U, 0xbd9631b43dab912fU, 0x3e1bcc253de8664cU,
  0xbe7eb6623d693a32U, 0x3d9823b1be9b0c93U, 0x3e13b5d5bc488a95U, 0xbda06ea6bd4eb1c4U,
  0xbd9530a7bcd3663eU, 0x3df29feb3bf73d9bU, 0xbd1b5c2abe0bd7f0U, 0x3df143f7bdf83943U,
  0xbe10ab763d841d99U, 0xbe1185363d65745dU, 0xbce175983e0904e6U, 0xbdb29be9be54f2f3U,
  0xbe008a9a3db1e838U, 0xbd958a7bbdb6c7caU, 0x3cf2e177bd7fd329U, 0x3e014055bda7d8e4U,
  0xbe3157983c922480U, 0xbd0e4959be740614U, 0xbe3eec3fbd419edcU, 0xbde245fd3d13404eU,
  0x3e569a9d3cbd95a8U, 0xbca7139cbcda5199U, 0xbe204a213d939ee9U, 0x3c31209f3ceb6605U,
  0x3d1da2a53e1bec9aU, 0xbe1b4be4bd5c6fd8U, 0x3df4104fbc694fcdU, 0xbe0d86aebdff0e91U,
  0xbb9df64b3dda8654U, 0x3dd8cd44bcb97737U, 0x3e4e10f93c5cc33bU, 0xbd1ab816be86690cU,
  0xbea204c53d8f9b13U, 0xbe3bca03be6e6e4eU, 0xbe15923d3c317c7eU, 0xbd4424293e1bc4c7U,
  0x3dbe49363d7a50ffU, 0xbd4384bd3dcfd84aU, 0xbd19a0993e55290fU, 0x3db769b7be7c3773U,
  0xbd7691f53e8326ccU, 0xbd93a3da3d481d42U, 0x3db5de443e5f88a6U, 0xbe56fa15be6ab62fU,
  0xbdcbfae13e4fd0a9U, 0xbbf80949bc622277U, 0x3de2a7a2bd75fbaeU, 0xbc74ed91bdeac85bU,
  0x3b5f68a6bdca3a57U, 0x3d927f5e3dc3a432U, 0x3dd035b93ddb90b5U, 0xbd260ee0bdc33f2bU,
  0xbd95b1673d433368U, 0x3b0497d9be058488U, 0x3dc17ae4be82eecbU, 0x3d875d09bbbfd18eU,
  0x3ccba998be0c3f8dU, 0x3dbb98bd3d9184e1U, 0xbd883330bd3ffe42U, 0x3ddb2c1c3dabf4fcU,
  0xbc5e9909bd9526edU, 0xbdbd88b03d4ad225U, 0x3d1cca60bde50a38U, 0x3d22069ebca7847eU,
  0x3dbacd10be4b8ccaU, 0x3ed6c6c9bd9cab0dU, 0xbdf03bcf3d87f544U, 0x3cb49c30bdb1d17bU,
  0xbb9bd0453e37429fU, 0x3e20b4a63e415483U, 0xbcca58443da92aa0U, 0x3c89390bbeb17035U,
  0xbe1cb59fbdb282e3U, 0x3d5b150e3cd5a0f1U, 0x3cb50c26bdf2e8e9U, 0x3e92b6f3beb646e1U,
  0xbdcc18203dcc6194U, 0xbe892d8dbd23d4cbU, 0xbde71c7fbe27efe5U, 0xba43246abdd3c0a2U,
  0xbec0f618bd780d85U, 0xbee738e13eb83724U, 0xbec0a563be6b32c0U, 0x3eec2ddbbdc88e03U,
  0x3db28f87bec53708U, 0xbea8a65f3c940d73U, 0xbec655bc3e71bdfbU, 0x3cf2dc053e1ed2caU,
  0x3e907474be463916U, 0xbdc32c0bbe503bc4U, 0x3e0b3c17be144c61U, 0xbe9a37163eebfd61U,
  0x3d6f7552bb6cc89bU, 0xbeb609d0bea944ceU, 0xbebfa23ebe5ac2efU, 0xbe3f4d833e0ec392U,
  0x3cd5b2f3be817dafU, 0xbe020dafbe3d8e33U, 0x3e7443043e74dbd6U, 0xbd12eaccbb01d8abU,
  0xbd97c7bd3e9b1fc0U, 0x3cd9fea0be75a805U, 0x3eb09693be03bb1bU, 0xbd8ca4653f27e371U,
  0xbd437b163cde8fefU, 0xbc8df952bd241d87U, 0x3d673bf73dce9fe6U, 0x3d1429c1bd9119a8U,
  0xbd825b43bdd5224dU, 0xbd2aa6383e3952c4U, 0x3e9ece7abe4b04d8U, 0x3dbc2455be645384U,
  0xbdc8240dbdc6d1deU, 0x3defd35ebe592dd9U, 0x3c00e7a2be27a717U, 0x3e4424ea3e62ae75U,
  0xbdffa58bbd910940U, 0x3d4013e83cb55c16U, 0xbe37c70abba4d2e0U, 0x3e5a9bcbbe7afb03U,
  0xbc87d1c03e5aa639U, 0xbd44ba7f3e2c64faU, 0x3e14f1fc3d663ee6U, 0xbe8352d1be19de76U,
  0xbe3a55393d9e879eU, 0xbe8dd825bd8704e1U, 0xbe18b4c9be4dfdefU, 0x3d73c9dabd15a254U,
  0xbeb56768bd91cf85U, 0xbdc1d80bbe2d5f15U, 0xbdd35ef3be40257aU, 0x3e46a5acbe0d1c11U,
  0xbed6eab0be5bc295U, 0xbd9cc48abe8b7dc9U, 0xbe5b6eebbd824a93U, 0x3e7af638be012525U,
  0x3d24e1f13e7b50b6U, 0xbea86232bc71cd6bU, 0x3dc0ed303dfeabf6U, 0xbe4089fbbd8bd9fbU,
  0xbdcacd6e3e27d400U, 0xbe36a7bfbe5d889cU, 0xbdeb9138be936fb2U, 0x3e68472bbe87912eU,
  0xbe31cad5bd82ba5bU, 0xbe6766b0be7d14e5U, 0x3d907a93bd67cb33U, 0x3df209d2be872aa2U,
  0xbeaaf7633c24ed3aU, 0xbd1a759fbeadba84U, 0xbda5ded0be834e82U, 0x3defbe0cbdfa5822U,
  0xbd4a1af93e7b27d7U, 0xbf06864fbe466ebcU, 0x3e8393483c83549aU, 0xbd1ae82ebcc91720U,
  0xbcff63ae3e7dbd91U, 0xbb9e3f7fbe8299daU, 0xbdbf3caabe5d82a4U, 0xbd5baa55beaac056U,
  0xbde14a0c3ed88f8cU, 0xbe3e4fffbea4c91fU, 0xbe19b2a83e10359cU, 0x3e299c9c3cda330fU,
  0xbe6ec4203d70b826U, 0xbe265ca03e93b50fU, 0xbbfe85a9be47991aU, 0xbe82b7c13d7d39efU,
  0xbe433fe43eb32531U, 0xbeee8543bd7679c7U, 0xbdf845263e4c0fc7U, 0xbd8918bcbf112032U,
  0xbecd317f3eae3334U, 0x3dc09180bd01da5dU, 0x3e4ec71ebe04f124U, 0xbec7dd1cbe929447U,
  0xbcc9743bbc4db4d2U, 0xbd8fb3dabe715507U, 0xbdfb49e83de9ba54U, 0x3da63053be532ba6U,
  0xbe25ee5ebe386c01U, 0xbd87f1673bab76b4U, 0xbe2947c7bcc92551U, 0xbe38c4a2bd33d99cU,
  0x3bd44ae63e414750U, 0xbd3f4915bd2eb992U, 0xbc549503bdf2f523U, 0xbe84be9bbed7db7aU,
  0xbdcdcec23cb331f4U, 0xbc026dbbbe8d0b3cU, 0xbde6bf13be426c96U, 0xbe86b9d6be0cb119U,
  0xbcfd76ad3d4b9792U, 0xbea3948d3ea8ea68U, 0xbe9a9fb8bde76e07U, 0x3eb67630bea8591eU,
  0xbe6fa1b7bd9e806bU, 0xbe574ab1be466418U, 0xbe3c081abe2553f8U, 0xbdf76dc0bd9ceb2bU,
  0x3f2bdcddbc65b9c7U, 0x3eaeef893d303f3bU, 0x3ea33085be4611a5U, 0xbeb5044f3f0b8abfU,
  0x3e607576be93ab8aU, 0x3d99db34be7694a4U, 0x3d8b4e603e7a1d71U, 0xbe6a1d6b3df855d1U,
  0xbdb0ef9fbe9e02e8U, 0xbd1a2703bbb61b9cU, 0xbde0c20ebe17ea15U, 0xbe30e6da3e7be23cU,
  0x3f1c7fbebcc736a3U, 0xbd43e0403f1a8b77U, 0xbdd7ad223e5e2a1bU, 0xbd6f35b43dce2f5aU,
  0xbc5997283df06d6eU, 0xbea64b4ebdd6b6e1U, 0x3ebb5af43e0ebe60U, 0x3d0d2b423ea612aeU,
  0xbe68671dbebc1f3eU, 0x3f3c49eb3d719d92U, 0xbcf5f4633ed30d86U, 0x3d1cf50bbe6640cdU,
  0xbc76d371be1e09e7U, 0xbe34b0113d66ac51U, 0xbdf19e5cbe843e2fU, 0xbcc8aa833e3219d9U,
  0x3f19724abeb2f73aU, 0xbeade73c3f0c1faeU, 0xbe196cd93eae96daU, 0xbd9b0e1bbba35bfdU,
  0x3e39ff983e39254eU, 0x3cfbe556be8516e4U, 0x3eee0c693d8d3170U, 0xbe16d3c73da33299U,
  0xbd8cc928be838805U, 0x3f4e172abd0b07f9U, 0x3dd3751f3ec90aeeU, 0xbe4a9e9abe222080U,
  0xbe741c8abe94dafbU, 0xbd31bd98be294404U, 0x3e52d9ebbec4f4f2U, 0xbe18391d3e303240U,
  0x3e58455d3be9f4d1U, 0x3e5fa1c13eab689fU, 0xbe29ec723daca487U, 0xbd0c337ebe93fe0cU,
  0xbe49797bbded112dU, 0xbd0f946abe9c3f58U, 0x3eb570ffbdaf1acfU, 0xbdab9c193dd0a3b7U,
  0xbe2dc799bec3b98fU, 0x3f20ac78be6b3ef5U, 0x3deb37463e668c41U, 0xbe347a37be93f440U,
  0xbe57f97bbcfc23b9U, 0xbe209541bd1805f6U, 0xbe76fb3b3def69e9U, 0x3d9652173e9bf596U,
  0x3edbc887be8e8775U, 0xbda4d5203efa3a74U, 0xbea570cb3f09a819U, 0x3d9ff2b63e0e3776U,
  0xbd8394163d5775c2U, 0xbda6159fbdcde167U, 0x3ebd09923e07ccffU, 0xbe9892f73cd71ecdU,
  0xbe53d60bb9c0559eU, 0x3e6be5bdbe2943b3U, 0xbe7c2c013e20f871U, 0xbeb016be3e8220fbU,
  0xbd94ff1e3d932219U, 0xbeaf5fb63c329b20U, 0x3d647ab73db05dc1U, 0x3e9e0865bee29715U,
  0xbd09de15bcf04a5aU, 0xbe4a764a3d8791a4U, 0xbde75bc73d795d4cU, 0xbdd9a7653c4be9edU,
  0x3e5c8ead3dff4a0fU, 0xbe99760bbf062d6fU, 0x3e5965f8be8759dbU, 0x3d8c9b5e3e26eb4bU,
  0x3df887003e4557acU, 0x3d41bd02bde5e26eU, 0xbd082e0dbe826a9cU, 0x3e39d8193ddc7606U,
  0x3d0c7f473d05a50bU, 0xbc2ecbddbea07201U, 0x3ba838153c978817U, 0xbe4add1cbeb86e7eU,
  0xbf7b6f843d33c787U, 0x3e1676e9bf1a62c3U, 0x3d59130abf08c069U, 0xbf091eb4b985fcbaU,
  0x3e5979413cd16c6eU, 0xbc99e507be2494c8U, 0xbea73bdabee891a8U, 0x3d889315becc311dU,
  0xbdba70173e6ee61aU, 0xbf076cb13d310f03U, 0x3c9fc0b6bec92385U, 0x3d1d3ee0be5c35a1U,
  0xbcffa8513e158803U, 0x3d8bc91cbea1786cU, 0xbddfea5fbe210498U, 0x3e86f058bdcad9f6U,
  0xbe36a8f53e422ed1U, 0xbdb51eda3d5b3456U, 0x3d30940dbe855115U, 0xbe0032aabe683b76U,
  0x3db5279fbd904bfcU, 0xbe880100be5b2675U, 0xbe031d7f3bc28a3bU, 0xbd9b55e53e014dc3U,
  0xbd2542203e641f59U, 0xbea1dd1f3d0f5538U, 0x3dd47d35be23fa16U, 0xbd24aba7be94439cU,
  0xbdd1b887bd3a98dfU, 0xbe87a012bdb1a7c0U, 0xbd86f83abe15b703U, 0x3dc9d851be7e578eU,
  0xbe9408fbbe204220U, 0xbd3a2553be081cffU, 0xbde12b39becaff3bU, 0x3d99f06f3ced05b7U,
  0x3e9b26e83cba70deU, 0xbeec550bbd8e570aU, 0x3d22147f3d492c0bU, 0xbd51f9f83e046e5eU,
  0xbe06697f3d693197U, 0xbea0e2ebbea717c4U, 0xbec01984be49834dU, 0xbdccf08fbe1effa1U,
  0xbe4f4acc3d5dfb5cU, 0xbec2e31a3dbdc075U, 0xbe16edbfbd4113e2U, 0x3eb95a913e20268fU,
  0xbd8d62f3bdc877bcU, 0xbe12f6453be8299fU, 0xbdc0e375be1961e7U, 0x3e2866acbdd95963U,
  0x3ec068a7bd7f4a04U, 0xbec83a5d3de09f95U, 0x3e27dd003e282acdU, 0x3d5e4b643ea929c4U,
  0x3ebb7892bca2d797U, 0xbe385306be93a102U, 0xbeaa30f1be96001eU, 0xbe49397dbe3aea94U,
  0x3c2f06e0be14a793U, 0xbe777aecbc7045d2U, 0x3d5ee3563e8549beU, 0xbec0a9e0be96d2eeU,
  0xbf7e8fc63d20fbfcU, 0x3e9424c2bf249407U, 0xbd9afc6abed91a85U, 0xbcc06c8c3dd3bfb3U,
  0xbde864c63e7984aeU, 0xbed15058bef562ceU, 0xbed0f3d3be184472U, 0x3b3123fdbada2a9bU,
  0x3e1a505bbe74325dU, 0xbf83d8e03c8ab674U, 0x3e5e5698be7ba9c2U, 0x3edafb61bc80e193U,
  0xbde4d31a3e9d7d88U, 0xbdb20da9be5d372aU, 0x3c54236fbe9345f1U, 0x3eeba4a3bc80cb4aU,
  0x3cf3254f3d94801cU, 0x3e2ae984bb6ebb58U, 0xbd5fd665be019f59U, 0x3dd77d9bbe9ad29fU,
  0x3e7a73f03e96699cU, 0xbe6838dfbeae14e4U, 0x3e9cdf28bdd11317U, 0x3d938e2a3c8b2a9fU,
  0xbe8ad6ed3ec0a043U, 0xbe96be15be50f1e8U, 0x3da759e9becc7171U, 0xbc1e4a31bdefd267U,
  0xbe559f35bdfe4d8aU, 0xbe0123893e3dfcb3U, 0xbea7e9423e8a1ce1U, 0x3ea4b7fa3e4afc46U,
  0x3ebcb0d0bf13d65aU, 0xbdb2c6ec3e395119U, 0xbea46c803f20b8d3U, 0x3eaf84433d967b78U,
  0x3e9a38f93e787be8U, 0x3e93d99abe85c904U, 0x3f6718e53ddc785bU, 0xbf0376573da1adf0U,
  0xbd2c9746be47bfd0U, 0x3e8e32fbbe8b967fU, 0xbeb130293d9feb6fU, 0xbd17aff53e9836a1U,
  0x3e135996bf8424feU, 0xbe56edc2bf23b88bU, 0xbe1222f53e0edff6U, 0xbf19d3333f6aa534U,
  0x3fd10eb0beec65e3U, 0xbe8b9e7c3faa8514U, 0xbeaeac013f6dcb61U, 0xbdeda3963e99fbf6U,
  0x3c3d3ba43e9ac94cU, 0xbe90d1f2be96696bU, 0x3f93e3f83efab3ecU, 0xbe8f7417bee001beU,
  0xbeeaf078bea9f18fU, 0x3fd369693dafc60cU, 0x3db2c3e73f63b93eU, 0xbe4006bd3e909a29U,
  0xbc818626b95b8fd9U, 0xbe2b11373e23d15bU, 0xbd42043abf06d162U, 0xbe53e51ebe8bbed4U,
  0xbedfb41f3e826a41U, 0xbeb88b42bd10386fU, 0x3e04eeb9bf1c656dU, 0xbde4e45e3ea2b1e9U,
  0x3f0b6058bd914434U, 0xbea81622be8830fbU, 0xbe3d1115be93cb45U, 0x3ea039bf3ea620b6U,
  0xbeaf1c293e789ab4U, 0xbf778702be08a993U, 0xbefa43d7befde532U, 0x3e0d0e29be8220d6U,
  0xbe0ce413be7031d7U, 0xbd931e37beec7f69U, 0xbe2d8054bdc69fe2U, 0x3f41119a3d90c234U,
  0xbff46c2bbe29ad83U, 0x3e24fe07bf6bac5aU, 0xbb23def73ce3e84dU, 0x3defe5ac3f117cd9U,
  0x3fdb5e2e3e989809U, 0x3eaefd5a3dd9f2acU, 0x3df5ffab3d205b94U, 0xbf6dc0f73f4e9001U,
  0x3f25bc4dbe6b162aU, 0xc00ba7833ce45742U, 0xbb8a7f33bef7aed3U, 0x3aea88cabf128c0aU,
  0xbc9ad42ebf31bddbU, 0xbd9e1f77bd590e5eU, 0x3e0371aabe66b75fU, 0xbe8eb93cbe89ba35U,
  0xbed673953caf0732U, 0xbd2cffd8beb84a3fU, 0x3e075ccdbe72acbdU, 0x3e51cbe53cfab37eU,
  0x3e34d2d2bf037a1eU, 0x3daf343abda80eacU, 0xbe9d1f42be3dac97U, 0x3daa75733ea03ac2U,
  0x3ce25b04be8661c0U, 0xbea154933e949973U, 0xbea26b093d47bee6U, 0x3d7bbe2e3d37ecf6U,
  0x3c9d3b03be722121U, 0xbbb34c56be0077f7U, 0xbebada90be1b47c4U, 0x3e1e9fdbbe96a620U,
  0x3d0e834b3e2a3fdeU, 0x3dcc2ef3bc87b539U, 0xbdaa81b83d0456c8U, 0xbefb18a2bea7e2f9U,
  0x3ea1bd64bee3aa03U, 0xbc0000b3bde1abc8U, 0xbde5bda8bec2738fU, 0x3e1cc9653e30b5b9U,
  0xbe2182f4bd330359U, 0xbd195981bdec4b6cU, 0x3e2782e9be151a95U, 0xbe371e3abe25caa2U,
  0x3c72db88bd0ab56fU, 0xbf15be8ebe0463b3U, 0xbef399163f376d40U, 0x3edd8a5e3d8316b9U,
  0x3dde4cb3be3a5d25U, 0xbec1fa1d3f30064fU, 0xbe3c96b93f0eb18cU, 0xbbc30e143e3acedfU,
  0x3e0e54c43e8a2989U, 0xbd51b4ddbe94fc86U, 0x3f2b087e3dce107eU, 0xbefb8f7d3e1232feU,
  0xbd8cfb393e1f6671U, 0x3ec7195dbde88ec6U, 0x3e91c2533d97d3d1U, 0xbf3de7523d2aec68U,
  0x3d6a0f613e8db747U, 0x3e311ca7be84b7d2U, 0x3e0e07febe21c61fU, 0x3c0787acbda81972U,
  0xbe28e9afbd975f4bU, 0xbbe2b9f4bea67c4fU, 0xbdc4d991be9df710U, 0x3dcc3036be06eb87U,
  0xbe807ae33e834b44U, 0xbef19c31bea455cfU, 0xbe07a3c7be303e85U, 0x3da4dba9beb60f0dU,
  0xbe338d353ea5fa22U, 0xbe29599fbd9b8011U, 0xbd918ca8bdc70154U, 0x3e18cfbb3d29aff5U,
  0xbe8d1f7f3e25d7fdU, 0xbe14d102bd7aa9e6U, 0xbd6fa94abcb99087U, 0x3e38b6e4bd358d2cU,
  0xbe14127fbe2d7a43U, 0x3e474e14bd03b3e3U, 0xbe60ffd4be0c74b6U, 0x3debdf6a3dcf3122U,
  0xbbaf52763e7ce7c8U, 0xbe3916bcbec52b5cU, 0x3e7a6192bb9029acU, 0xbe5e2da6bd9aa1edU,
  0xbd0605023e693f2cU, 0x3e420bcbbea19b3bU, 0x3b536ba03e3a616dU, 0x3e196c493da6c455U,
  0xbe7f8cdfbdbcab1fU, 0xbc9a601ebd5a6b0dU, 0xbd08908cbe25ce10U, 0x3d23f1473d8a9328U,
  0x3de2607cbe3eb98aU, 0x3dfd64cc3e41049cU, 0xbe1b425e3ea6c8e4U, 0x3d8f5b81bdb005abU,
  0xbe77b3063eda842aU, 0x3c88a813bd913d96U, 0x3e010a3b3de0b1b5U, 0xbeafeaa4bbe6e3a9U,
  0xbdc75c183dabfdf9U, 0x3eab223fbe235454U, 0x3abf945f3e17d24fU, 0x3c71ee8dbc98c6c5U,
  0xbe22b6b1bbbd7a0aU, 0x3d3d42bebe496a55U, 0x3d486b1abcb3edbeU, 0x3c0c0dffb7c79257U,
  0x3bdc4fd63e3c9af6U, 0x3d80c76bbd1dc7ffU, 0x3da053debe493e61U, 0xbe3a611dbca1d5f3U,
  0x3ceb87cdbe01cb58U, 0xbdb0cbffbb884e49U, 0xbc767cea3c957072U, 0x3dd3f964bde1fcd5U,
  0xbd16bceebc042f23U, 0xbcca3aaa3d0c4df9U, 0xbcff64abbe0fa20dU, 0x3d9506dabe1c80b2U,
  0xbe29d03ebd593fdbU, 0xbd2c6296be199378U, 0xbe0a3cac3d6b1b95U, 0xbd00d0efbaacb2a2U,
  0xbd570f913e138c5cU, 0x3d3ac9513c9ad781U, 0xbd2ce2a0bdaf93afU, 0xbd903e893add9e35U,
  0x3cf3d0c0bda5d70bU, 0xbda0e1d8bad3e797U, 0xbca71b643d43c3d4U, 0xbdbb0f2abe2e22bbU,
  0x3d19be26bdc3e047U, 0xbdac62443bc91b59U, 0xbc8e0892bdc679d0U, 0x3d94589fbe879a3cU,
  0xbe3cadedbe188302U, 0xbe2ede91be403cd0U, 0xbe17e03f3cac2535U, 0xbdb356cfbd8c5af8U,
  0x3d1eb5b13e3e7fe1U, 0x3abbf729bcb7a711U, 0xbdd5e9b93d32d73eU, 0xbd893df1be1e6ba5U,
  0xbd26631ebce682ebU, 0xbc29287b3d1f7a0aU, 0x3c1f4eda3c8248ffU, 0xbe30bc92be1b9b11U,
  0x3aad657ebe116809U, 0xbd1ed7153daf6916U, 0x3d2acab93cb3d80eU, 0x3dd95622be888c7dU,
  0x3dccd640bf20c7d8U, 0x3b647a5c3e239a2eU, 0xbe8db958be916fa2U, 0x3e6080b03cb97b3aU,
  0xbe5ca9c8be80d93aU, 0xbe46b671bc6a35c8U, 0xbe85ec223b8debf9U, 0x3c0d8b193d9d0a01U,
  0x3e5ba6a6be9b2d65U, 0x3e962ecdbe058400U, 0xbe092f7cbddd0218U, 0xbecd2e743dcb97ecU,
  0x3e1e77133d14b077U, 0xbe3e6f32be17ccf6U, 0xbeeb285b3df78608U, 0xbde2351abe2cae29U,
  0xbd7e8551bf1dc651U, 0x3b4033a1be6eabfaU, 0xbea7eb4bbec85ebfU, 0x3ec90e643d0109c9U,
  0xbe6b2c05bda8154dU, 0xbe7ed46fbd5361a2U, 0xbe0f91563d11b759U, 0x3e16372c3d992565U,
  0x3e14150fbeeb08c4U, 0xbdf10ba9be26b38fU, 0x3e3d723cbddfbe64U, 0xbe751f643e13774dU,
  0x3dcf513f3de47decU, 0xbe87a5cbbea28aabU, 0xbed4dfeabe984363U, 0xbe3c15d0be9a325eU,
  0xbea9a0e4bf36977bU, 0xbe3d95c8bdaf4471U, 0x3c332577be0df0f5U, 0x3eef239e3b2934a6U,
  0xbe5d55aa3dd872f8U, 0xbea027f23cde3a2bU, 0x3e1ef6fdbd81755fU, 0x3e5b26d03ec66806U,
  0x3e86047ebf36d1aeU, 0xbe9e6e34be23f8a0U, 0x3e856cf6bdabd9ddU, 0xbeab69b83f0178d7U,
  0x3e87848d3d94dadbU, 0xbe898eb1bcb4e74aU, 0xbe90387dbf46861aU, 0xbe0a181cbdb4e5ebU,
  0x3e4b1b4fbd41e4d9U, 0x3ee26f11bdc16e6aU, 0x3dfa23b1bb297d47U, 0xbe982306bd906234U,
  0x3e2b49bf3e83ab80U, 0x3dfa53b53e37032cU, 0x3e762ab4be96159bU, 0x3c8362c0be1d5995U,
  0x3e822cbebd1ae6a0U, 0x3dd6fc803d812c4cU, 0x3ed1420bbe745052U, 0x3e71751a3e5a13f7U,
  0x3f888aa0bf209f35U, 0x3f1ccc113e600b16U, 0xbd02e36a3d4a39b2U, 0xbe13ebc7bec9d3f7U,
  0xbe82157ebe939611U, 0xbe16ea3fbd20854eU, 0x3d6fc6d53ee46b7bU, 0x3e4e18053e9720faU,
  0x3ea39cc9be630d7fU, 0xbe17a7c63effe41fU, 0xbe78ed2b3e7eee5aU, 0x3dd5953f3e942879U,
  0x3dcc80153ed047f0U, 0xbe1a4a3dbe873d69U, 0x3f7c98a03e70fad7U, 0xbde84cbb3f354db6U,
  0x3f06a7e5bec6530eU, 0x3f2a6109be288a6cU, 0x3e6ed27e3ea9a6aaU, 0x3cefab13be1f46aaU,
  0xbeb7757abcfaa7a7U, 0xbda6ef6abdd1b1d8U, 0xbdb2001e3c48fc4cU, 0x3d3b25d53f1797cbU,
  0x3f06b465be99c1d8U, 0xbd5d334b3ec4705eU, 0xbe8e8c383ea99e40U, 0x3e607bff3df26e8eU,
  0x3bef9be83ecf614dU, 0xbe33279dbd317a5eU, 0x3f31fb3e3e8c8be1U, 0xbdd7bbf23ebcd467U,
  0x3e75b5e5bda9d07aU, 0x3f1bbbc73daebe97U, 0x3ece255c3eb4bff1U, 0xbd57c36fbf1ee7dbU,
  0xbeb980893dc75d7aU, 0x3d8ca1efbe6ecb96U, 0xbea13f08bd1e33ceU, 0xbddc37abbdb21b67U,
  0xbe480e1d3c84e334U, 0xbdec15563d1054d0U, 0xbd5ac45abe54ec60U, 0xbd8ce2903e9a0306U,
  0x3e0f105dbdb16520U, 0xbe61238d3d5642a6U, 0xbcbbd5a7be168715U, 0xbd84a2e4be75f27bU,
  0xbde8a96f3e8e37dfU, 0xbe7e2cf6bee35252U, 0xbe3d44d93e89754bU, 0xbed0d96ebf663126U,
  0xbdb8560dbe606bb1U, 0xbeaebda0bd236dd1U, 0xbe683d3a3e9fedfcU, 0x3f417e7a3e005a91U,
  0x3fa94a3bbece8057U, 0xbef5c66f3f88f1f2U, 0xbe9405063fb05411U, 0x3ebb281dbd500406U,
  0xbe4f50f83ed95f23U, 0x3e17c14bbddb26c8U, 0x3f8073aa3ca872b0U, 0xbe850d62bf03c481U,
  0xbefb09e7be57b2c3U, 0x3f6c974bbde58c92U, 0xbdedfe603eecb574U, 0xbf008c3c3f162317U,
  0xbcd2f7c7bdd43808U, 0xbd23844dbd86dd64U, 0x3e1d4c413dfc10ccU, 0xbc7f4e6fbe9d91abU,
