/**
  ******************************************************************************
  * @file    speech_data_params.c
  * @author  AST Embedded Analytics Research Platform
  * @date    Thu Dec 28 09:21:05 2023
  * @brief   AI Tool Automatic Code Generator for Embedded NN computing
  ******************************************************************************
  * Copyright (c) 2023 STMicroelectronics.
  * All rights reserved.
  *
  * This software is licensed under terms that can be found in the LICENSE file
  * in the root directory of this software component.
  * If no LICENSE file comes with this software, it is provided AS-IS.
  ******************************************************************************
  */

#include "speech_data_params.h"


/**  Activations Section  ****************************************************/
ai_handle g_speech_activations_table[1 + 2] = {
  AI_HANDLE_PTR(AI_MAGIC_MARKER),
  AI_HANDLE_PTR(NULL),
  AI_HANDLE_PTR(AI_MAGIC_MARKER),
};




/**  Weights Section  ********************************************************/
AI_ALIGNED(32)
const ai_u64 s_speech_weights_array_u64[12338] = {
  0x3e07fb4c3f20f534U, 0xbf15343dbdb28422U, 0xbe9a6a02be7c8f0eU, 0xbf409d5ebe7811acU,
  0xbeda324ebf60298fU, 0xbf54a412bf205788U, 0xbe93dc40bf39c190U, 0xbf212344bea87824U,
  0xbf2342acbf29371eU, 0xbec96a3fbebe2b6bU, 0x3ea9002d3f142a2aU, 0x3f4748ef3e8686efU,
  0x3ed272793f0685f2U, 0x3f33f0113f4efe88U, 0x3f3eef4a3f1d5402U, 0x3f2d7be53f3c1eccU,
  0x3f6d38343f5b3858U, 0x3ea8c1c33ef73d83U, 0x3eccd1ce3ea7299cU, 0x3e253b5e3ea8d36aU,
  0x3de6abf93e08a3d7U, 0x3e6ec33a3e304163U, 0x3ea5696c3e3cb64fU, 0xbe5b8be83d922602U,
  0xbedce3dfbe559387U, 0xbe8d10f8bf18604fU, 0xbe31e0e3be9073e7U, 0x3e0118c23e27f21cU,
  0x3e09c0a73dfe5c25U, 0x3ea570803d8f0e40U, 0x3f4560293f7e559cU, 0x3ee952e33f2c0652U,
  0x3f54c2363f3b764eU, 0x3e4a876c3f26a208U, 0xbcef8d4b3da4beb0U, 0xbed8d2e5be815ed3U,
  0xbf34ebd5bf2704f3U, 0xbf44f547bf0feb02U, 0xbf2f511fbf11ab81U, 0xbf2c023bbf1e7792U,
  0x4087dc47c04988fdU, 0x3f3c55c440047b57U, 0xbf91709fc107b60bU, 0x411bd32d4086a605U,
  0xc115389bc00c7917U, 0x41054ae2c0e6488dU, 0xc00295c741223672U, 0xc02ab3d6c1164033U,
  0x4070076340b1d36bU, 0xbf07c95dc03f42d5U, 0xbf435187beb89d10U, 0xbf364fd3bf025e66U,
  0xbfaa999ebf86d038U, 0xbf61ea36bf6e678eU, 0xbe6b3417bf0908adU, 0x3e7c5e4d3dcb308aU,
  0x3f0976903ed128dfU, 0x3f67e2963f6de9caU, 0x3f83d03b3f484180U, 0x3ec5f35c3f5dd6adU,
  0x3effe7febe0e290eU, 0x3f2e5c1b3f5c2ef3U, 0xbf463d1b3ea1570eU, 0xbf488e79c002a698U,
  0x3f844b5d3fe9a4deU, 0x3dd00b75be83826dU, 0xbd3d25af3d0db055U, 0xbf42fe10bf36ba8dU,
  0x3f2154e83ead0e77U, 0x3e8b12613ee5cf55U, 0x3f70dc0b3c8a9b8aU, 0x3f689ce83fb3827dU,
  0xbee2e8c43eb05240U, 0xbfd16933bfb8a768U, 0xbf78c274bfccac58U, 0x3f56f205bca5e235U,
  0x3f88ed793fb11df7U, 0x3f479b803f6356edU, 0xbeb6441e3f0f198dU, 0xbfb07309bfa1d319U,
  0xbf7032f3bf76379aU, 0xbe73d704be6c63eaU, 0xbe8c8f4dbeffa3ccU, 0x3e5be685bcbb09c7U,
  0x3f4129fd3eab3fd1U, 0x3f4764503f93e287U, 0x3f4c85913ed21f16U, 0x3f142a6f3f799522U,
  0x3ec60c6e3e99c7b6U, 0xbe8654603e4dbdc6U, 0x3f948ca63fa16760U, 0xbf30cb0a3ed3527cU,
  0xbfb938f1bfc3e08cU, 0xbf40cffabfa44c0cU, 0x3f84415bbe2147faU, 0x3fd771543fda1a71U,
  0x3db8351d3f7556c3U, 0xbf6c861fbf1a1d40U, 0xbf934278bf7e13e1U, 0x3f8fb0a1bef963b7U,
  0x3fce49893f0624fdU, 0xbfbdd4f33fae17e0U, 0xc038e06fc04b1585U, 0x40357a363ea80442U,
  0x4043da9e4041e91fU, 0xc083c8cdbf1334c8U, 0xbeaebe56c0782194U, 0x401e4fd63fe61e69U,
  0x3e19cde23fe7bdf8U, 0xc00d191fbeb13acbU, 0xbf47804bbf0a4574U, 0xbf328d49bee41032U,
  0xbea781ffbf27f4ddU, 0x3eb4021e3c35b00aU, 0x3f9d227b3f0e9fbaU, 0x3fa7c6583f9900a6U,
  0x3ee5fbfb3f3d6de2U, 0xbf249cae3ea8e5e5U, 0xbf5e63d2bee2e6a9U, 0xbf8f86fbbf0a83deU,
  0xbff9cf94bfabc083U, 0x40342b073fbba48fU, 0xbf5e3122405c4178U, 0xc09cf399c06e7d04U,
  0x4094e13fbfaebce6U, 0x3fc1533640bdcacaU, 0xc088943ec07f4698U, 0x3fe35190c0169b3bU,
  0x3ff6a24d405401e0U, 0xc030af9c3d25ff72U, 0xbf5718a1c0369943U, 0xbf323449bfa1cb7bU,
  0x3ea18cb4be303593U, 0x3ce391d33ebad4fbU, 0x3e883ea53e9dc8aeU, 0xbe4b30713d8b1428U,
  0xbe00e3073ef56665U, 0xbf2bcc69bea7cd9aU, 0xbfce7fb5bf5accccU, 0xbf6309d0bf3238deU,
  0x3f1143e2403eb50bU, 0x3ee12ed7bebb83fdU, 0xbed35e2fbe8fa822U, 0xbf581c93bffb709fU,
  0xbf933f5b3eb2b65dU, 0x3f0b0db2bf8769cfU, 0xbf56f2cd3e35662eU, 0x3f0682973ee9dd25U,
  0x3f0932823f1a4f1dU, 0x3ff4b1cdbef6e6efU, 0x3ec5b0a7bf643db0U, 0x3f0a9f593f324705U,
  0x3f5e28253f476426U, 0x3f02880e3e4e4005U, 0xbe372fd93f3257f3U, 0xbe874ce3bef257adU,
  0xbfbc5949bef1e265U, 0xbec52a2ebf963cb2U, 0xbef68b0dbecd6125U, 0x3feb4dec3e030523U,
  0x3f17f5d33f6c8d2fU, 0x3ea5feb93f39ce3cU, 0x3f1512e63efef478U, 0xbe86be0bbe196f1cU,
  0xbf1201d5bef251e1U, 0xbec9aa69bf1148d5U, 0x3df0d263bda90c0bU, 0x3f5608103f47b5b9U,
  0x3f2742df3f3e96b9U, 0x3e13122d3f3f3459U, 0x3e6dbd55c00ad705U, 0x3f50a815bff2f31fU,
  0x3fc32225bfa3237fU, 0x3f8743cebf66addbU, 0x3ebf9ff93f271871U, 0x3eb6bd95be3bbf44U,
  0x3eccf0393f1e5eecU, 0x3f8039cd3ec33313U, 0xbf1e06d43f9e61c1U, 0xc05ba115bf6deca7U,
  0xbd336de24016b1b4U, 0xbf9c493cc0068c4cU, 0xbf77bca6bf9defe0U, 0x3fb319f8bf0ff50aU,
  0x3fe67afe4027b32aU, 0x3f4536a33f653577U, 0xc00ec425bee11ef1U, 0xbfa6a42cc0073ce9U,
  0x3f5a7937bdd88020U, 0x3f9c4bbd3f358feeU, 0xc11e58934067536aU, 0xc10b7bd941491e13U,
  0x403b0ae83f51bf08U, 0xc130b8e4401ad6f4U, 0xc0d0e471414f4ac1U, 0xc0bddbc03fbbe43dU,
  0xc1cae3ba418715eaU, 0xc19fe85041ccfa0aU, 0xc1108c4f416369b9U, 0xbf4678a44079be59U,
  0x3d50d79440202af1U, 0xbf2791cebed600c5U, 0xbf53d138bf6a6eb1U, 0xbf96b2e3bf845582U,
  0xbe0dcf84bf0a507eU, 0x3ed740ae3ea83ae0U, 0x3f9574783f619dd0U, 0x3f4be1ce3fd120e2U,
  0x3cee18c53db731f7U, 0xc037cab03d7a25c5U, 0x3f74d927bce7c8eaU, 0x3f65b3ea3faa04c5U,
  0xbde97697bcea1865U, 0xbe865a95be2c2f25U, 0x3f23c48b3eab187dU, 0x3f8c44933f90849dU,
  0xbf46728f3e10bd84U, 0xbf625c1fbf8a87c3U, 0x3d657089be93ea3bU, 0xbe960320bdfdc9afU,
  0xbfa03bcebf7f165cU, 0xbe4fe66abf9251bcU, 0x3fe1f1f93f71d2c5U, 0x3fdf9e033fe1c195U,
  0xbef4de283ee65bb1U, 0xbfcaca8dbf9a3dc2U, 0xbfe379b0bfeb0817U, 0x3f30d4e4beb31befU,
  0x3fd4ada23ffef5d2U, 0xbf076b9e3f56c401U, 0xbfbbc560bf50b05dU, 0x3d96fb13bf4e5a8fU,
  0x400c8b123fbddca7U, 0x3f3befc04029e47aU, 0xc03248ecbfdc5745U, 0xbfd7750fc03b9c16U,
  0x40367bf63e8be433U, 0x3fe3b0764028ff84U, 0xbfa842f0be9b7ec3U, 0xbeda0b64bf9d102cU,
  0xc08c8bc340279421U, 0xbee497f73fa710daU, 0xc0b354404050a796U, 0xc03c48f341055805U,
  0x411e1a71c142faf7U, 0xc127e1cd41371f3cU, 0x4151c56bc1469bd6U, 0x406df40e3fca2852U,
  0x405fee43c159762cU, 0xc094698540fbf180U, 0x3f5e9cc83fb0877fU, 0x3f0755923f54528bU,
  0x3f3a9ef73f4ff889U, 0xbf3655d9bdb70a0dU, 0xbfb637acbf68e6afU, 0xbf589e91bfc60738U,
  0xbf37f6d3bf4e6563U, 0xbdbcbb093d73b164U, 0x3ea0ab313c949b64U, 0x40274e973f9708f6U,
  0x3f10de7dbea43283U, 0xc007032dbf9d8d9dU, 0x3ff307713fb4be80U, 0x3feb33f840364748U,
  0x3e3f3b8abfaf2153U, 0xbf87764bc052d2a8U, 0xc01d073d3f77a75fU, 0x4071eba23e74501cU,
  0xbfb37a04be03ced6U, 0x3fc06329c03150e4U, 0xbf86e078bfda1ed8U, 0xbab23fe53ca0f2bbU,
  0x3f9a228f3f609b7cU, 0x3f51deb93f7ec910U, 0xbeb280cc3dc84d52U, 0x3ead1c3a3d92e24aU,
  0x3f60a86d3f2a4be3U, 0xbd2d43eb3ef5a10cU, 0xbf41aad9be6050cbU, 0xbf5e428fbf2a1253U,
  0xbf88cfc63e976356U, 0x3fa415dabec0d6bcU, 0xbdeb0c1e402cdebfU, 0xc07cd4f4c0913615U,
  0x40ef7df540427e2bU, 0xc0c292f44009c49eU, 0x3f999cc2c0ece10aU, 0x408b09b640d9d779U,
  0xc0852978c04df13aU, 0x404a5264bfb06330U, 0xbf102bd53c9111f4U, 0xbede07d6bf30f471U,
  0xbf08de64bef9d215U, 0xbe6a7b75bf05a214U, 0xbd4085583e6f4c6fU, 0xbf04b9e6be522edbU,
  0xbf8589fdbf7bdfdfU, 0x3e298fb6bf0c461eU, 0x3f56fd843f3d83ddU, 0x3f3961b83f0644f3U,
  0xbf060ea0c006abadU, 0x402b66ff3fdd77d1U, 0xbecd5b153fc627f5U, 0xc0138f51bfb8f45aU,
  0x3ec919a5c011c766U, 0x3f3f9b753faac170U, 0x403b5f1e3fa558fcU, 0xbfef2c063ed17fffU,
  0xbfb75418c07de4faU, 0x4022a9b83fa185d6U, 0xbf7d75f2bfea0f86U, 0xbe7441bdbe9c7a07U,
  0x3f49f5283e9e8d39U, 0x3f97167b3f90a036U, 0x3f8eb4113f9e8f3eU, 0x3eaa3cda3f25e7a6U,
  0xbf39319dbe81a328U, 0xbfa9bee7bf038212U, 0xbf5c9a30bf658e5aU, 0x3ef02a9cbde2935cU,
  0xbd7774643b7c6b0bU, 0x3deb89033a4d595aU, 0x3d3965f63bc4bcb8U, 0x3aed7948be452320U,
  0x3e01227c3e2f6ce3U, 0xba709d5a38b7fbb0U, 0xbdb5217cbb070eaaU, 0xb7a700003c107ef7U,
  0x3d8080b5bd9eb0d0U, 0x3a8e060c3b5cd882U, 0x3d05faa9bd83d282U, 0x3b21228cbb929caaU,
  0xbc07f5f53b59bcc6U, 0x3d92d4e4bf7a0425U, 0x3dd8c6013b830798U, 0xbb8c92af3b3e9fd1U,
  0x3c83683c3c8e3045U, 0x3d110b303b51e97eU, 0x3c17d2a5be26cf35U, 0x3d0a98b83bb40263U,
  0x3c2ec3cd3bb87cbbU, 0x3c9b2cdd3ba78df8U, 0xbd22d3f7bc81afa6U, 0xbc034e4abb0580cbU,
  0xbb8e43a73ce1b225U, 0xbdadeeafbcd272dbU, 0xbb32f4363cff8194U, 0xbce75a113d3eb9fbU,
  0x3c8a182cbe16dae0U, 0xbcddd7a4bc9c2a74U, 0xbb622e64bdc1a1e3U, 0xbcf579643cea1a7eU,
  0x3a99ce723d053eb2U, 0xbc725437bbe7df02U, 0x3d04fd46be2bbfe7U, 0xbc9712653cb7a3a4U,
  0x3cb451963c6ca2edU, 0x3c47cc433d6ab2f0U, 0xbae639e1bbc2626eU, 0x3c81f5e1bc1aeaacU,
  0xbcf196b83c35ef1dU, 0xbd83df353b7d1524U, 0x3c52a41c3c8ae06fU, 0xbb5848623d0d585eU,
  0xbc03c011be0b95ddU, 0x3c26b4a9bd2c1083U, 0x3c735697bd8804cdU, 0x3b9279c03a2d20e5U,
  0xbb06c2bebc280715U, 0xbcd18873bd0b3b2bU, 0x3be82502be5819ebU, 0xbc6e35c03cbe16e1U,
  0xbc88118cbc773f53U, 0xbbbcb1473cbfbcaaU, 0xbca9f51f3b88bd97U, 0x3c5b07a0bd1129cdU,
  0xbd3be210bc11fd1fU, 0xbd99c3513cd8b6bbU, 0xbb8db5f93c1f8612U, 0x3c256c9bbce350f7U,
  0xbd0c4af5be2ddc47U, 0x3b84a47fbd424420U, 0xbc141d10bdff48c1U, 0x3c9825e43c993458U,
  0x3e602febbc87e217U, 0xbda9118fbc9c2257U, 0xbdb96c40bd1fd095U, 0xbcc0c35fbd8123f4U,
  0xbce6b457bd1329dfU, 0xbdcb3292bb53af63U, 0x3d91b346bd7291a7U, 0xbd3cb3b8bd7c3186U,
  0x3b1b6b253d4a555cU, 0x3c6b7fbfbd2291dbU, 0x3ce8c640bd6d1608U, 0xbbc0980cbd237d97U,
  0xbdcc24ab3b494e3aU, 0xbcb6ea49bc721a3dU, 0xbca30680bd82964cU, 0xbe0b3eda3cb404a4U,
  0x3d6ebdfe3d0a8237U, 0xbdefceb3bd860d77U, 0xbdd70298bd757134U, 0xbaddeab0bd74c772U,
  0xbcc2f510be21ec20U, 0xbddcc568bc1e7f2aU, 0x3e28066c3c93bb84U, 0xbd7b9d6ebdef6453U,
  0x3c696e68bd391334U, 0x3d4b3aa4bc9d0da3U, 0xbde6dc47bd9fe0b5U, 0x3cdd0a68bd415846U,
  0xbddaa3363ac385fdU, 0xbdd323a2bdcc3889U, 0x3ca1ba4dbcaa9ce5U, 0xbe1317a0bc1ae658U,
  0x3d7dfac2bda3493aU, 0xbe2877d6bdb0579cU, 0xbe1391633d63ed97U, 0x3d2d0920bc52335eU,
  0x3ce3e40abe056ae1U, 0xbe0f92dd3da84975U, 0x3d6071d43db4f4bfU, 0xbd35a163bc834899U,
  0x3d9468ebbc819fb8U, 0x3ceb3b213de5296fU, 0x39c94b8ebc65a4e6U, 0x3d87d0e33da91067U,
  0xbdb682db3ce7dc99U, 0xbc77c0bebcd974ddU, 0xbd174cf53ab4cd21U, 0xbe0cd0b83dab81f6U,
  0xbb8370ec3c054b6eU, 0x3b11701abb39e2b2U, 0x3b7a76593cd29057U, 0x3ba1ca98bb6c1efaU,
  0xbbecb9ddbc162369U, 0xbb3e9ca43c715c85U, 0xbae724493bc16592U, 0xbac8c6283b343e74U,
  0x3ae3d7ffbaf09502U, 0xbd0c55d2bc551cd4U, 0xbb3e11183c1c221fU, 0xba99edcebc2ea5acU,
  0xb9aee0403c245348U, 0x3bb15d313bf77f74U, 0x3c1dc76b3bfd575cU, 0xbbd5e0373c411190U,
  0xbbe121453a17f738U, 0x3b5388733b485d26U, 0x3c24b6df3c09ff5aU, 0x3b6e9153bc04427cU,
  0xbbb701c73c1cc65bU, 0x3c069fe63be29597U, 0x3c0e3360bbdceb79U, 0xbc09b0a8bb5facb6U,
  0x3b980aaa3a6e789fU, 0xbd36088dbc0a3a23U, 0xbbd7da223be8992cU, 0x3d17911bbc2edd5cU,
  0xba6e5e903b6e7a74U, 0x3c5e6052bc073c69U, 0x3b7d3f803c8c50a5U, 0xb87568d33c68136cU,
  0xbc60b468bbc08341U, 0xbbeff837bb4ba3c2U, 0xbb1cde903cd729b2U, 0x3ba5aa5dbc3ca16aU,
  0x3c3a5d593bab2353U, 0x3b9cabbd3bfc7f7cU, 0x39b92e013cbe180dU, 0xba7ca53dbb715a06U,
  0xbb5d8cb4bbb09228U, 0xbd02c1b4bbfd4c9dU, 0xbb827779baf4debcU, 0xbb763d2a3b35af45U,
  0xbbf4b6533cecaafcU, 0x3adb7f67bc20225cU, 0x3b838da53cf0a5e7U, 0x3b67cfb33b74ffbbU,
  0xbb5606b03bea8683U, 0x3c879f99bbc8b33dU, 0x3c1d19babced884bU, 0x3be28a08bb44de4dU,
  0x3ce518493be9a352U, 0xbc0efa51bd3f1f1bU, 0xbd175a40bda031e6U, 0xbcc6bbbf3b430a76U,
  0xbc001261bc5c6b0bU, 0xbc0ccc273d10ac38U, 0x3ca212f8bd044a95U, 0xb9effe5e3c78666eU,
  0xbc692d613db9d982U, 0xbbb0b70ebd58f83aU, 0x3c7ec7c0baa64064U, 0xbc2dafdfbca3f952U,
  0xbc29699f37dc505eU, 0x3bddfb5fb733ac1eU, 0xbb9faa263d16a389U, 0x3d101ebbbc0ba083U,
  0x3cb1db83bc9910c6U, 0xbba44b07bcf40ffeU, 0xbcac700cbd88e763U, 0xbc932389bbb0be63U,
  0xbb45aaa73a01e9d5U, 0x3c2e5ecc3d226247U, 0x3c0205c0bc189a40U, 0xbbfc97ab3d22bf50U,
  0xbb77eca43d942f55U, 0xbc70daf3bd2ab906U, 0x3c38c716bca396a8U, 0xbc05cddabb1fda38U,
  0xbc056fd4bc3847feU, 0x3c5ed43abb25b136U, 0xbc3504f83d40e25eU, 0x3cb936a5bbe39f83U,
  0x3d07228fbc12e825U, 0xbb9836c9bca63762U, 0xbce96de4bdcec390U, 0xbc9b24af3c50b391U,
  0x3b247cec3c63d873U, 0x3c15ed7d3d59ac2fU, 0x3c88239dbbada28dU, 0xbc7ab5793d00e17cU,
  0xbc1c311e3d821998U, 0x3b1ba821bcf17382U, 0x3c38f27fbd00c06eU, 0xbccbb310bc1d9846U,
  0x3dd01ea23d9870edU, 0x3d6a55bdbd37b9d8U, 0xbb34aaaebbbe7f0eU, 0xbcfd6ac33cac705dU,
  0xbc49d8273d264870U, 0xbd798bd13db5ad47U, 0xbd3c9b683ca09af9U, 0xbd18b615bd034155U,
  0xbd60a4e5bd343a27U, 0x3d216d6d3d253e3aU, 0x3ce07030bd8afd09U, 0x3c226006bc208ad3U,
  0xbdca73903c33a595U, 0xbcfc475bbd895d7cU, 0x3d73b0943c97b9a1U, 0xbd9fd404bd104e76U,
  0x3d1f97b3bb9a95c3U, 0x3c0b1e8fbca74f00U, 0xbcc10933bc0870e1U, 0xbcf72bafbc2c1d89U,
  0x3a8d8d38ba66551bU, 0xbd5892f03c33d941U, 0xbd70e12c3c5de33bU, 0xbd8c3c4ebcc63cd8U,
  0xbcf5f79abdbaa638U, 0x3c9d345fbccb00cbU, 0xbc3e40e3bd7c674fU, 0x3d3faee63c1e0adaU,
  0xbdac13f63c7946a8U, 0x3c755e7dbd8e5458U, 0x3b4888a7bcbb99d4U, 0xbd9d7b013c256ba3U,
  0xbc5913143ce15428U, 0xbc76e9e9bcddaffdU, 0xbd53aa733d0316e3U, 0x3d1eeb6ebcc54f54U,
  0x3c43a384bcc55189U, 0xbd9300163b928a75U, 0xbd29a3803c022db9U, 0xbd3e855ebcd584baU,
  0xbcb9fd13bdc3c8d5U, 0x3b6a2a61bc1ad9ddU, 0xbc1d4ccbbd5acda9U, 0x3d743cd23cdce731U,
  0xbd915c383ccc1f10U, 0x3ce045edbd7ae531U, 0xba28ad9f3c177c3aU, 0xbca428aa3d9ecd3eU,
  0xbc738f9abcbb5a20U, 0xbbfdcf473bf9c9edU, 0xbc28eac33a510532U, 0xbd4a8f01bbee631fU,
  0xbd8a5aa5bd4690b4U, 0xbcce9c353c44e1e0U, 0x3c8532d03cd03e7eU, 0x3d0369013c9691b5U,
  0xbd629bd13b2ca6e0U, 0xbdc7c11bbc971048U, 0xbcb63cf73ba1a8f2U, 0x3c909030bc5d4021U,
  0x3ce2aa2abbadebfdU, 0xbcd5da28bcc0ca40U, 0xbc312c12bc512760U, 0x3984ad693c38d32cU,
  0xbc43ecd8bd2c3596U, 0xbd2f1ea93b852de4U, 0xbb5b2f95bace08d1U, 0xbd8a3730bbbb9c07U,
  0xbd8b5033bd3b8713U, 0xbc443b5b3c77287cU, 0x3d09d4e83c9d6a0fU, 0x3b0abc533d0fa88fU,
  0xbcd47eb43c97c93fU, 0xbda79c3dbc923013U, 0xbd34d9fbbc7b22b6U, 0xbc48b7173c253a7dU,
  0x3d64742e3c3a3c76U, 0xbd0713c5bcffbb41U, 0x3c628e7cbb41af70U, 0x3cddd9943927f92dU,
  0xbce8dacb3cca08b9U, 0x3d911eb23d995bd8U, 0xbdfc28bf3c0f5ca3U, 0xbdecf4423c9efb6cU,
  0xbe1b7047bde4e4cdU, 0xbac7486c3c13293eU, 0x3d256e7d3c944400U, 0x3dc2c9da3d05c977U,
  0xbd349ef23d1343abU, 0xbda9f665bca7fe43U, 0x3c1643d4bdaceb64U, 0xbc6d44193d41a717U,
  0x3defc0563c5ce7deU, 0x3cd0f4c0bd7ee82fU, 0x3b2cc7093c1c6cedU, 0x3d85de903c1dab1bU,
  0x3baa94eb3900539aU, 0x3bdb546a38a89e3dU, 0x3cb8cb1fbdf2b68bU, 0x3c6600683b6f1bf5U,
  0x3cb7f91d3c89cf43U, 0x3ab18fc4bb442ef9U, 0xbd1f4ae4bd9ef3a3U, 0xbc3ad35fbbfab7d0U,
  0x3d10ccb2bc1a251cU, 0x3b5dd1093d1a5028U, 0x3cbe1685bcbead25U, 0xbc9259f53cbb25f8U,
  0xbcc5315a3b9732ecU, 0x3d11cf82bcd5181aU, 0x3ce5e753bdf94ef6U, 0x3bf69fbbbbb27d20U,
  0xb9322a393cae1196U, 0x3c8ac758bcca39c0U, 0x3cbcfcf6bdff13e4U, 0x3b9a3919bb93d6ceU,
  0xbaac67fb3ab41c24U, 0xbc172a91bc5d95ccU, 0xbcf1b710bdb79925U, 0xbca4ded53ce4527aU,
  0xbc71ac4bbca821bfU, 0xbb67d70b3cf71857U, 0x3c4047f8bceb71ccU, 0xb976b1003bee13cdU,
  0xbb9b9d773d2b0109U, 0xbc612c94bcda51f5U, 0x3cd68452be1d0948U, 0xba4bf0103c5efab5U,
  0x3c12e3963d41722dU, 0x3cd183cc3c8318edU, 0x3c6fc92abdccb846U, 0x3c61d7f83ca6b1f0U,
  0x3bc9a6a5bc105564U, 0xbca07753bb23e165U, 0xbd0bddd3bdf344dfU, 0x3c5eb10a3d0007e4U,
  0x3c2b38c03a137319U, 0x3d117a683d3720f6U, 0x3d2b6bbabc65d702U, 0x3ccff5c1b9130316U,
  0xbc8097f63abcd6d9U, 0x3b0bf60cbd3e5582U, 0x3ce22f4fbdfc4dc2U, 0xbc67ffa6bc130be1U,
  0x3d17d6643c65fc74U, 0x3d533a6a3c3a355fU, 0x3d03327d3c6ff0d1U, 0xbd4ced8fbb28121aU,
  0xbda3c1a43cc12ca1U, 0xbd3a6ea8bce0cc1eU, 0xbcdc5b933c7238f5U, 0x3c9c6b53bb9fa2c0U,
  0x3c27d6f1bcf82e7bU, 0x3c2bed98bd6f8d3cU, 0x3d3d0a1dbdb0e95fU, 0xbd928631bdd56c6dU,
  0xbd79ec9f3d0118fdU, 0x3d158009bb5ab94bU, 0x3cd5de59bb31f87eU, 0xbd481160bc02b085U,
  0x3c8b443c3d39f215U, 0x3cb6fd56baad1f3eU, 0x3d12dfbc3cb50944U, 0xbdcc37a43c2c1cf8U,
  0xbdb9caaf3d10a430U, 0xbd6acd19bbea4853U, 0x3b83e033bc864fe7U, 0xbca7c9633b25dad7U,
  0xbb850785bd240756U, 0x3caa3418bda39c21U, 0x3cc2e1e3bdf90587U, 0xbd90124bbdc0c056U,
  0xbd7db2b03c8bf240U, 0x3d02119abc12a738U, 0x3d12ae433c74800bU, 0xbd93e1dfbc91fbcaU,
  0x3d80a1d03cacc1d5U, 0x3a203c9cbc22ab7dU, 0xbcf5f8903cb6f993U, 0xbded5d7a3c09aab1U,
  0xbdff43383be13186U, 0xbd9954893cc362c9U, 0x3be7b171bba10300U, 0xbd16eb45bc405f32U,
  0x3c525c43bd489ea3U, 0x3cda06adbe032267U, 0x3d0781febdbdcbe2U, 0xbd8b5695be2ed681U,
  0xbd44ecbd3bf61d1dU, 0x3d7e13823c458030U, 0x3b7721983bc37fa8U, 0xbdb7b815bcad1d03U,
  0x3c1aab383c7da47bU, 0x3c989ce83c9e8659U, 0x3d1b5c563c8822e6U, 0x3d17da713c9a049cU,
  0x3ce7f2d73cf6a914U, 0x3d2bf020bd15bc5fU, 0x3d2c0ab6bc822198U, 0x3d6ced643d28fad4U,
  0x3c9cee213d382a92U, 0xbcd5f93f3c234e07U, 0x3cc8f2e33c9d70b3U, 0x3c56e1a93cce0c0fU,
  0x3ca1967dbbbb5408U, 0x3d16d7e1bb77c6f4U, 0x3d2119a03ced3a9fU, 0x3d071a38bc83e4cfU,
  0xbaec82f6bd020be6U, 0xbce9bf0cbb4462f7U, 0xbc8fc931bb726c15U, 0xbcb05e3abc6c7372U,
  0xbbff219ebc451b58U, 0xbccb39fabd20f9b2U, 0xbac2b0debcdc15a8U, 0xbb444b6bbc38f576U,
  0xbc846d8b3ce45e1eU, 0x3af4e515bcf61cdfU, 0xbca51748bce6f2e8U, 0xbd340ecabcc8852aU,
  0xbcbadb56bc4c7cdaU, 0xbccfd050bca624b2U, 0xbbf50b933c75c7d8U, 0xbd34d49fbd0cb79fU,
  0xbd35d857bcae2663U, 0xbd184189bb991cb5U, 0xbd33d2cb3bb558bcU, 0xbc230c90bc387e0aU,
  0xbca1a16cbcb4c869U, 0xbd1a62cdbd573eaeU, 0x3c8e3a1abcc12d93U, 0xbcb8abd3bd0a2c86U,
  0xbbfdd485bb21acf9U, 0xbc057c9cbc73c2c9U, 0xbd23c309bd1c9944U, 0xbcb49b74bd0e9c5bU,
  0xbd3764363be43d02U, 0xbcf341c2bcfd7eecU, 0xbc1d654a3cbce625U, 0xbd3e7e5dbcb90bcaU,
  0x3c865cae3d383d55U, 0xbcb72cf93c4d87bcU, 0xbcf6e874bdd29ff9U, 0xbbe00cabbad86b28U,
  0xbcf9b7223c8fa36eU, 0x3c9efa04bd53adf1U, 0xbce98e1bbd841ef5U, 0xbc15ba613adcec16U,
  0x3d041fed39a24a0eU, 0x3bda14a2bd22fef2U, 0xbb86678f3c9a8910U, 0xbd41693fbcd07ac8U,
  0x3cf3cbd8bd4b5949U, 0x3cf8409b3bfcfc89U, 0x3c8e5c1dbde792bfU, 0xbc11e71cbd43692aU,
  0x3ba251a93cd018c7U, 0xbccb9fe83b2c376fU, 0x3b923d15bda72505U, 0xbc7b64fcbbd8c091U,
  0xbcdd84603cb39c6bU, 0x3c82c38abd9fc5ecU, 0xbd49fcf2bd4a0e2cU, 0xbc9529a43c7a97b3U,
  0x3d0a3a1fbcbd3ce9U, 0xbbdaf294bd7936c0U, 0xbcc5c4d13bb6257fU, 0xbd3176cf3cb0ad2cU,
  0x3d11fb07bc82ea25U, 0x3d1de5f33cd8e2ffU, 0x3cba7b41bd93d69bU, 0x3b4e786bbd1b7c70U,
  0xbc9ab612bae10bfcU, 0x3c516ad93c0dc187U, 0x3d3725bbbe0cd9ffU, 0xbcdb51f4bbbee583U,
  0xbd43c982bb68d52fU, 0xbd6d81c8bd9c394dU, 0x3d031accbd8e866fU, 0x3bc8ce7e3c859c33U,
  0xbd228de4bc82b79aU, 0xbd4446d6bd95c400U, 0x3d10fbdebb89017fU, 0xbdd002f6bd2404afU,
  0xbcec3a9abd3d504eU, 0xbbc29e4e3d03c3f0U, 0xbd03a0c1bdc3af91U, 0xbbc9edd7bdc5eef3U,
  0xbd66a736bcbe8a7fU, 0x3c89d36cbbec5995U, 0x3ccc3a48bdf8fadcU, 0xbd194081bc6517ebU,
  0xbc6a5c543c033ac7U, 0x3caf30d23d15c6a0U, 0x3c268e14bc93e1a8U, 0x3bb17cbe3b9b4175U,
  0x3d0aefe7bcd02500U, 0xbd455562bd22c321U, 0xbc31cb55bcd77d3eU, 0x3ca6c8aabccd461bU,
  0x3d1343efbda9f736U, 0x3cb28fccbc4a2336U, 0xbd2efe21bdcdbe8cU, 0x3b8218453d0b78f5U,
  0xbd39aad93c3d592fU, 0x3cf186b7bc8afca5U, 0x3c2c627ebe027f9eU, 0xbd0d48323c4d00adU,
  0xbbc68101bba97237U, 0x3c1e90cd3c8db592U, 0xbcca8bdabcb92516U, 0x3c33daf03d03e7dbU,
  0x3d31ede0bd38a688U, 0xbcc6231ebb5690afU, 0x3d088bd7bcb4e2fbU, 0x3d045a53bd0d23ceU,
  0x3d3da21fbdd48024U, 0x3c97941ebcad06e0U, 0xbd0b88e4bdb3bc02U, 0x3c9398ef3d732201U,
  0x3b27532fbcacf438U, 0xbc7380b4bcbcaf65U, 0x3d61de3ebde60e2aU, 0xba45581dba86b11fU,
  0xbb8635803d1700a0U, 0x3c61bf343db7066fU, 0x3ca1553fbcc9c36dU, 0xbc41c9953cb56c59U,
  0x3d18a0c1bd10db38U, 0xbc779cd2bca64d82U, 0xbc702874bbd7b82eU, 0x3c8c5b33bcfc1c14U,
  0x3cd69fa7bd94f412U, 0x3baece65bc32876cU, 0xbc926c6cbdc3363cU, 0x3beb42713d2860ccU,
  0xbd409470bd26db59U, 0xbb99269bbc9cbf18U, 0x3d25a0373b3610b6U, 0xbdaed1e0bcc43368U,
  0xbdaf32df3ca2eeb6U, 0x3c82c5ae3bf30643U, 0x3c232af93d5bbde4U, 0xbbea7c683bf6e45aU,
  0x3d208577bd02e4fcU, 0x3c318a68bdca8a88U, 0xbcd42b57bc2e0525U, 0xbd6ec6adbdaaaad1U,
  0x3c345b1abacb25feU, 0xbbd95c6f3c55055dU, 0xbd212d6dbc81a44dU, 0x3beccbaebd416a68U,
  0x3c20ea913d243eecU, 0x3c95c84e3bfd35d6U, 0xbc074b63bc8fdd7bU, 0xbdac5c473bdbf3ebU,
  0xbde2fc78bc8eb155U, 0x3c16fd23bbded07aU, 0xbd3626223cbd5cd1U, 0x3cbad9573cf44312U,
  0x3ca5e31cbd7ebfedU, 0xbbcd45b2bdefa132U, 0x3c28e41bb9b13511U, 0xbdd28fdbbde0b905U,
  0x3cf94f58bca42c17U, 0x3cde3fd0bdb143bfU, 0x3c225b0cbc350aaaU, 0x3d006e76bd20bc2aU,
  0x3cf1803d3b0dc0a2U, 0x3d1cf5bd3d041f81U, 0x3d44f91f3cc91fc4U, 0xbd4546b6bac7758aU,
  0xbd59740f3d5d1006U, 0x3d84654e3d0f6154U, 0xbc8f21ee3ce28906U, 0x3d117edc3d0640ccU,
  0x3d7add89bcf07531U, 0x3c02ddd5bdf5bac0U, 0x3c7ce1a83c87a934U, 0xbd81c704bd4eb386U,
  0x3d485d33bc4a1dc5U, 0x3d27d824bcb9f5cdU, 0x3b6e89393c993d74U, 0x3d42450ebd296546U,
  0xbd30a040bcf5dfb3U, 0xb988066abca170cfU, 0xbd10b57a3c717968U, 0xbc4f6e183c123a17U,
  0xbc2767a6bb91ccaaU, 0x3d590497bc6813cfU, 0x3dbb42d13c8f9c88U, 0x3d1debbbbd824fc4U,
  0x3d6bb95a3b442269U, 0xbca59719bced79e7U, 0xbccc4ecb3ce15c71U, 0xbd5a4440bc6c1d67U,
  0xbc8a24d0bce8c9ceU, 0x3c842c91bca3b840U, 0xbda1545d3d0da750U, 0x3d56377fbc947c00U,
  0xbcad2b56bcfb4a47U, 0xbc2524a8bb7b56c8U, 0x3cbbc3183ba2d3e3U, 0x3b1ad066bcafd2bdU,
  0xb9173c5abc77877cU, 0x3d1224efbcd72b26U, 0xbb884ed83b80cff4U, 0x3d1fc1833b6688baU,
  0xbbba72853d299ad1U, 0xbcec4491bc2a3ec3U, 0xbcebf6b03d8a1a78U, 0xbc9172973b19f199U,
  0x3d2a5a78bc003267U, 0xbcc0d63abcedf888U, 0xbd06736c3cfc65d2U, 0x3d50bdbabd663c5dU,
  0x3a945555bcaf1115U, 0xbca441813c0eef4dU, 0xbb4c01baba857e56U, 0xbb787a1cba59af04U,
  0x3c007559bbc6c5c2U, 0x3d2cf5f8bbc018daU, 0x3d148c383b315653U, 0x3ca9436a3b2671eaU,
  0xbc046de43d3ecf41U, 0xbd4415fdbc1060deU, 0xbd0437403d398e35U, 0xbb2cb02d3caee377U,
  0x3d018766bc33596dU, 0xbc9753bfbd41edc7U, 0xbcfb39463c9b14a9U, 0x3d591682bcf70617U,
  0x382fe0cfbcae6f19U, 0xbc743a26bb9e0636U, 0xbc2166a2be16f6c9U, 0xbb901c3abce134b9U,
  0xbcfe18c5bbf46016U, 0x3d01a5883d65a57cU, 0x3d0935833adcd75cU, 0xbb39aadd39f22048U,
  0xbc56e5c73bdcf236U, 0x3cc20dc9bcafb75aU, 0xbd6403d03d084776U, 0x3cd071583d03fd6fU,
  0xbc565f90bdbea92eU, 0x3c2c1f71bc03b18eU, 0xbd078fd5bd90e43fU, 0x3cb3fd7cbcd2c5afU,
  0xbb4d9bc4bc874547U, 0xbcc20f933b6667e2U, 0xbd17eddebe0237aaU, 0x3aceb44cbd4111b5U,
  0xbd418debbce487f6U, 0x3c63a0833d45373cU, 0x3d00f82abac0be77U, 0xbcd1890bbd143393U,
  0x3b8828813b7c9d4bU, 0x3ccc3638bd64b073U, 0xbd322d3d3c6f1bfcU, 0x3df36d6f3cfe20afU,
  0xbb6c6ed9bd9b76f1U, 0x3ce848b7bbe7e311U, 0xbd5c899dbd670c70U, 0x3c5a0d783c070515U,
  0x3d542cfe3cd778a1U, 0x3b8be633bc2d3df0U, 0x3d0e9104bd92c43cU, 0xbce1ff863c651742U,
  0x3c865f373c5c46c1U, 0x3cae64c63da7181bU, 0xbd16743d3d9e6357U, 0x3caa74b03b8e0800U,
  0xbb99a8653c7abf34U, 0xbc23c9593d311b43U, 0x3c04074c3b064f43U, 0x3ba2c75cbbc03e53U,
  0x3c8202bfbd95a1c7U, 0xbce87343bc86d5a3U, 0x3cc9b31dbd82005eU, 0x3cd5c0bc3cb9e46eU,
  0x3cd8848bbd6adb1fU, 0xbdc4fc99bcdd5c23U, 0xbdedef18bbca9222U, 0x3d00af113c4e3329U,
  0x3d2a77c8bde040c5U, 0xbd3b030a3d3b7ae3U, 0x3d6cca38bc66ce08U, 0xbd28038f3b75852aU,
  0x3d3142453c578838U, 0x3c4e7d463d0142c9U, 0xbd52fbf53b864608U, 0x3d29d8d8bcbe8d95U,
  0xbd12da603ce61ec4U, 0xbc8ebb74bc8bd639U, 0xbd160d6cbc2be090U, 0xbce520d43cd89103U,
  0x3cf59bf8be0afe48U, 0xbdf1ffbcbcd09cddU, 0xbe1a16143cf07992U, 0x3a68dc84bbd30b86U,
  0x3be7dc5cbdb54f45U, 0xbd4289c9bcaf4fefU, 0x3d02edf1bba3d518U, 0xbd0c3757bd09a1d3U,
  0xbc03d3043d1a27d8U, 0x3cb425a33d00e96bU, 0xbd725b9c3c9cf143U, 0x3bc21fe1bc45bb8fU,
  0xbd9577ef3cfafa45U, 0xbd4c52f9bc8eef64U, 0xbd8591e3bbcaaf13U, 0xbd58bfbbbd6d8c32U,
  0x3c8a7fafbe34c29fU, 0xbe4c0e04bd53f9c1U, 0xbe5caa09bbd8b4e8U, 0xbda72126bd49e64bU,
  0x38b6c8e2be2de864U, 0xbdf653553c953074U, 0x3d709d3c3d75bbe4U, 0xbdb28621bd8544cbU,
  0xbcd4956a3c7a6ee7U, 0x3bff88753cf48be0U, 0xbdc66b253cb32619U, 0xbbd00ca1bc95903dU,
  0xbe0e803bbc405266U, 0xbe0f13193b7cbec1U, 0xbe0273f43c4b7b48U, 0xbda888663d3e9d21U,
  0xbca21f1fba0dcf52U, 0xbc4495da3b980033U, 0xbc03d8babc253160U, 0xbc2034ce3bdd235aU,
  0x3c2b9485bc0dee1dU, 0x3ba841babbd95640U, 0xbc179225ba90c97aU, 0xb9b6e7413cad0b64U,
  0x3b70de6e39b20a15U, 0x3ac4c4283c2d7bf9U, 0x3bbc194ebc1ba3a1U, 0xbbf7cf68bad7fae9U,
  0x3c3927313b67e1baU, 0xbbf605fe3c502554U, 0xbc4a8f8dbc9154adU, 0xbb73f5023ba4b35fU,
  0xbc51a5d8bc1e291dU, 0xbbb7753bbb47f28bU, 0x3beb3c9c3b2bf936U, 0x3c38b0e93bd1c17cU,
  0x3bcf7ec339852df4U, 0x3bca6db83bc2d8c4U, 0x3ca89be3bb826989U, 0x3bac85453cd6beb5U,
  0x3ccbe8b5bb0a3ad9U, 0x3bc572d83baf769bU, 0x3b9f82fc3c55a6d6U, 0x3a909d7abb87f854U,
  0x3c20712d3c3ab5a0U, 0x3bd6f2773b866778U, 0x3b1f286bbb681b89U, 0x3c27f6753c2452d1U,
  0x3aeff42d3ab4e294U, 0xbb00a8ca3bf44ed2U, 0x3d1864693c918e7dU, 0x3c4f90313bad8d03U,
  0x3c268a0a3cdfbeb7U, 0x3cc20a3b3c50990aU, 0x3cbfda393b48715fU, 0x3b88218b3d060733U,
  0x3cf6f8af3bf48852U, 0x3beb9d373bc4df49U, 0x3be06bb23ce82804U, 0xbb12dc7abbcb869eU,
  0x3c7699193cb9a35cU, 0x3ca4264f3c069fe5U, 0x3b463b733ae3d5c7U, 0x3c702bbcbb863789U,
  0xbaf9d8d6bc7b35f0U, 0x3c766cfebb17a62fU, 0x3c78918539faaeb5U, 0x3bea36153be1292cU,
  0x3b9b90313cac665cU, 0xbcc035913bbbfa6fU, 0x3cbb62163c42cb3aU, 0xbc2e8107bd84bcbaU,
  0xbd5d416ebca23d58U, 0xbe6494ebbd048bc5U, 0x3c71aef83cc6e2a8U, 0xbc85664a3c681e0dU,
  0x3c244773be1fa423U, 0xbcafcfff3d784b0dU, 0xbd0653483d1b27e4U, 0xbca8936abbdcee27U,
  0xbc1ea6f13d256b50U, 0xbc55e396bd141196U, 0x3cc650fbbd0636f5U, 0xbc0c8458ba5053acU,
  0xbcb074b23cfc2346U, 0x3c094e15bccb8727U, 0x3cc5aa04bab09b20U, 0xbcd9dd7abd76d3b6U,
  0xbd266655b82706a5U, 0xbe879e1abd261f78U, 0xbc8d492a3c87b90dU, 0xbc5ac819bd0fb058U,
  0x39af27d9be2fd441U, 0xbbc385643d37b863U, 0xbb88089b3d2ada2fU, 0xbbc71148bc715102U,
  0x3ce0b16fbcbf3918U, 0xbd64f5afbd390198U, 0xbbe71e33bd458cacU, 0x3c1205fdbc810317U,
  0xbd10b5f3bc6c5c01U, 0xbd2008b3bd29d2ecU, 0x3cc6154b3a2755e5U, 0xbd0754f0bdb808b0U,
  0xbd9f8fff3b344ac0U, 0xbe8bd02dbce1b76dU, 0xbcabb3163cfa5d8bU, 0xbc82287a3b1d1aedU,
  0xbca9a781be3168c8U, 0xbcd968953d3bd759U, 0xbd47edd1bb929e40U, 0xbd08be983ba8080aU,
  0x3c11508abb8169ffU, 0xbcd88dafbc46c1b2U, 0xbcc22f54bc175088U, 0x3ca110cbbc1950d1U,
  0x3c1656f0bc46d103U, 0x3bdc49693acb8989U, 0x3b701a183c010181U, 0xbc44c3a4bc17926cU,
  0xbcd1613b3c458845U, 0x3ce720f1bb9567dbU, 0xbcdc92af3bf7e0e9U, 0x3bbb8190bc2d46c3U,
  0xbc5e1938bc33692fU, 0xbc274409bcb4ada3U, 0xbbb099ef3c858be1U, 0x3c85924cbc48492cU,
  0x3c2fdcfbbc954dfcU, 0xbca74001bc98b0b8U, 0xbc95acbcbc33243cU, 0x3cad5f51bc3f1bf8U,
  0x3c233067bbc979dcU, 0x3cabad88bc3d4ed8U, 0x3cc923713c1d1086U, 0xbd27766dbc67f951U,
  0xbb959a7d3c4b772bU, 0x3c673d75bcb2c2a2U, 0xbbb1c49b3c2c8acdU, 0xbc3977e5baa78a6eU,
  0xbc82e87abcd1fb37U, 0xbc864767bcc1df51U, 0xbc9a5a273c2257faU, 0x3cad3e6f3be013ffU,
  0x3c091a2fb9e12acaU, 0x3c059e1fbcd54682U, 0xbb9fa188bbbd3cc7U, 0x3d296407bbbc1020U,
  0x3d8026ac3ca806ecU, 0x3d9b7ca6bc87bdbcU, 0x3d03f9aa3cd16b19U, 0xbcd96884bd07cc8dU,
  0x3cdd2fe23a8af414U, 0x3d560e153c61de47U, 0x3bd1dd7e3d5e5d54U, 0xbc2bce14bcce1188U,
  0xbd28bd3bbb3863d7U, 0xbb93ac57bd0b989dU, 0xbd2528823c341be3U, 0x3cade41bbc1a630eU,
  0x3d09b32e3c34849fU, 0xbca0acf9ba696500U, 0xbcc5e5c7bc824dc6U, 0x3c9c9939bc17dec1U,
  0xbb47c31abc47bf46U, 0xbb129ed0be089c23U, 0xbc0b7014be0ebaa5U, 0x3c81d18b3a972f61U,
  0x3b9f3b553b67e99cU, 0x3d8be7c93c9e2387U, 0xbb8de9033ba12c0dU, 0xbdec248f3cbfd5e9U,
  0x3c27b9983da1603bU, 0x3bb589a8bc43c0a2U, 0x3cc4b0f2bd7719b6U, 0x3c00dfd7bdd26d03U,
  0x3b8bded13baccc18U, 0xbc81d120bbed6894U, 0xba8ca35abd43f992U, 0x3c95e218bbe913b5U,
  0xbbbc51c53c4e1169U, 0x3b1dda6ebdfb6f51U, 0x3adf6205be212004U, 0x3c11d927bbbf1b65U,
  0xbaa4f6193bcafe1cU, 0x3cb7a8ec3baa13ddU, 0xbbcf7add3c9570d3U, 0xbdc67f253ce2083aU,
  0x3b8bb1543d2f7725U, 0xbb2d0cbfbcc140adU, 0x3cf76032bda6aca6U, 0x3bde554ebde4c51fU,
  0xbba6849a3cd3d5f4U, 0xbc7ba3f1bb4aac4dU, 0x3c40e93e3c5eb801U, 0x3d54ba4ebbb46948U,
  0xbc2cb8f53be9716cU, 0x3b0fc32fbe10e11eU, 0x3d51199ebe07aa95U, 0x3c3ae54c3d095b3cU,
  0x3bd3c1623cf9b34cU, 0x3cc013bf3c341fdaU, 0xbc73abed3d146f1eU, 0xbdcd7f4c3bd5afe1U,
  0xbb4116ec3d940272U, 0xbcd9733ebaf165d2U, 0xbcabc0efbd242c2dU, 0xbb90b885bde21c9cU,
  0xbc11cd613b525dc5U, 0xbb667af0bb307762U, 0xbc8ab8913c70ffe9U, 0x3c7653ddbc2584dbU,
  0x3cb763d6bc42916eU, 0xbb617169bbc26b46U, 0xbc227ed2bc2b8bacU, 0xbbac126cbc38564cU,
  0xbbcbaa21bbc6943fU, 0x3bc3c9843bcfc8a0U, 0xba4d5f413bc9ac1cU, 0x3bb16bb73c8f14e2U,
  0xbc0f1cddbb3cf49fU, 0x3b954d5e39cd8ef8U, 0xbbffa7dbbbdea931U, 0x3b91c1f3b7f111cfU,
  0xbbc97f63bb2fa05bU, 0x3c01febbbb1556bdU, 0xbb34d90f3bf89a94U, 0xbba3a24cbc1742b5U,
  0x3c8159843c3ea6d1U, 0xbbbe8704bbacaa5bU, 0x3ad149b0bc028955U, 0x3c4ea28abc9683cbU,
  0xbc2f9769bb20e0f2U, 0x3aed78dc3d0319f0U, 0xbba4e09cbbfb29a4U, 0x3c14118e3d1da339U,
  0x3c40ad903bcb5c67U, 0x3a9d8534bc7103bcU, 0xbb7cc177bb122502U, 0x3c3a96523afb1435U,
  0xbc308673bc84a790U, 0xba9a77f13bee5be2U, 0x3971b44cbbbb5a70U, 0x3d13f581bc339a42U,
  0x3c71a1b5bc16b0efU, 0x3af61fcf3ba298e7U, 0xbc503e63ba51ecc7U, 0x3bf548a6bc3e6037U,
  0xbb9bcc183c229d98U, 0xbb44db0c3cdd1896U, 0xbc885ddfbbb10f3dU, 0x3d25fe563d8dce65U,
  0x3976bacebbeaed25U, 0x3af01d6bbb75716cU, 0x3c41701b3b8ab636U, 0x3adaa4083c365381U,
  0xbd6df0a0bc6aa544U, 0xbdc84518bc3b1501U, 0xbd8425a7bc0d9f44U, 0x3d2ed95abc5c8a24U,
  0x3cbb9644bd4034fcU, 0x3c8cb87b3c961a17U, 0x3d8762f63d0f265eU, 0xbcc18aa9bd0e44e8U,
  0xbcaf959e3c81f437U, 0x3ba853033c010f0eU, 0xbd55fdaa3cc16b93U, 0x3c0ecb633cdbcd31U,
  0xbd0b8ff4bd1b0b52U, 0xbd05cb7ebd36a1c3U, 0xbcb40672bc92ca69U, 0x3c6215c03c89c799U,
  0xbb83cf9cbd9300d4U, 0xbdb65810bb5982a2U, 0xbd9fc4323c02a85eU, 0xbc12fc03bbe8b9c4U,
  0x3ca9a611bd34d341U, 0x3b545f703cbc7fc9U, 0xbc2fa40a3c8144fcU, 0x3bdffcddbd4c8ff4U,
  0xbd48cfc33d231ba0U, 0x3bcc92443c0ad298U, 0xbd3fc437bc19697fU, 0x3cb07e3d3d6e5db1U,
  0x3c0afd8dbd0802b0U, 0xbd7807a4bccedbafU, 0xbcf809323cbb3fdeU, 0xbd186710bcc98bb9U,
  0xbd054530bd265202U, 0xbdb7fa8dbb8fef33U, 0xbd1b6772ba82a969U, 0x3c96fca0bce16737U,
  0xbbc40665bd5892c5U, 0x3b34d9e63bc3ac6bU, 0x3d5c2c12baf3ffdbU, 0xbcec3ce9bd0085a7U,
  0xbb8e7c5e3d130cfbU, 0xbca48083bb8e7d4fU, 0xbd38c5e23bb8b299U, 0xbc58c2683c1e0ec7U,
  0x3ccd8a4abd11681bU, 0xbd027fa0bcf872cdU, 0xbd2b2a343baae2e0U, 0x3a8f6ec93cc676fbU,
  0x3e085fc9bca64cd1U, 0x3d9e6a2bbcf7c2e9U, 0x3da178143d548563U, 0x3c7aa8b8bcaaf037U,
  0x3d6b4d17bbf7a59eU, 0xbcd8bdea3bd4fc93U, 0x3d2a70e03c95dd9dU, 0x3ca5f4f63d39d026U,
  0x3d92a238bc8283eaU, 0xbd7a630f3d4c9c04U, 0x3d66e4e13cbe8390U, 0x3cba8ac73c5e24bdU,
  0x3dbad2a63d84badbU, 0x3da09c583d1f59cfU, 0x3d53e1a23ca70b98U, 0x3c5717463d05f0a9U,
  0xbdfb83afbe5968ebU, 0xbe34cc34bd600c0fU, 0xbdf2845ebdfb70b0U, 0xbd8601e13d14dd4cU,
  0xbe28c96ebe2c8ea8U, 0xbd9ef925bd8033acU, 0x3ce44857bd800144U, 0xbd8852bfbde12391U,
  0xbdf585033ce986f7U, 0xbe72fdd0bd8b23ebU, 0xbe06ea4b3d88c93dU, 0xbde31afebdd31785U,
  0xbcd9e7c1bde060daU, 0xbe12a8293e3982a6U, 0xbdd80815bd8dfbb7U, 0xbd937f9fbe066207U,
  0x3d115454be0a86fcU, 0xbdd6e28dbd1ed859U, 0xbd931df5bd977a95U, 0x3c58772e3d4f26aaU,
  0x3cda9a22bdd393d0U, 0x3bbf95a7bc7f1744U, 0x3deaf474bc8cee82U, 0xbcb499eabd8e9a98U,
  0xbd838b1c3da79c45U, 0xbe95a084bd1f458dU, 0xbd7e31353e177825U, 0xbb884bd4bb8e1238U,
  0x3ce40754bd40b92dU, 0xbd91c2c93e4e4b03U, 0xbd9dd8893d298cf3U, 0xbbbcfa9c3d875d9dU,
  0x3c9f19403d17f23cU, 0xbcada0d8bc522693U, 0x3b961feebdbc9808U, 0xbceca0c23a189acbU,
  0xbbd452ccbc4155b7U, 0xbc0b7ed73cb7152dU, 0x3c80d0223ba8ea61U, 0xbc7e35ccbc921f44U,
  0xbcc75034bc0da51fU, 0xbd5d4e45bc779af9U, 0xbc038d3abc643816U, 0xbc959df4bc91ddf9U,
  0xbcda2623bdb9d836U, 0xbcc0602dbce6661eU, 0x3c883ae1bd248433U, 0xbc68142abc2b4402U,
  0x3cbb416f3c8bfe5aU, 0x3b79041dba00d5c3U, 0x3bfe87e4bdaae7b2U, 0xbd08efb33bcc39f0U,
  0x3ca1f512bca04e5cU, 0x3a50641c3b3d6e06U, 0x3b34ca5bbcabb712U, 0xbbd1b2cebcd63bebU,
  0xbc865a913a4aed3eU, 0xbd8d7ee7bc88ea18U, 0x3c44e990bc40a105U, 0xba2c00e7bcb8aef0U,
  0xbb6ab868bdace8b1U, 0xbcdf83aebcbf0658U, 0x3b39f1c6bce8503cU, 0xbc89d1753c4828feU,
  0x3c1c0940bb42ac7aU, 0x3b17a2f9bc0ce67fU, 0xbc804229bd27d805U, 0x3ca18553bbcb9e7fU,
  0x3c1def5b3b11ec05U, 0x3bf246a13cb89d68U, 0x3d111af93c340facU, 0xbc5f0271bc2dd843U,
  0x3c61be2a3bc22e42U, 0xbd1899c3bc1f0bdfU, 0xbbf335103cc4c521U, 0x3c1bec4ebc6dea07U,
  0x3b251e2dbdaa3498U, 0x3b608631bcd094d2U, 0xbc5b6129bcfe5a40U, 0x3b2f0c6a3d6523b0U,
  0x3cd94bc43c28b97bU, 0x3d12aeea3c872f44U, 0xbbe6f53b3c647d78U, 0x3d58c764bd4672d3U,
  0x3cc24a463ceaa72fU, 0xbc4ae492bd82c596U, 0x3c176d793d1a1610U, 0xbcd9bea9bca605c0U,
  0xbd31bba2bc0146daU, 0xbdc2808cbd7006cfU, 0xbb9c4ad5bcf3a817U, 0x3d1fccdb3ac08f9aU,
  0xbc99151ebcf58436U, 0x3cea3259bd842f08U, 0xbcde868d3d28712cU, 0x3cb44a0c3de16d02U,
  0xbbc17bde3ba1e0e4U, 0xbafc678bbc423ed1U, 0xbc9fdc843c8af865U, 0x3bd3b915bc3a919dU,
  0xbcbd2681bc3763e8U, 0xbc4e2472bcd41b00U, 0xbd1c5d91bd046078U, 0xbd717d09bd00f440U,
  0xbcf4e167bce5969bU, 0xbdc3ee1dba46ed62U, 0x3aa0f30dbd2fc375U, 0x3d704e86bc53fae0U,
  0xbd28827fbd1fc920U, 0xbba320d3bd955c58U, 0x3c0b9ed93c6d2b88U, 0xbc17be14bcddc074U,
  0x3bfca5c13d1268a4U, 0x3b316c2bbb82dac1U, 0xbb70bf813d302ef2U, 0x3b8cc6e4bca617fdU,
  0x3c122cd83bfb7614U, 0xbb7d135c3c55ec5bU, 0xbd03866b3bb7907aU, 0xbcd92c2dbc9f3c59U,
  0xbc83fd09bc90e8b3U, 0xbda2a5fcbb9fa5c0U, 0xbcf236db3bed7a87U, 0x3d81cd473d3a41f7U,
  0xbd06bf3dbd37c8aeU, 0x3c3d3031bce75cd8U, 0xbbc84e5b3d8079f8U, 0x3c4f052e3c19162fU,
  0xbc508975bddc0dc9U, 0xbe0a1155bd80be9fU, 0xbe06be4a3d1cb0d9U, 0xbda2b04dbd4e85cbU,
  0xbc901535be149c0dU, 0xbe2019d1bc7be898U, 0x3bb635993c95d729U, 0xbe28b580be2eec60U,
  0xbdf2be25bd963aeeU, 0x3d20c6b8bd3dae7eU, 0xbdc352bbbe0b5534U, 0x3cb9799dbcf9c82aU,
  0xbe49692d3c2e36c8U, 0xbe00ba71bd11598fU, 0xbd87d3b0ba127149U, 0xbe395ff03c197df6U,
  0x3cf0c67d3d25c966U, 0x3d82edcdbcaba62bU, 0x3cf82581bc8cc250U, 0xbbcfecb6bce56831U,
  0x3c9d058cbc2c26d3U, 0x3c7e3bb33c8e1853U, 0xbb569574bcff9072U, 0xbcba8eae3bb0e0f7U,
  0x3d09e922bc02dbebU, 0xbc0e30d3bd0956c8U, 0x3bf4c878bd7bf64bU, 0x3caaae77badb5477U,
  0xbc6b51dbbabdf97eU, 0xbd33f3bcbd61b8a1U, 0x3d10b2f2bd554599U, 0xbc4068cbbc93eaacU,
  0x3d7626603d6f85c6U, 0x3da5bb5a3c213f85U, 0x3dd151483a35301bU, 0x3b8ae47dbc84ef3fU,
  0x3c2906af3d8d4748U, 0x3d728ee13d1073bdU, 0xbc9931333cbe18c6U, 0x3d30b16e3d83f2bdU,
  0x3d783fd63ba73143U, 0xbc880a733c81c789U, 0x3d435f6d3b9674edU, 0x3d005b3a3ce8f90cU,
  0x3d85925cbc214182U, 0x3d048068bd47f848U, 0x3d6acc8f3b17dbacU, 0x3d36421b3cea1d88U,
  0x3d4f02c63cbcbad6U, 0x3b8673de3b8f544cU, 0xbb48531c3cff6293U, 0x3d29acf6bcd2b9eeU,
  0x3d2aaa92bb08d6e7U, 0xbc04e8fa3bb1bef3U, 0x3c877c61bc17120dU, 0xbb447dd0bd1d6eb9U,
  0xbc6dd0ce3c95d553U, 0x3d0d8d4d3d9fc869U, 0x3c138d50bc2e6aebU, 0x3d97cc823dbf8cfbU,
  0xbca469f9bb904d43U, 0x3ca2e332bc0421c8U, 0x3d43126e3d046b6eU, 0xbc8bbee23b8904e1U,
  0x3d23a9023d2e7641U, 0x3c94d4b8bc27cfe1U, 0xbc8014c5bbb3e19cU, 0x3d8170e3bc92a1c9U,
  0x3d4f8b7bbc8f21ccU, 0xbcc5cf16bcde7e73U, 0xbc558d33bb034953U, 0xbd35996abd09f4b5U,
  0xbd0426e1bca46764U, 0x3d10e9023ba58fd9U, 0x3c160c083cc92141U, 0x3c88833d3c3dc006U,
  0xbd5f0182bc6aa7eeU, 0xbcb29312bc55cdabU, 0xbcd981093b045e4bU, 0xbc98af753acbe721U,
  0x3cdd6c053bfb1493U, 0xbb8399e2bc6c5b12U, 0xbd10c09abc953b05U, 0xbce0e1d9bcef3e45U,
  0xbc379611bc610e8eU, 0xbcc7d98fbae7f358U, 0xba943e233b392498U, 0xbccf7247bd1536ebU,
  0xbd61381ebd007fc6U, 0xb9c0b0d93bf5189cU, 0xbcecc4fbbd9d478dU, 0x3b914a2d3c136802U,
  0xbd598d05bc7653c2U, 0xbd13ac44bd404618U, 0x3c99c167ba205152U, 0xbd039f1abc6d3641U,
  0x3b68b3ec3bab059dU, 0x3c91a5fd3940fceeU, 0x3c905ce5bc1770f3U, 0xbab2f9033b2e51deU,
  0x3c8d21553c624184U, 0x3c066d5d3cb57892U, 0xbc55d9233bcc5f85U, 0x3a9b6e9a3c659e55U,
  0x3c4c7d733c916f71U, 0x3cd97e463c284f43U, 0x3c9b9e70bb3b83bcU, 0x3c33eafbbbc91803U,
  0x3c96a8e13bc220afU, 0x3b5f285f393111e7U, 0x3b712d10bc94f3c0U, 0x3c0e113c3c54d5ecU,
  0xbc4bbaf639bde083U, 0x3c2bf379bb2e74ffU, 0x3cd5ba70bc2c6502U, 0xbce419dc3c203bd4U,
  0xbc9d9acc3cad89f4U, 0x3c0507383c96dc38U, 0xbc4c36a33c133f5aU, 0x3c6f2ccf3d0e9d8aU,
  0x3c2e2eedbc693ed2U, 0x3c54ec3dbc2594c9U, 0x3b0e27e6bc5ebb9cU, 0x3a8f0937bcaf3396U,
  0x3ced819cbbe2f35eU, 0x3c8edd77bc96a9b8U, 0x3c942adbbc895c4dU, 0x3c706052bb19a3d3U,
  0xbc5249f03bde2d5eU, 0x3cab8c773b5b2692U, 0x3d431c90bc61f9b7U, 0xbc8042aebb75ee74U,
  0xbc54bf153cf25018U, 0x3cde347bbb6b27e5U, 0x3c8ed054bb5ed511U, 0x3ca0f8313ce03ff8U,
  0x3cbff8593ac3bf91U, 0x3c852f67bce4d3f2U, 0x3c948f96bc39311bU, 0xbc011eadbc9932f8U,
  0x3d128aed3a8e1ed7U, 0x3cc299cdbc1a0a2dU, 0x3c194135bcd9b275U, 0x3cfa336abb284df0U,
  0xbcce1c223c8934ddU, 0xbbe24c6bbc2276a0U, 0xbd223e1abc427efeU, 0xbd2f4b273c488fb5U,
  0xbd494aacbd0fc5a1U, 0xbcb005e8bd2b8dc0U, 0xbc895b8fbd4b52d9U, 0xbc6afb183b406091U,
  0x3d2befb53bc824c3U, 0x3cdd0029bd802ed9U, 0x3a370c7dbd2fca5aU, 0xbd2a9d88bd3f6caaU,
  0xbca7068abd3eda8aU, 0xbb0fa12b3d70244fU, 0x3cc1303dbc3638f2U, 0xbd2789ffbd16d4fbU,
  0x3ceaf878bbe9aa1bU, 0x3d2a206fbc0bf2b5U, 0x3b7d9c603c5addc7U, 0xbd2e69ba3ca03644U,
  0xbd810ecfbd06e261U, 0xbcf51c5dbc880b7fU, 0xbcfbadd3bc74eff2U, 0xbc410f7dbd54dd73U,
  0x3d23b2dd3c126ad1U, 0x3c20d8ebbda2b5dfU, 0x3d50c4afbd022cc3U, 0xbcd6f645bcd6092aU,
  0xbcdb11ccbce24d15U, 0x3d23f80f3d8091abU, 0xbcc44ad5bb9a89d8U, 0xbc4a994fbce30496U,
  0x3c9ce0143d143083U, 0xbbaa3f49bbb35918U, 0x3ce87bb1bd1367f5U, 0xbda5e3ef3c32d289U,
  0xbd942f64bc34cd4fU, 0xbd1425c3bda02e12U, 0xbd1cb5c2bd2bfebeU, 0xbd235945bcb6209aU,
  0x3c64826dbd5cd176U, 0x3d213adabe04eafaU, 0xbc4ee09ebd183e0dU, 0xbdc4cf22bd4f833bU,
  0xbd0a6969bd1e8bfaU, 0x3c4c009b3d332e44U, 0x3d2c9c7bbd173704U, 0xbd6efad9bd239e63U,
  0xb82281913c2efa39U, 0x3c95a11a3ba3430bU, 0x3c605a163b17ee23U, 0x3c16f0f13cab16fcU,
  0x3c9184f13d1c8e19U, 0x3cae37833ce76233U, 0xbd2312f2bbaaf375U, 0xbc34e34e3c4965e5U,
  0xbb7bd63bbc73dd67U, 0xbe0289de3cfd5658U, 0x3d64324bbcac5571U, 0x3d89329e3cfd91fbU,
  0x3ba6366abdefd93aU, 0x3d512ba5bcdbe0e5U, 0x3d12b7463d197a54U, 0x3d2d6fdf3c954d65U,
  0x3ba6506d3d7f8885U, 0x3be8692e3c9cb7caU, 0x3c954eb6bd464934U, 0xbd391babbcbd7f63U,
  0xbd40bf973d90f765U, 0x3d030df93cc0830cU, 0xbd1739d83bc4d43bU, 0x3cf766a8bc6e416eU,
  0xbb1c16a3bcede1f9U, 0xbde51e8cbd4a4a94U, 0xbc385670bd5eec11U, 0xbd0bba01bd0ff366U,
  0xbd03248ebe16fba2U, 0x3d51f965bd457e4dU, 0x3d71283139b132cbU, 0xbc63d2043d1cf74fU,
  0xbbfafdbb3d5c8ef9U, 0x3d0478143b803077U, 0x3d2a2b163c61bfd2U, 0xbd5604d73a752fd5U,
  0xbd08678b3cd3c85dU, 0xbcf5477c3bbd457dU, 0xbcb8d1023d827051U, 0xbc1ae11bbcdee22cU,
  0xbd6f1a1cbd6a154dU, 0xbddd8da8bd58627dU, 0x3d37b464bd9db648U, 0xbcc15a14bdc2aa3bU,
  0xbd15e15abdef5e37U, 0x3c9a4c4dbd8a48f9U, 0x3cae92163d929ff3U, 0xbccf15c63ca6a7d3U,
  0x3bf3e0d33c64ac65U, 0x3cbda8e93bd6c99eU, 0x3b3ee0833ce8a24cU, 0xbc9e23b33b16bc90U,
  0xbcc31fc23b2fe1fbU, 0x3c208615bd449a9eU, 0xbd09970cbd2dc6a0U, 0x3c045fae3c0ae1ddU,
  0x3cd013d63a7047dbU, 0xba13a88cbd0c06b0U, 0xbba7ec6fbc05a5f1U, 0xbd269a7ebcb70854U,
  0x3bce47243c8ef8d0U, 0x3c0ad801bc926812U, 0x3b9451493d2f4db2U, 0xbbc7d79fbd1603a2U,
  0x3bd25f9c3c6ca06eU, 0x3c889ec13c119c2fU, 0x3d1520e03c087cd0U, 0xbc4f1c28bb6e2465U,
  0xbc952cb33cac6a36U, 0x3bfac565bd79b7afU, 0xbc82d9afbbbebef4U, 0x3c61c39b3cd83c65U,
  0x3ae741e23b288f1bU, 0x3b7516f1bc987c2cU, 0xbc26e64a3c462380U, 0xbc9bae94bccb325eU,
  0x3beaf5663c8544a3U, 0x3bc55f77bc261661U, 0x3af4ded03cf91ad9U, 0x3c5def9cbd4a8a5aU,
  0x3c8a42d33cc382a4U, 0x3c87244e3c16a749U, 0x3cd692553d39be9aU, 0xba675980bba61e04U,
  0xbb365ba33ccaeba3U, 0x3c88fe0ebd1d022cU, 0xbac78113bcc09de9U, 0x3cf4b92f3cc11703U,
  0x3ba428c93ae8b3c0U, 0x3b669722bc666050U, 0x3b9a41233c9492c4U, 0xbca48fbabbe598edU,
  0x3c0d6ab73c8d9c2bU, 0x3c82b8f9bc967d6cU, 0x3bb30eca3cd19fbcU, 0x3c84aedabce514f6U,
  0x3cfcee453cc4e170U, 0xbc9e98023c140187U, 0x3c97a9fa3acc7c75U, 0x3d06af8dbba308d3U,
  0xbba2333ebc15b283U, 0xbc0b9dc1bc48c1a2U, 0x3b7bcd4b3cf6d10bU, 0xbcd2b807bc44a834U,
  0xbd22a30d3d269911U, 0x3bfb59cfbc8e6939U, 0xbc8f67ad3c9eaab5U, 0x3c85a28839442dc3U,
  0x3c53876dbd27a35dU, 0xbd2f6845bd149c04U, 0x3bdd33f43b366391U, 0xbc9591d13c5447afU,
  0x3d091ec23c12c652U, 0xbc50f2123c494761U, 0xbbf7bc333ac37148U, 0x3a30a626bbfd7903U,
  0xbc7c85a5bca3ead2U, 0xbd5443453c46296bU, 0xbd734f9f3c5a6f9eU, 0x3d037b1fbb81b5aeU,
  0xbdb7983e3cef7bb5U, 0xbc2c484a3b4dcf83U, 0xbce5452c3c043c0aU, 0x3bb245513d824f09U,
  0x3cf5da6bbd1b482dU, 0xbd05c689bd396820U, 0x3c70b0363cd5a0f3U, 0xbd27a75ebc62bbbfU,
  0x3d0623583c40ae44U, 0xbcad92bbbad5b6efU, 0x3cfa6d6dbca6d4daU, 0x3d802833bca48ac8U,
  0xbc82e3a339b4a051U, 0xbc83f4533b523936U, 0xbd7115ff3bb53476U, 0xbd016a1e3c8538abU,
  0xbd0b8a143d15e291U, 0x3cb11ebbbd300a5bU, 0xbd0b9cf13d967241U, 0x3c6a4f7fbc807e1cU,
  0x3c94bf64bd2b39a4U, 0xbd1e3c37bcb2b3f7U, 0x3b94a1ac3c440afbU, 0xbd6a47b3bbc90f3bU,
  0x3c4433f53c48685fU, 0x3cb904ba3c081043U, 0x3bec992fbc184001U, 0x3b47bea4bc844080U,
  0xbcb5cd183c33dee5U, 0x3a7fefa73d0d0cafU, 0xbb1bcc433d15ad1cU, 0xba4b407dbc17caacU,
  0xbb9f0b7cbbceab9bU, 0xbc3c7370bcb64644U, 0xbc67d28c3a94a8f4U, 0x3c233d77ba97de42U,
  0x3c457fe2bc97e759U, 0xb94c1f41bcb35c59U, 0xbc38722c3d116c70U, 0x3c44294dba48d1a4U,
  0x3bd2c67fb94ce5ffU, 0xb9e7643cbabc950fU, 0x3bbf584f3ca85325U, 0xbb7cebe2bccf2cbdU,
  0x3c55a0293bc6737eU, 0x3bf77a343c411201U, 0xbc6effc03dc565fbU, 0xbb91893ebc82acacU,
  0xbce5b3223b6d1982U, 0xba34f1333be30548U, 0xbbf76ad2bc0a8725U, 0xbad1f7363c6270a8U,
  0xbbfe4377bd04133dU, 0xbc3564fdbcc1b4e6U, 0x3c250a32bb245916U, 0x3c480c88bc96202eU,
  0xbc37d5683c9f45a8U, 0x3cd14cda3c00f348U, 0x3bcbb5993cb9955cU, 0x3a7aa81dbc899d15U,
  0x3b4fa84c3bec6abfU, 0x3bc34c163c634685U, 0xbcbe68113d3939f5U, 0xbb949e90bc9e9520U,
  0xbc261221bc92aa8fU, 0xbca29fbfbc15f13eU, 0xbc0e8554bc65f48eU, 0x3bf35cbdbb733fe6U,
  0x3c02361abd2dda24U, 0x3bbaebbabc670956U, 0xbbbb5c003c80e84fU, 0xbba1d58d3c2bac2fU,
  0x3ea472873e86a54bU, 0x3d850a5c3dc293a0U, 0x3e5d8f613e4b9d9aU, 0x3edd25f63ef69b50U,
  0x3e8b4ffe3f197650U, 0x3ed4c0ec3deb21bcU, 0x3e5fa5853e158ce8U, 0xbf974cd13edd6b9eU,
  0x3db3e5333e72f38cU, 0x3d2bd6823e5b8bcbU, 0x3e7b86803ef8538eU, 0x3eb155cc3f198d02U,
  0x3e7e4a9f3e508121U, 0x3e87acea3d988a82U, 0x3f04376e3e45e04eU, 0x3dfccffa3e20f3d9U,
  0xbe2aa79bbcd8bac3U, 0xbec035a2be4ff97eU, 0xbcaa6929bd8585caU, 0x3db53cfbbd7974eeU,
  0x3e06ff813e908684U, 0x3dd31b2fbcce4b5fU, 0xbdaa170fbd846a1eU, 0xbdd150f63bd2880dU,
  0xbe0462d73e16555cU, 0xbe828fe3bc1f7a9fU, 0x3d61b255be0a373cU, 0xbdf0abd53d2b1e7cU,
  0xbd355a45bdeda6caU, 0x3e50014a3be75a38U, 0x3d233aef3c9aa887U, 0xbe255882bdbab36fU,
  0xbe35b5263d979f8cU, 0xbe5ef8b0bdb2bbdcU, 0x3e076f18be0229e1U, 0x3e0b1aadbd05207aU,
  0x3e1978da3de491b7U, 0x3e0cc13e3d7ddd8eU, 0x3d3642a53dc40faaU, 0xbcb4092c3df49b65U,
  0x3e227c513d9b9174U, 0xbd6169a03c9bc762U, 0xbdba8082bd665da3U, 0xbeb30e5c3df1ca56U,
  0xbe03e0af3cc4a69aU, 0x3e7d20373c4da74cU, 0x3e05433cbe4da450U, 0xbd9c16c33e369224U,
  0xbe4f6c773d6a6e84U, 0xbb388c3cbddb9d4aU, 0xbc0d032abdb407fdU, 0xbeaa0b01bd93456aU,
  0xbe57ed2dbe2c656aU, 0xbe714daa3c4d7399U, 0x3e1bf1253e809e05U, 0xbe1f5372be75e4d1U,
  0x3e478908bd9d706aU, 0x3e09f6c7be05fdc4U, 0x3de332b03d271febU, 0xbc9db41a3d06fd9dU,
  0x3e8971f23d280792U, 0xbe0ff980bdab63aaU, 0xbe26834ebddd0feaU, 0x3d09923e3e26cd2dU,
  0xbee523623dd2baebU, 0xbdc8e0663e8d7df0U, 0xbdbf7fd1bd6e0f51U, 0xbc73fac43e873425U,
  0x3e01acae3e09299cU, 0x3dd801e6be337fecU, 0x3b99de3f3cf2e101U, 0xbe62f23abeba4b5aU,
  0x3daa4927bddeda44U, 0x3e3f9744bc873e5aU, 0xbe0af84cbeec6288U, 0xbcd525a5be8bd740U,
  0x3e4ac254bdc00f16U, 0xbd27a9913f65bbb7U, 0x3e69ee003e4b496bU, 0x3eb44c623e073231U,
  0xbe6278763d9f2965U, 0xbdb4e47fbe9801f4U, 0xbe63cd61be07263cU, 0x3e30a3edba3ce15eU,
  0xbbaaff753dd22ae2U, 0xbe502c74be594948U, 0xbd9a9807be1825ceU, 0xbca26d063e372b5fU,
  0xbe6d97113db70757U, 0xbea41e733e2e2682U, 0xbf0ae7c73e0132d8U, 0x3d9aa47d3e04872fU,
  0xbd17b57dbe69119eU, 0xbe076580be343f57U, 0xbd22456c3d6f533dU, 0xbe0a68edbd8d3864U,
  0x3dd91f133e5462e0U, 0x3d7f2ad1becb2a69U, 0xbeb4b9ef3e4ea99cU, 0x3ea332f8be842f50U,
  0xbddc0dc73e7a5273U, 0xbec16aaabe778e22U, 0xbd2e5f34be8564c8U, 0xbd85b2183e848053U,
  0xbe8fcc6e3eadb521U, 0xbecadc0d3dc22b85U, 0xbee040173f1035f5U, 0xbd4206373df09d3eU,
  0xbe34b509bed95e92U, 0xbe7a5e63bf2f12a0U, 0xbec9840ebeffd4e2U, 0xbecfc78dbe64f298U,
  0xbebe7e8f3d8a2c25U, 0xbe2ad85cbebc40c2U, 0xbab5783cbe689ac3U, 0xbd54d9093edc74afU,
  0x3e9e49da3e0f893cU, 0x3ea037603dc34f72U, 0xbecf4711bc8863cdU, 0x3d929b31bdfa71b7U,
  0xbc513a9ebc3bb108U, 0xbe826e1a3ecd1977U, 0xbea169cabdd1d6b9U, 0xbe89c07b3e6bd20dU,
  0xbe4aecf0be8dc810U, 0x3ea929373da6bb83U, 0x3e370591be8ada3dU, 0xbf2f13ccbc29b0d6U,
  0xbeb3f01a3efd4580U, 0x3dedde46beebd267U, 0x3e003bd7be908069U, 0xbe7e27943f0a4064U,
  0x3d96b667be0b64eeU, 0xbf03186f3e8e6ec3U, 0x3e12a2c83dd38da0U, 0x3e01b0d3be2c4a24U,
  0xbd83d90fbe0f5730U, 0x3dc848723e6b2f35U, 0xbe1b9767bd8bc6fdU, 0xbed43f343ce37284U,
  0x3d7fc02cbdc09a0aU, 0x3cf3e879bd98624eU, 0xbe4eca98beb3ed72U, 0xbf1c42453d452152U,
  0x3e27fde9be02f501U, 0xbda2e5a53e28dd91U, 0xbe1667813e8198a6U, 0xbe674098bb7b28caU,
  0xbe091cb4bde4f8caU, 0xbeac7c803d8abd6fU, 0x3dd8b8dfbe99c0c6U, 0x3e3313cf3e942a6fU,
  0xbdb1e31dbd2cf56dU, 0xbe0ccb6bbe86b580U, 0x3e8e9bea3e7b2cf7U, 0x3e442fe63dfda437U,
  0xbde836b6bd513ea5U, 0xbdc7cfdcbe3b82a9U, 0xbf1b70973e564720U, 0x3e89cd30bdf75197U,
  0xbedbd458be077cefU, 0xb9ac1af2be122d67U, 0xbda324943d2c3718U, 0x3e3917473e5de7d6U,
  0x3e2ee3b13e0462a4U, 0x3e800e453e4b3557U, 0x3c2564e0bec08300U, 0xbd836a4ebe974d57U,
  0xbe16b2cbbb5e358bU, 0xbe0f224abb0d1f55U, 0xbe98ba0ebe56ec88U, 0xbe0d2c00be14ad78U,
  0x3e6e967cbe0e46a5U, 0x3e74847abd66c3d9U, 0x3d867dafbce497b6U, 0xbe5df486bd0c8a62U,
  0xbe95d6b33d15ec65U, 0xbed4569bbe4090e5U, 0xbe912f58bd25ac38U, 0x3db1d0353e0ca221U,
  0x3e66513f3e17ca7eU, 0xbd6b3ae43c1333b4U, 0xbc382f50bda60c8bU, 0xbc2c89d4beb54c37U,
  0xbe16b393bd54f859U, 0xbdc8f1db3d8d8ee2U, 0xbe784e53be988e7aU, 0xbe1224133da98d29U,
  0xbd8215d03da77e0aU, 0x3de357e5bdcf0a93U, 0xbe2d3b39bdd48a62U, 0xbd9d84d4bea0ca29U,
  0xbe4349983da9312bU, 0xbf0be26fbd84e923U, 0xbec7d5653dccf5b0U, 0x3f349c7f3d179bd3U,
  0x3eff45533f0ea86dU, 0x3d81c3f9bde4f7d1U, 0xbe9b32b0bea4cabfU, 0x3d163080be4d70d9U,
  0xbef38656bd10cee0U, 0xbe802cfabe0427bdU, 0xbeef9a49be35a157U, 0xbcb568c23dc46734U,
  0xbd1c8d0bbe702347U, 0x3ec4d17bbe4d4036U, 0xbdcafd753a44ed36U, 0xbd8aa5b4be81db2eU,
  0x3ddde97d3e8cec95U, 0xbebc85febd524b42U, 0xbd95c49dbdc5cab3U, 0x3eb27f123e738359U,
  0xbd1667e33dc18313U, 0xbd611088bd8c7747U, 0xbe1a267ebe5e93b7U, 0x3cbccf753df762b1U,
  0xbd915d8dbdc32c2fU, 0xbd0685cc3cd75163U, 0xbe086d21bca34345U, 0x3d4b53643e00e4a6U,
  0x3e4d6df13e11c573U, 0x3de725ae3e27dfaeU, 0xbe01da15bbdbf499U, 0xbca854f13ed04d85U,
  0x3ddc4bcabb58d471U, 0xbed2272abe5d2037U, 0xbdefb5b8bd18606aU, 0x3eaafb223cf207afU,
  0xbe0039d63ea883c3U, 0xbe13d013be536931U, 0xbe5578e2bcf704baU, 0x3d8f2b733e446fd0U,
  0xbe737bfdbdba114aU, 0xbe45cc27be99721aU, 0x3beaaf633d996950U, 0xbe03ffa03c2b4590U,
  0x3d720c91bd008312U, 0xbc39439ebb71a259U, 0xbe52aec1bdd0c803U, 0xbe74231cbd1f8ce8U,
  0x3e31e635be28ff31U, 0xbdea869e3e2af04dU, 0xbeafd1fe3db712b9U, 0x3ee36ddfbe212ebfU,
  0xbda87f053ccfba40U, 0x3cf4d886be5a62a7U, 0xbee596f2bec5e43cU, 0x3d636a983eb65600U,
  0xbe2e4769be1d8922U, 0xbe1cf799bf094272U, 0xbe1c81353dcbbc2cU, 0xbe115e4dbd2c6002U,
  0xbe7546783e3b842cU, 0x3c8602dbbe2fab90U, 0xbafe6d6ebe95a9daU, 0x3da2fc65be773deaU,
  0xbe9258943de8e504U, 0xbd278f1abdcd4fcaU, 0xbd621628bd77fe37U, 0x3d26ad2b3e4fdafcU,
  0x3e58336a3e81c8d7U, 0x3e4f0cbb3e7dbca8U, 0xbd531dcb3d82cb8cU, 0x3dfc0331be7349c3U,
  0xbe7df9373e2ec1c8U, 0xbe5d54ac3ca97285U, 0xbcedf409bdac8857U, 0xbc7c74793e5dd330U,
  0xbeac3d31beb99de1U, 0x3d84848e3d0b5c28U, 0x3e981d0a3d35c251U, 0xbe90e0ebbdb5b2afU,
  0xbd1012303f30a1f8U, 0xbeef9cb9beae3132U, 0xbd5146cabd42b9c4U, 0xbe496a7a3e5e197bU,
  0xbdc0c387bd86c5acU, 0xbe2e3be33ed1b13aU, 0x3e24767abcb256bcU, 0x3ad025febddefa67U,
  0xbdaa8bdf3e07c843U, 0xbe99e1f7bef50abfU, 0x3d7576db3d070225U, 0x3e1feb963ee7603eU,
  0xbddcd1abbd79e5f5U, 0xbcdcc3a3be80d31cU, 0xbe1bd2523e31c8dbU, 0xbe986e263e188759U,
  0xbc2042653dcb38a7U, 0xbede867d3d59ce5aU, 0x3d1d1c393dc96e65U, 0xbeab0b5cbd83b31bU,
  0xbe82a1ffbe43c3cfU, 0xbe1d3d9c3e30cb0aU, 0xbc43f7e1bbe7baf3U, 0xbe6a6821be60be98U,
  0xbdc8ecbebe1f9844U, 0xbeb8bfbdbf50f118U, 0x3d85aae43d891bf0U, 0x3eb8eb313e9f59c6U,
  0xbe7f4fa9be045abfU, 0xbeb9399cbe83bb5bU, 0xbe2d1c1a3e867474U, 0x3deb21033d27bf02U,
  0xbf1b6efb3da5e3bbU, 0xbf6fbd4bbeb4551aU, 0xbd97add0beff4cdcU, 0xbe54aaa73940e71dU,
  0x3f033a6fbd69a260U, 0x3dc6ff523e50d47cU, 0x3e8d8687be339e14U, 0x3e348a47be29873dU,
  0xbedc5b633f23f131U, 0xbf31b7b93e5215b7U, 0x3d0e55de3d40b48bU, 0xbdffe40f3e78eb0eU,
  0xbf40bd38be82e586U, 0x3f180f56bd3adc3bU, 0xbe0f56b0bd996c90U, 0xbda0e25bbea07e9aU,
  0xbef5b3993d29c7c6U, 0x3da73b323ce18f1cU, 0x3dd1fbbfbda29deaU, 0x3ea183f93e61472fU,
  0x3e0173c8bdc39913U, 0x3f25ff7b3e0ebc3bU, 0xbc80568fbd584655U, 0x3da1a43ebea654daU,
  0x3dbf4f7bbe94a1e6U, 0x3dc871e43dcac8a3U, 0xbe68a5d1be8e558bU, 0xbe51c8ab3e2aa590U,
  0xbd899518bf4ed8f9U, 0x3e8e9b17bdada8f8U, 0x3e7645043e1f3954U, 0x3d24e6d43d9f7b80U,
  0x3df9238abe69005eU, 0x3e46fa603d968e6fU, 0xbd6db85a3d840d11U, 0xbea0ea44bf051b4aU,
  0xbe950f77bcc499e7U, 0xbeeabf8fbec9f4d6U, 0xbd8254203d881f43U, 0xbebcbe633ea327c1U,
  0x3e4ebe9ebc9bd3bfU, 0x3e65b6f3bdfc30f1U, 0x3e92e8343ea19bd9U, 0x3d9005dfbbbdd345U,
  0x3e849cb1bdd10baeU, 0xbdaa3a0cbe25ccb7U, 0xbe216f23bec692a9U, 0x3d8e56d13d864d00U,
  0xbdf12cc53f080c60U, 0xbd5f9e0ebd8be35eU, 0xbe3a2c833ce949f3U, 0xbd91c9ebbd1bba56U,
  0x3e8064cebd68b766U, 0xbd87ed4f3e6f53a9U, 0xbe443a4c3dcc345dU, 0x3e0c5fdbbbb2da78U,
  0xbe0ddcb03f1f8b4aU, 0xbe27bab2beb06a76U, 0x3e3cd44c3d96b96eU, 0x3e06f6863edb8b95U,
  0xbedda0223d83ef50U, 0xbc1931b2bea457abU, 0xbd74b0323df3c139U, 0xbda7f344bce7b2afU,
  0xbeab09403e97d84cU, 0x3da86db53b30b4dbU, 0xbdfedff1bd0800b3U, 0xbcc8f2513c2aa04dU,
  0x3ea077453d8dfaf4U, 0xbd33623b3e2c5226U, 0x3e54742d3dac8e25U, 0x3e89da3eb8d8d7fdU,
  0x3c4963633f159a32U, 0xbdb05412be1a43e5U, 0x3ead426e3e2deb3aU, 0xbc2af5fb3ee59cc6U,
  0x3b9631c2be3dbe69U, 0x3d490a75be5e452fU, 0x3d95a722bdffc0dfU, 0xbe27f4c4bdfe09b7U,
  0xbd614b5b3e9616d9U, 0xbe1e3e9e3e662096U, 0x3c75080fbd548cc6U, 0xbd92bde1bd393f56U,
  0x3eb65be13d59b4cfU, 0x3ce5a35b3e35714dU, 0x3e5223d5bd38ad44U, 0x3e80ce51bcfcf68cU,
  0xbe591a713f24acf9U, 0xbd91d86dbe968256U, 0x3eb08b2a3d9cea6dU, 0x3e169b583ebb179fU,
  0xbe46d939bddfb23bU, 0x3da5551dbe8a948eU, 0xbe4098e73ece556dU, 0x3e0b4de3be3352aeU,
  0xbbff2d7bbf453580U, 0x3e1a8cd23e4181f3U, 0xbdeee0fa3c7cab74U, 0x3d7c10693dd1b5b2U,
  0x3ccbf5e13c9ccaabU, 0xbe081379be312d28U, 0xbf1b55f6bc143361U, 0x3d02cdda3cb96381U,
  0xbe0b4fa7bf10fd28U, 0x3d078d6d3d19954dU, 0xbddabf303e3723baU, 0xbe577cb0be6899dfU,
  0x3e0e16f33e3425c0U, 0xbe2e12ba3e200fb7U, 0x3e699e56be8ea476U, 0xbea28c963d13b48aU,
  0xbd1db738be6e128aU, 0x3dd58a78beb5bc71U, 0xbe3794d1bd656674U, 0x3d8fdb233f0cc732U,
  0x3ea9177dbd1c47d1U, 0xbed5256cbdf5e798U, 0xbeaf4e9fbd53adf2U, 0xbe721f27bc98fa30U,
  0x3d87faa7bf040ec9U, 0xbde3be633e802d25U, 0xbe8742f13c8e1858U, 0xbf2235283c3cf0c3U,
  0x3e03db893d847ea3U, 0x3e0ec61abd9476f8U, 0xbdb2fbd6bf003e40U, 0xbee1400bbdcc60b2U,
  0xbd5e70ce3f0cbe48U, 0xbe7ad759bea14a4aU, 0x3d99f095be5eec32U, 0x3c37a5d53eee1354U,
  0x3f16ba06bc5c9e50U, 0xbc6cf0c33e3cfb74U, 0x3c0c54f73c5d7442U, 0xbe31d1cf3da7de61U,
  0xbdbef0333e882cbaU, 0xbe956c943e842ca7U, 0x3dfba2cf3c87e81dU, 0xbe401b033f07deffU,
  0xbe578f8ebd6bd5eaU, 0x3dc19b7dbe88fa1dU, 0xbea398683e3e0cb6U, 0xbeb348cdbc9f6f0bU,
  0xbd723be8b93c745fU, 0xbc9261c5bb953a5fU, 0xbe693581bd5e9bd8U, 0xbd7f4e4e3d78c37eU,
  0xbdf74beebdcdc58dU, 0x3b12cdcb3e0a3abbU, 0x3c8047e2be924234U, 0x3d868b553c9e5969U,
  0xbe60df1fbd6359deU, 0x3e126e16bef37dafU, 0xbe30b0a4be0f43d3U, 0xbe2bb12fbdded5d9U,
  0x3e6dd4bfbcde56d3U, 0x3c43fb923e9b6732U, 0xbe894157be863d5dU, 0xbe1d0432be82cd35U,
  0xbbddea2d3b95b6ebU, 0xbd946e5dbd38b613U, 0xbe7c3aae3c714915U, 0xbe0f2a0cbcf5e7feU,
  0xbd7ed096be5b6e66U, 0x3e31787b3d45b617U, 0x3d6c0d98becf5c9dU, 0xbd9f31d33c5e83e8U,
  0xbeaffa433c98dff4U, 0xbd898d9dbed1a313U, 0xbe089c65be26fd33U, 0xbc9b69e93b10cf67U,
  0xbe22b33c3e6136edU, 0x3e1342693d72e301U, 0xbe12844dbd82f2e9U, 0xbe129f6cbe6ab5eeU,
  0xbe0605303d075070U, 0xbe43cbe1be06ea6fU, 0xbed30a9cbd831a37U, 0x3e9600323b2cf133U,
  0x3dd035c13e2d5791U, 0x3dbccdfb3c5256c2U, 0x3bbdfc62bf20b163U, 0x3c223fc0bdb6b54bU,
  0xbf1681a4bd3290e9U, 0xbe1ced8ebe91771dU, 0x3ce74201be5b7bcbU, 0xbdef69e2bbb94502U,
  0xbce60b6ebdd0b558U, 0x3e29e4f4bca85a3fU, 0xbe53cf083cfc8b23U, 0xbdf82cb6bea5ac70U,
  0xbc1fcd2ebccc0283U, 0xbe6de4a4be283c2eU, 0xbe71d7d93e0cc2eaU, 0xbd53bc50bdf0a79bU,
  0xbe4831163dc8cad3U, 0xbe93e891be2a71afU, 0x3db8cd97be969e2eU, 0xbdc87745bd342011U,
  0xbd7a0c4dbd56c3e8U, 0xbe04b69f3d2f65aaU, 0x3ded69a6bcca54f5U, 0x3d7a633a3c48ecfeU,
  0x3c24d641be93822cU, 0xbdf52befbe3a0fe2U, 0xbe413cdd3d15399fU, 0x3c7c422bbca86467U,
  0xbd8dc53eb87c6facU, 0xbd550c2fbdad9bd2U, 0xbe8c2bff3de64de0U, 0xbe0bb2823d37e680U,
  0xbddd5ac7bdbbe785U, 0xbe24f0a6bde398fcU, 0x3dae6455bea739bcU, 0xbcc7c373bded4069U,
  0xbdefde8dbc743fa6U, 0xbe15789fbdee6412U, 0xbdeb08c1bd53e185U, 0xbce2ac66bdcc108eU,
  0x3d607a02bd495b8eU, 0xbe1ba4cfbe6ee6efU, 0xbd5cf1c6bd6bc9c6U, 0xbd3e82fc3c99ef50U,
  0x3e1f8404be1a6161U, 0x3df3fe7fbdae1d75U, 0xbec603d13e642eecU, 0xbdc827303dda2d4aU,
  0xbe2e26ddbdeacd60U, 0xbe7095fbbe4afe52U, 0xba30133abeb8c98bU, 0xbd83a127bda4006bU,
  0xbdba2102bdc5eb09U, 0xbd774785bded6d09U, 0x3ca0e0ddbc2a8e99U, 0xbdd6c571bdc962d4U,
  0x3b620a563e5b61f8U, 0xbe4667d1be3ed4a4U, 0xbde864f0be2a7353U, 0xbd9436d8bdabd9c7U,
  0x3cf88715bd30abbfU, 0xbe9ff464be1caa00U, 0xbf306ffcbe843003U, 0xbcf074f0bd864269U,
  0x3ddf449bbe49069eU, 0x3e32dfddbd3f9054U, 0x3d2dccafbdb65fa2U, 0xbdbc11a93e854978U,
  0xbe2c6018bee7b67bU, 0xbe7ebc5e3d7692ebU, 0xbed4373fbe0e50f5U, 0xbf025e67be8ac39cU,
  0xbda0d81fbe81d5e0U, 0x3e2b8f023e95c4c2U, 0x3d8a37d2bd9def40U, 0x3de068c4be195cdbU,
  0xbd752a29bdd3e99bU, 0xbd0ad522bee67556U, 0xbf12e5a2bcca5a60U, 0x3eb44742be33c62fU,
  0x3e5692e23e024545U, 0xbe8114a53c94b4ceU, 0x3d8d748fbe3c2d35U, 0x3a395f2f3e221418U,
  0xbdf9c71bbf09a3baU, 0xbe4e252f3e0f22c2U, 0xbeb7b7e93dc319feU, 0xbed61a95be4f92b9U,
  0xbe1c6e5fbe51ac07U, 0x3eafd217be6f98ceU, 0xbe43f2eabec94b7eU, 0xbe594663be46ae56U,
  0x3e65ece83d005d6cU, 0xbe0d01adbf0a0124U, 0xbf5cd57e3e4caf98U, 0x3f3c0584bee88454U,
  0x3ef675193d8d4d67U, 0x3d7757d4bd879332U, 0x3eab1e10bee3f443U, 0x3d9b44963eaa37a3U,
  0x3ce8c6b6bec48679U, 0xbee4fa8d3e3a0561U, 0xbe4105853ed971ddU, 0xbec47e87be12f4d8U,
  0xbd1bcd5dbda6bd37U, 0x3f509309be825bb8U, 0xbe821a77bed994bdU, 0xbdf2679dbe59482fU,
  0xbd1ab1f1bbefc567U, 0xbd8c308e3d5387deU, 0x3d10c9c3bbaadde8U, 0xbd52c70bbda28e01U,
  0x3ba584413ca8a6ecU, 0x3d0358d23d832ccbU, 0xbd366f5f3de38d00U, 0x3d0c7f40ba3ee3f3U,
  0xbd80fbaa3c6c3d0dU, 0x3d79ff78bda1ea7cU, 0x3cce9c773cc82fb6U, 0x3d9c511cbcc872dbU,
  0xbcd2bcbebd8a3a81U, 0x3c0366b03df3f2bbU, 0x3da2b3293bcd3b2aU, 0x3d508405bd1551b0U,
  0xbd5d4f7bbc9b99faU, 0xbda200ecbc846de3U, 0x3d9816c6bdf082aeU, 0xbc9169bbbac3c22eU,
  0x3c1bf309bd102d1bU, 0xbcc6eb2dba8d450dU, 0xbd9366073cecf72fU, 0x3b917ab0b9618854U,
  0xbb962f9c3bfc8728U, 0x3d9602babde4d5c5U, 0x3c2567d5bc40adaeU, 0xbce90dff3d120121U,
  0xbdddef863ccc0740U, 0x3be366b73d9696aaU, 0x37c20bab3d28f35dU, 0xbcdded223cc1077eU,
  0xbd14e8e1bc4ba1ffU, 0x3d9e3add3dc2ec5cU, 0xbd559626bdabb0f4U, 0xbd40b5983d43a054U,
  0xbc1f1720bd9e1676U, 0xbc9efd393c95d365U, 0xb991d7c73dfa0a24U, 0x3dd666dabcd7698fU,
  0x3c868fe93b82eaa9U, 0x3e17fbc0bd10c8b6U, 0x3b3e2f263ce322b2U, 0x3caba6383b69e42cU,
  0xbc882b8939baeb42U, 0x3b8534393dfcbbefU, 0x3d60d4c93de9343bU, 0x3de2e8d03cd82e1eU,
  0xbd50801cbd62bb75U, 0x3ccdb7e0bd9b4405U, 0xbe0047733dd10c0cU, 0x3e2ead6d3e1eb3c2U,
  0x3e4cf189bdc109beU, 0x3e861aa8bbdf7ef2U, 0xbe33a10dbea103f7U, 0xbc1215703d2254c5U,
  0xbe23c1d0bdb9f175U, 0xbd5ff59b3c18a120U, 0xbdb543b7be3dc774U, 0xbddc655a3d5763fbU,
  0xbe002da33e06671aU, 0x3d975b89bbb10c17U, 0x3da1c6343d5005f0U, 0xbccb4452be8b3a7aU,
  0xbdd93fc5bdf99ba2U, 0x3d297cf13d82f5a8U, 0xbe50f99f3d8f2b21U, 0xbe09a284b9ac4290U,
  0x3d87e5c0bddf5dd5U, 0xbd89936fbe182621U, 0xbe4cff04be057fefU, 0xbd6fd028bde4952cU,
  0x3d29b159bc427d68U, 0x3d4fd2b5bd75c99fU, 0xbdd0eb46bde99b5aU, 0xbd45f39bbba4b72eU,
  0x3d62bed93db0a0bfU, 0x3b76ddfcbdd9e386U, 0x3dccde16bc9725ddU, 0x3c814c58bafdc727U,
  0x3c982e10be03bfd6U, 0x3d39487d3d9cc84bU, 0xbe8f49033e15c8b6U, 0xbecb3286bea999cfU,
  0xbe07f6f6be811b8cU, 0xbea541efbe0e0b59U, 0x3dddbc7bbe1f434aU, 0xbdffbd5c3d214ab4U,
  0x3d8bf54c3cdb96d8U, 0x3b7b35403c1fbf88U, 0x3d000500bd3e582fU, 0x3db1ad75bd86cf36U,
  0x3d9302afbc8f1dbdU, 0xbdb7b2c03c473d26U, 0xbb3692e9be3153caU, 0x3de617d43d1ecdaeU,
  0x3f28124dbd9356a7U, 0xbea63c7ebdc7f640U, 0x3eec24b83c58c267U, 0xbdb45c3fbdc50c6dU,
  0x3e941186be5e8636U, 0xbef0b1ebbee811b8U, 0x3ded31f03ef4014fU, 0x3df6c21f3f7102d6U,
  0xbca98d183f17ac92U, 0xba96536abf2b91a7U, 0x3e52fe8d3f6a46d1U, 0x3d056cb53ef920fdU,
  0xbedfb573bcebe19cU, 0x3ec2d113bef41ee7U, 0xbebeeac7bef2eaa2U, 0xbe42045f3e345702U,
  0x3d2732a8bdd6306cU, 0xbd7043a8be04b880U, 0xbe7edbbb3ed0cf74U, 0x3f1a4c273e1408c2U,
  0x3d522826bd57ea3cU, 0xbe0de444bf01f42dU, 0xbdf99d9dbea8ead9U, 0xbd8a93353e14f0b5U,
  0xbee150933ec999b5U, 0xbd6d9ebabe4aaf18U, 0xbc7492873e7f1f61U, 0x3d075a2bbd5e04d4U,
  0xbd303c92be6f1b4dU, 0x3eb29807be2e5c6aU, 0xbc9465c5bca06c93U, 0xbe222fb23d1ee9c7U,
  0xbfbee4e5bd9e0f4dU, 0xbe859fabbdc5d3ecU, 0xbe95491abed3ae0fU, 0x3f8cfd403e5458a6U,
  0x3f09cb9abebec9d0U, 0x3e9737ccbeea2e62U, 0xbf081a2bbf0b6a1dU, 0xbdaef909bf90c75cU,
  0xbe76d700bd53fc5fU, 0xbeb75a9e3e4abf3cU, 0xbefadb86bf4783e9U, 0xbdeb1715be7ab6a1U,
  0xbe6b8c0dbe93e038U, 0x3ea31e8cbe3ade89U, 0x3eb13f153f18ab49U, 0xbc666e42be88fae0U,
  0xbd7f7032be3e7f6dU, 0xbcfd5c64bcfb89a2U, 0xbeade7fb3eb0ff60U, 0xbdc76c9fbe387e07U,
  0xbd5fd375bd86c3dfU, 0xbedcd3d4be7114edU, 0xbd556141beb7c38eU, 0xbe0612bfbe10dd89U,
  0xbeeb7cfbbde7fea3U, 0xbdeeffa1be220db9U, 0xbe1bd4b83bb0627dU, 0x3e81479ebe036d0cU,
  0x3e0528dbbe7f994fU, 0x3d0040ecbe53540aU, 0xbccec60b3e014278U, 0x3dd1d23cbe9e3237U,
  0x3e377066be1574a7U, 0xbd2f6dcebdbf8099U, 0xbe8ecbb13e5b16c5U, 0x3ce246d2bc4c46cdU,
  0x3c155da6bc68a176U, 0xbe22299fbdddc7d7U, 0xbe01425cbe9f68a4U, 0x3d1a318e3e8addb0U,
  0xbe94ef9abe1ba0f5U, 0xbe4d3369be8c912aU, 0xbe4b149e3c1fa95fU, 0x3e1ecaecbd826ee3U,
  0xbe3293a93ddd5077U, 0x3d74f758be96c2fbU, 0x3cebfe01bcc9e4f6U, 0x3bf9bd40be90a5b2U,
  0x3e9b1a89bde46963U, 0xbe1b32fcbe66e754U, 0xbe9ac0f93e94f296U, 0x3ee6fbefbd8c0ab4U,
  0x3d400c433d8455abU, 0x3d517b9bbde2ef9bU, 0xbe50f423be3a8952U, 0xbd88a1033f25a394U,
  0xbe6548c9bdfc3e10U, 0xbea68657be0bcfcbU, 0xbd9da7f33e41d077U, 0xbd326e1ebe3de86fU,
  0xbe8283563e141f8aU, 0x3e9fb6adbe37c068U, 0xbc9df5c0be40ee61U, 0xbde08800be2ba2cdU,
  0x3eb1eead3ee8e1f3U, 0xbee31e14be4faf2eU, 0xbe635dbcbd26f015U, 0x3e968cee3eee51feU,
  0x3ef6f10e3e2c4a65U, 0x3ed72b1cbdd249eeU, 0xbdbfdea4bdc62bf8U, 0xbc38e07c3c933aacU,
  0xbe8e9afb3eee2945U, 0xbe83ec22bd06feb0U, 0x3e2e277e3e6f211dU, 0xbd4f61e73f0e80f1U,
  0xbeb2e3cabe793e74U, 0x3ea610b1beb56462U, 0xbdc13b443d91db90U, 0xbe077f543baa3cbdU,
  0x3de923ce3e5e7b5aU, 0xbea00786bdef318eU, 0xbf115f933ddcff7cU, 0x3def5c7bbe216890U,
  0x3e9983ff3e39f232U, 0xbe9bc4a5be9dfdb1U, 0x3d661acebe2a82cfU, 0xbcaf094c3e150158U,
  0x3d4dbacc3ec918d6U, 0x3e4ac912bf0aaffdU, 0x3e6349a13e951d17U, 0x3e4eeb553e08801bU,
  0xbd8e2192bd89c57aU, 0x3e0a0392be924490U, 0xbf2a1a4b3df3da1dU, 0x3e6eb3483d563b82U,
  0xbd7a6b863cb1c0a3U, 0xbe21883ebe95da22U, 0xbddc5b38bdd6a440U, 0xbefea28e3cff4257U,
  0xbe9700e6bed8167aU, 0xbec587cd3cb9183dU, 0x3dc59c70bdab5321U, 0xbc463d37bed161aeU,
  0x3e6638cabe4920dfU, 0xbd9b4f30becd9ecdU, 0x3d6dd3cdbe24a17fU, 0xbd84ae95be45c8deU,
  0x3c1a811ebe262c6fU, 0xbe8279be3e982f30U, 0xbea5cdc03d7fd748U, 0xbdd17a953dee887eU,
  0x3d67f3adbde9624eU, 0xbdc58a4e3d495e91U, 0xbcb2482a3c91e516U, 0x3e08af36beac6bf1U,
  0x3db047d3bdb4e12eU, 0x3e8771c73dcb34f5U, 0xbdfa0e8cbd84ab7bU, 0x3dada0bdbca19437U,
  0xbe9180c2bd2327feU, 0xbdfe9669bdfff8e8U, 0xbdc6bc3abd6c1c13U, 0xbece91aabda75389U,
  0xbe18a9ca3db8904fU, 0x3dd72e7c3e0c302bU, 0x3e407e5a3d204707U, 0x3e3b5b9dbea92fe3U,
  0x3969bba2be1c043aU, 0xbe9ddad8bd900560U, 0xbeb33314bd8e60f7U, 0xbe2d7f8bbe9798baU,
  0x3d45ee56be2154daU, 0x3d07a71e3da44fe5U, 0x3e03c27cbde2f95cU, 0xbda4b5c83cdec378U,
  0xbeae68e5bcc3915eU, 0xbe184307be4390b5U, 0xbe209d25bdb744a8U, 0xbe295d9cbe01a142U,
  0xbe9f96e43dd6c594U, 0x3d59db63bc553af3U, 0xbd093346bdf3f052U, 0x3d5ea958be9a9ca9U,
  0xbd4065c1bca6f450U, 0xbf040c02be1b0976U, 0xbe7a6a21be27c0f4U, 0x3e15eb633d857512U,
  0x3e0c90b6bc7d9d4eU, 0xbe4046f73dc93360U, 0xbe2f1e55bea1d716U, 0xbd21879d3d3a8c89U,
  0xbf14f5fbbd0711b0U, 0xbe7a9913beb7ae0fU, 0xbdfcd52fbde599c3U, 0x3b82da833bb01853U,
  0xbe1f83f5bea077cfU, 0x3c5b3e76bdd96a8cU, 0xbe6072e23ebc529fU, 0x3c29dae8bf0d80e7U,
  0xbe6270c33eba8cd6U, 0xbeeb51b7be16103dU, 0xbd972037be150d9cU, 0xbd8a3f5bbd04cadbU,
  0x3e9bfa703e17efdcU, 0xbd8d47d43d8971b5U, 0xbdbbe0debdcb50e8U, 0xbdfdae073d2323ecU,
  0xbe8433213edbc5b2U, 0xbeaa38b6be814fc5U, 0x3cb9d9963d3934ffU, 0x3d48f1123e86d5f5U,
  0xbcf97fe5beae651dU, 0x3da95c1cbddeaf3eU, 0xbe594b663e67c389U, 0xbe07ffa3be02976aU,
  0x3c25f7d63ed65aeaU, 0x3dd8dd94bd7376fbU, 0x3df92633be5e8cfaU, 0x3db4ed88bdd1987eU,
  0x3e1516b0bcbafa9aU, 0x3e242795be537bd0U, 0xbea9707f3dc9b4bfU, 0xbe79e6293c9f1aadU,
  0x3e47af103ebea062U, 0x3d1757e3bd955f29U, 0x3ca403ad3e41c267U, 0x3bf4e27d3ed43231U,
  0xbe3c13523d80e78aU, 0x3e45bf4cbe13fd7cU, 0x3e0b72503e2712caU, 0x3da174b73de764e7U,
  0xbd9b1ca4bef07557U, 0x3d8e2d4ebd38d0bcU, 0xbd1e042ebde96f69U, 0xbee9df30be4ab712U,
  0xbf115e713c0ec421U, 0xbe3d8981bec15b02U, 0xbe8fc4af3d7e9173U, 0xbe8453cbbedac5e5U,
  0xbd7e348fbf0ebbc5U, 0x3d84212abd4e2f9cU, 0xba56d3a8be59625bU, 0x3a9ff25bbe972451U,
  0x3e50d20f3e009399U, 0xbe95b1a53c12f3c1U, 0x3e4e9664bd8471a5U, 0x3e22e36cbc8b7b12U,
  0x3e675925bb62042fU, 0xbe01a682be1f16deU, 0xbddfcd5f3e2adaa7U, 0xbe0c8cefbd84d1e1U,
  0xbe0ad9a93c5016deU, 0xbec4e66ebe84b6e3U, 0xbd87c913be2d45d9U, 0xbddab0b83e06ab97U,
  0xbc14d391bd5f7d81U, 0xbdbef74cbe2fad51U, 0xbd55edc13e55e685U, 0x3cbb173f3dde0404U,
  0x3da8566c3e522a4fU, 0x3cb2b949bec2a1abU, 0xbe762dc23cd734cdU, 0xbdd5a5a43d39b9a2U,
  0x3e954ce63e0ececeU, 0xbe0b196abe3f9cbcU, 0xbcd70c7d3d1e1788U, 0x3cb1b0c63d11e92fU,
  0xbcac806cbd624fc1U, 0xbebb7018be238330U, 0xba2b9f1ebe9a7fa9U, 0xbdccacbe3e79d0d9U,
  0xbe5a08b03e1e170fU, 0xbd8bfd16bd723254U, 0x3cfff4f73e10984bU, 0x3ccc73033e8a837aU,
  0x3e2b95083ab627ecU, 0x3db1dfe4be45fccaU, 0xbe26de253df18ad3U, 0xbe20b7b3bb33b8f1U,
  0x3db88bcebe4d099fU, 0xbdcfbba73d00ed10U, 0xbd5cb413bd828cc4U, 0x3da7ceedbd9aeba4U,
  0xbd03120ebe42eb83U, 0x3eca95653d201da0U, 0xbc704c3fbd9f2fd4U, 0xbe5f3b143e036e68U,
  0xbe801c083e1a413fU, 0xbe504f573d5ac365U, 0x3d96a3b4bc373a24U, 0xbe607903bddb6cccU,
  0xbecc58453e4021afU, 0x3daf25d93e984355U, 0x3ef54a2bbda0f165U, 0xbdfeff063c2b6ed7U,
  0xbe2c3bda3d8237f0U, 0xbe1f5390be11e516U, 0xbd647cda3b2e3c75U, 0x3c8e99573d0c896fU,
  0x3da3f33e3d2a8845U, 0xbdbf37123da380ccU, 0xbc2ef40fbda3ff4dU, 0xbd9d63b6bdca3234U,
  0xbe259b553d53c999U, 0xbdcb2c1bbddd10f0U, 0xbc7136bebdc9f514U, 0xbda9d4183e13647aU,
  0xbdf263513ddf4674U, 0xbce10b36bd2f8855U, 0xbddb972abdb34f1eU, 0xbe4898743d4bdf88U,
  0xbd5b98213e09485bU, 0xbeac2f9ebdb8257bU, 0x3dace802bdac9cd8U, 0xbd9e27703e1ec6b7U,
  0x3d1f13b73dcfa547U, 0xbd960a393edd5bf3U, 0x3df0935abcd94634U, 0xbd1200f9bde894e1U,
  0xbccaba073dd46f0aU, 0xbdf8ac34be0e3c8eU, 0xbc0328b2bdfaa560U, 0xbe229ca13e2d7e85U,
  0xbe16d0afbce39591U, 0x3c8b8d563e55ea82U, 0xbddfb121bad854b4U, 0xbe0a29d13d4f0418U,
  0x3c39e3703d3b3594U, 0xbe503fb13dd846a3U, 0x3ddd6fa43e38c0b3U, 0xbcc2102abe0cd348U,
  0xbdffdadd3d314f49U, 0xbdb1d0aa3dcab0b1U, 0xbc5cbba0bd2e175bU, 0x3d1c8a14be2a0cecU,
  0x3dfb5a37bd3c93f7U, 0xbd149dbebeab8bd0U, 0x3dc9b743bd6ba5daU, 0x3e09c29f3dcd2752U,
  0xbdbbb5453ea45265U, 0xbdbf68303dbf05aeU, 0xbd4742b93d8bf1f1U, 0x3e2dd11c3dfda780U,
  0xbcf9e0de3df233b9U, 0xbceeba7bbd8da6d8U, 0xbd9979d2bd1b8911U, 0xbe1f63dd3d3511b2U,
  0xbd51e0c9be03f57aU, 0xbc81395f3d812edfU, 0xbca1d310bcf6e17dU, 0x3d805c5cbd9b60d9U,
  0x3d99984dbd837ec9U, 0x3dead739bde867ecU, 0xbda87959bc3640d4U, 0xbc1b7cf3bdd5aa2bU,
  0x3d4202dbbe32c434U, 0xbd52d4003e093d30U, 0xbd24ecf7bd6d57a2U, 0xbce30ce4bb9ac51eU,
  0xbdf215db3dbeee9eU, 0xbe033896be180c19U, 0xbcdba522bdecb110U, 0xbde51d0e3db72481U,
  0xbcdb1c7abe253017U, 0xbd241000bcd87788U, 0x3d96819c3cee730aU, 0xbc0744babd7b271dU,
  0x3d91e87dbbe877f2U, 0x3b6db6b2be42fb45U, 0xbd200b1bbd22f736U, 0xbdf4c3b83d0b8300U,
  0xbd36685ebdb6ad6dU, 0xbcbb2a203da096e4U, 0xbe2943e7bdd91e20U, 0xbd28d14a3de23f77U,
  0xbe5444643e3a225dU, 0xbe808c50be0e8652U, 0x3d972561bd217b79U, 0xbd518b623d98e591U,
  0xbb123610be72364bU, 0xbc71bce63e150184U, 0x3dff3d503bb5c47dU, 0x3cf532eebd9866f9U,
  0x3e32f689bd4f0a64U, 0xbbab859cbdea2478U, 0x3d7282763c681d12U, 0xbdd02a363db0ca3bU,
  0xbd9eee9bbdc123d1U, 0xbd2118d43e5376a2U, 0xbe6396b23d4568a7U, 0x3dba68743e0688d0U,
  0xbdeab2b8be018dcaU, 0xbdd7d3c6be87c5e8U, 0x3e3d317f3d5c5803U, 0x3f17f024be270b67U,
  0x3e4c1de5bcb94bdeU, 0x3ecb70f8be8b665cU, 0xbee33cf63d949652U, 0xbe6a05f73ec3b310U,
  0xbd95e0e4be198dd4U, 0xbee33a073ca492c7U, 0xbe0525ed3f03ef62U, 0x3e2eb2993f3438b8U,
  0xbe9a1fe03f1572ecU, 0x3f14cad2be39c099U, 0x3e56eb26be95f49bU, 0xbed4ca573e6527a2U,
  0xbf0351a53df1efdfU, 0x3dceebd9bc9bc3f3U, 0x3e8dd522bf056733U, 0xbeb1581e3d6106e9U,
  0x3d27d4683d84d83eU, 0x3e902b833c8e7e7dU, 0xbdd425423ea7cba4U, 0xbe0db24ebebad359U,
  0x3d749b63be37d633U, 0x3ce8b34b3e5653cfU, 0xbbbbc381bf11e147U, 0xbebb053fbe72fddfU,
  0xbe59f5acbe0d9bedU, 0x3dcd847cbe8d8c24U, 0x3ec2d2afbef65c62U, 0xbeb81148bbffed14U,
  0x3c48f5ee3ddb93abU, 0x3e3f5228bd305c67U, 0xbe8f499d3ea019bcU, 0xbeb499d3bd91e897U,
  0xbcc00f333e2868eeU, 0xbf290d77bde2cfdcU, 0x3d0080bbbe5c8501U, 0xbdd9cd32bea4594eU,
  0xbe545082be3dc166U, 0x3d9ad80cbd154b6cU, 0xbe8c7f913de55cf5U, 0x3d303ba4be0a20feU,
  0x3d8cc01bbf57fd2fU, 0xbdbebd8bbf54cb61U, 0xbf0f1f2c3e4e5d62U, 0x3df92b83be8a53eeU,
  0xbcaae762be4f192dU, 0xbf357d52bd5b5ac6U, 0xbe26d03a3d221938U, 0x3db8e205be958a2aU,
  0xbd2362aabe39a927U, 0x3de13ea03e177368U, 0x3e4b0762bc9a6a98U, 0xbe0860303b5e5a58U,
  0x3da07998be087881U, 0xbc425049bec326d3U, 0xbe15a4ba3e915c2eU, 0x3d3a6c3fbd1a8000U,
  0x3c8630a23e152951U, 0xbdbfbddb3e1e966eU, 0xbe2049e3bd031271U, 0x3e89c7743e19524aU,
  0xbe7a049e3e199aafU, 0xbeb64092bea21bf2U, 0x3c6370babe5849afU, 0xbdefd00b3e3286f9U,
  0xba06b532be70506bU, 0xbe3693813ea55a76U, 0x3e7b8f50bda253ceU, 0xbe1f0539be840a16U,
  0x3d34b846bdf8fafeU, 0xbe1dbaf7be81442dU, 0xbdb3156a3c6e8cdeU, 0xbd2846e93e5904ceU,
  0x3c47287b3da80b30U, 0xbc9b28003e0f0efeU, 0xbee5b94fbdbb09bfU, 0xbe1f95df3ba35930U,
  0xbd7d0bf43ebb89c7U, 0xbdeaa2d4bef8c0cbU, 0x3e168bd2bd93753fU, 0xbd8999993eedc991U,
  0x3e17cedc3bfa7d4eU, 0xbec28b5e3e90cd47U, 0x3ba9991fbd2a663eU, 0xbe686e86bdac07c8U,
  0xbdc42c303dad0eddU, 0xbe6a9980bd6bff81U, 0xbb8573db3d94729bU, 0xbe696c5d3de2c62fU,
  0xbe0b81a0bc80125fU, 0x3de5bbfebcb6ffd4U, 0xbe4a9e6bbe333a0bU, 0xbf0bbc57bdc97c4bU,
  0x3d95518fbe0ef6b2U, 0xbd62934e3a0b5cdbU, 0xbc417c203dd53e2eU, 0x3c9e6325be67da64U,
  0x3d383caa3cfe87f7U, 0xbe2b1f0dbe1cec2bU, 0xbdecae5fbe31e138U, 0xbd0c41383e35102eU,
  0xbdddcedfbdd7de30U, 0x3e11de2fbe06ec0aU, 0xbe05aaec3e1f77d7U, 0x3e5ea20f3e180e0cU,
  0x3e019e453e13a66aU, 0x3dc569e8be953cd2U, 0xbe1c6a5ebd0316f0U, 0x3c7fe7bd3bcceebaU,
  0xbe567ee1bda3f5b5U, 0x3d518138be3b62baU, 0x3dd052c1bdcb9844U, 0xbddf4e0a3d8d89b4U,
  0x3c89bf6f3e2e4ad3U, 0xbe2dcc69bcd7f440U, 0xbe4c9ee23e2cc469U, 0xbdd3d2e5bd3d312bU,
  0x3e3105a2bdfd6ae3U, 0x3d4fdb323d9c1cbaU, 0xbddfe03cbd1afa92U, 0xbd7d27e43c093d8fU,
  0x3d656838bd8d1710U, 0x3d5048ff3d91aedfU, 0x3d80a63dbe995555U, 0xbe7dec1c3dbfd92bU,
  0xbed69e4dbd43a1e8U, 0x3da8a582be3a08bcU, 0x3e33e88fbe9cc46dU, 0xbe814fdabce46454U,
  0x3d8ba1123e8b00ceU, 0xbdae2d07bcd4efe5U, 0xbe6e7c7a3e2b9793U, 0xbcfa60fdbf005597U,
  0x3e5f0c0dbe60ccc9U, 0xbd7ad9053dc9867bU, 0xbdfe2cdcbe9640dfU, 0xbee5e63d3de8cc0fU,
  0xbde7cbecbd63a7e3U, 0xbd6749233d69b79dU, 0x3b198c92bef9a453U, 0xbed4f85c3e494f2fU,
  0xbf0c86e73d950696U, 0xbec1d802beaacec3U, 0xbf3fc99dbe907638U, 0xbd3937f03ec923b4U,
  0x3f08e16a3e3c5d10U, 0x3e52fbc53da6aa08U, 0xbe1cb59ebe99992cU, 0xbe0dc538bea54240U,
  0xbe9df085bec36affU, 0xbe8fc26abe30cb37U, 0xbeeae419be480e47U, 0xbe12d37ebdc7904bU,
  0xbda20e92bc4f5436U, 0x3e4268c7bde3628cU, 0xbdad58303dbb5fdbU, 0xbea05f25be49378aU,
  0x3da534353f71d0c4U, 0xbe1bce06bdb9e43eU, 0xbe5f95423ca3d478U, 0x3f83dfb93e50bd80U,
  0x3f8acce33e0a50d2U, 0x3dc117babe151b0dU, 0xbe81dab7beaf7629U, 0xbcac0b173e1a0f8fU,
  0xbcc6938d3eaae4c8U, 0xbe3dd68bbe884ae0U, 0xbe9221c3bdda5a7cU, 0x3e41e7743f0faaa2U,
  0xbe62895fbd13b5faU, 0x3f08a569beb3fa5eU, 0xbe2fbd123f38f97fU, 0xbe040e1cbcc6c12cU,
  0x3d202909beea8c49U, 0x3dd5fc1d3df70f63U, 0x3e69b07e3d932f7bU, 0xbe38f9c1bf00358eU,
  0xbdfae6d3be7296f2U, 0x3daec5cbbe96b2ecU, 0xbdb49ada3e3ecce1U, 0xbe4fd7443e8be68aU,
  0x3e8c207dbe1f63b1U, 0x3ed86abfbe27651eU, 0x3dc00dac3ee43439U, 0x3b1ac7963e03250aU,
  0xbd42dc413e942437U, 0x3e6edb213e366279U, 0x3e11d0bcbf0fda79U, 0x3e1732d23dc6b313U,
  0x3e6a0845be67e4a3U, 0xbebe5ac53e107869U, 0xbdd69e78bdc0dd14U, 0x3ced80e6bf07ae6cU,
  0xbe8da8673e079873U, 0x3e99bf76be24d7c3U, 0xbe16d3cc3e20212eU, 0xbe16f5f13d1df5a4U,
  0xbb41e2dcbcb91eaaU, 0xbe7e8a94bf04f910U, 0x3cc8281a3e7293ecU, 0x3dd4e479be77b15eU,
  0xbdf60ea4be658dd4U, 0xbea49b3bbd218341U, 0x3e84c03d3dae0e32U, 0x3eb93553bd96b05fU,
  0xbe0525383ddfcd25U, 0xbefa4fcfbe22d506U, 0x3e9006e3be5363c1U, 0xbdbcbdf3bd97afa6U,
  0xbe2996a1bba011c5U, 0xbd0932533db95ad8U, 0x3e81b3123d4fbe5cU, 0xbdc6fddebd5bb3dcU,
  0xbdb106eebd1a17f9U, 0xbdbdcc98bf228259U, 0xbe1a4dae3d8888f0U, 0xbd2858263e9d0a01U,
  0xbe45b0cbbde68bb1U, 0xbe9b6c4fbdb2f945U, 0xbe8807adbd246d61U, 0x3e103e523dd48a9fU,
  0xbdfadf023f06d8afU, 0xbe94549fbe872a69U, 0x3cd9901cbdf37578U, 0x3e97ec8e3f182d7aU,
  0x3eb9e3763de12669U, 0xbd129e233ee1f000U, 0x3e7a7d1dbe061702U, 0x3d6ffa75be01d847U,
  0xbdfb28083e9731a8U, 0xbe3e4875be61a03dU, 0x3e5fe4723d3341b2U, 0x3cff08ad3f1e0d66U,
  0xbe0164b9bc5ebb96U, 0x3de505c3bbd9b7e5U, 0xbe92bbc43e65ba24U, 0xbed418fe3d2285a4U,
  0x3c630bf53c5cba31U, 0x3b50c9a53d9b4591U, 0x3dbeed15bd5b18f6U, 0x3dd598a8bcb9b002U,
  0xbdbe54323cda6ce8U, 0xbc10d459bd0c9cf0U, 0xbd649a313e3d0123U, 0x3db13556bd277e0fU,
  0xbd9cd71ebb80b181U, 0xbad96b33bc8962f9U, 0xbbfe7ba43cc0ade8U, 0x3c977e903d9954c4U,
  0xbe4520bf3dc5423dU, 0xbd5cec3b3d9a2b37U, 0x3db4b5d93d97b7c8U, 0x3d57c4b73cc50909U,
  0xbdd99e1dbd8d980fU, 0x3d286f243dab43ccU, 0xbd77f80dbdbb95c3U, 0x3d9d3139be1e5267U,
  0xbdc624e93e243e6aU, 0x3cb655e3bd8af70fU, 0xbd84de9f3daef1b1U, 0x3c124886bd7df50bU,
  0xbba9a765ba5619c5U, 0xbd96f2033d2a5ce3U, 0x3d3df2c13c2d35caU, 0x3d2d7753be3aece9U,
  0xbe0c7763bcb1e19bU, 0xbd9289dcbcb3245bU, 0x3e3eaa57bcf4b4a1U, 0xbacb806dbd0b80bfU,
  0xbe03db07bcab0909U, 0x3d50aea3bdbac310U, 0x3d0a941ebe2c05bbU, 0x3dd033e9bd576ee2U,
  0x3aead3583df03ad8U, 0x3d6ea300bd28ad14U, 0xbd8f4b773d35bffcU, 0xbd3bb1efbca39635U,
  0xbbe8646b3c3c5378U, 0xbe72973a3e05a7ecU, 0x3dbb3a1a3d2d26a6U, 0x3ba37081bdd87c40U,
  0xbe88f9e5bc8eb343U, 0xbcec5b34be087c6aU, 0x3e60e3a53d2bb95eU, 0xbdf45b4ebdd8d097U,
  0xbe9f50ac3e2c9c1bU, 0xbefd90d5be23f488U, 0x3decd5f4be8bd69bU, 0xbe80f2f43e3aa947U,
  0xbe228494be040505U, 0xbea35b9b3ee16b32U, 0x3e90b6753c8b7403U, 0x3cc655d1be0509e0U,
  0xbd08ef05bbebd6daU, 0xbdfc3060bef65299U, 0xbd9639a5bdf834a3U, 0xbddc95153e274924U,
  0xbdcd00d9be4bee73U, 0xbe0192f03dfb19c8U, 0xbe22326a3cc658e2U, 0xb9eac8283dbe2685U,
  0xbe7c54d83e98f293U, 0xbe670513be6426d3U, 0x3d52aeb03d5b7a19U, 0xbc9e26343ecb3ebaU,
  0x3c3007a33e0f7ca8U, 0xbec568123e39be4aU, 0x3d8fdee9be128f06U, 0xbd07de68bd9a9eadU,
  0x3d6f20d03dbd3bc3U, 0xbda28027be5fdf38U, 0x3d11e208bc8bd87aU, 0x3d98ccc83ea1f317U,
  0x3ddfa4d2bcab8843U, 0x3b287a67bce754d2U, 0xbdd070fd3d525afdU, 0xbe8d1c98bc7d4758U,
  0x3ef74b523e79a7b7U, 0x3e2a11c5ba5c632dU, 0xbcde61e03e88bbc1U, 0x3e8ea6da3ee45c18U,
  0x3d2e37d73e9bb6dcU, 0xbe861f1f3aa8f818U, 0xbec73c45be6fd021U, 0xbbd4b7fd3ea58b2aU,
  0xbe64312f3e540b30U, 0xbe5d40293e4cf807U, 0xbdaff9b73df0fd8fU, 0x3c803ef03deef56aU,
  0xbd71ec193ce06c48U, 0x3de60fc7bdd09e21U, 0x3e02667a3b3e8b63U, 0xbddd07b1bd7ee93dU,
  0xbe7e7debbdcb9e22U, 0xbe03186ebe898685U, 0x3d933ebabe64b37aU, 0x3e3923493e5c345bU,
  0x3ea241783d5c153eU, 0x3ea62f0d3c63df09U, 0xbe3985a8bd7ea726U, 0xbd3ab9713dde43c3U,
  0xbe8073683e0c2484U, 0xbe7aaa913e22b5e3U, 0xbc60178e3defcadeU, 0xbec3f82c3b78f1b5U,
  0xbecc4b1f3dbfd5a5U, 0x3e068045bdd8edf0U, 0x3e0ec2f0bd7a23f6U, 0xbe8caa45be2b6dbbU,
  0x3e859c62bc7c1f91U, 0xbdb49c163d238ed9U, 0xbe025d613df406e5U, 0x3efa14ea3e18ff3aU,
  0x3ec324143e6b8598U, 0x3eb93cecbd8075dbU, 0xbdafde6cbe92b1d4U, 0xbe4556d83e6d9e13U,
  0xbeca23c33e4bb54cU, 0xbe97b47abaa71f52U, 0xbe01405fbe8a126cU, 0x3da49c673dec5e4fU,
  0xbe1098c4be809219U, 0x3deafaebbec38923U, 0x3de23dcc3e293889U, 0x3db50af4be8b0e17U,
  0x3df9c5dfbe5cc1b5U, 0xbe3126ed3d064adbU, 0x3d47c4bf3f02ccb5U, 0x3e2fbcd6bf13a958U,
  0xbef4662e3d5ca6c4U, 0x3e152d943dae73e8U, 0x3dbc759fbebcc24fU, 0xbe3c79623e9d6282U,
  0xbe2d92e8be693a93U, 0x3d5ee21fbf6f6bf4U, 0xbd988cbb3e378965U, 0x3e97331e3d138d19U,
  0x3d2e7cc23e7950d3U, 0xbf0028ffbda0f62fU, 0xbd89f3db3dfae680U, 0x3e0fd9c8be1e16c8U,
  0xbe119d393e8408e0U, 0xbe95f4fbbe008002U, 0x3dc871a7be8946a0U, 0xbdf0957e3db1172bU,
  0x3d0c95b4be7b1f7eU, 0x3d576fa73e2fd88eU, 0x3e1971453d186ab1U, 0x3cf9d202bdeeee2aU,
  0x3d226b57bc11b5eaU, 0xbe5d2effbe5fcaa8U, 0xbddb8b8dbbb9c506U, 0xbdd248b23e82bf7eU,
  0xbe961a16beb4b85eU, 0xbc33ad513d86f85eU, 0x3c8c3d313e4e78e5U, 0xbe45fa183ceb090bU,
  0xbe31654f3e3bc954U, 0xbe6378a9bd51e41aU, 0x3c34524fbcc01ee7U, 0xbdab95febc535417U,
  0xbdc9ecefbe8520dbU, 0xbd9d2d6d3d804b54U, 0x3dd6f9c53dd56c0eU, 0x3d14e8373d5871d0U,
  0x3c8c1005bde70c2eU, 0x3de2badfbe4eaac3U, 0x3d1ba0d93e343202U, 0x3b148c2e3e6b3472U,
  0xbcfff3bdbea663aeU, 0xbd981b1cbd0c3f06U, 0xbe75b5553d92fdd9U, 0xbd7e318ebe001133U,
  0xbdc1ccafbea7602cU, 0x3ceee9663e6b5511U, 0xbe18a6203db82fabU, 0x3c33ebaabf048c5eU,
  0xbe0af2223c802680U, 0xbe94696cbeba9ddaU, 0xbd3a48a9bce83597U, 0xbb243ec33e19d2aaU,
  0xbdb413a3bd661a15U, 0x3dc88e8abe2f8496U, 0x3d72af463e0e2bb1U, 0x3e1c881ebdf2e5efU,
  0x3e0bf1a23d8c1178U, 0xbdb8150fbe8b2a95U, 0xbe12c7c8bde7b4fbU, 0x3e3afce9be346aaeU,
  0xbd2d4a30bdff11bdU, 0xbdae106f3d3291f7U, 0x3d7ec1c2bd66e5fbU, 0x3df921b7bc8125baU,
  0xba70cafbbd9a1155U, 0x3e309607bd7c2c64U, 0xbe92b8713dae562aU, 0xbd4774963d2a5763U,
  0x3d40e2babd8f733cU, 0xbd2863cabd92e76bU, 0xbcff98f7bd77ec95U, 0xbcc68fb8bb8d16ecU,
  0xbd4fa5e6bdcdbe36U, 0x3c8e9251bde8b152U, 0x3dd3d38c3d8891edU, 0x3d11f4f63cc29c31U,
  0xbd28a4f8bddaac82U, 0xbdf6f3043c923182U, 0x3ac82192bd48625eU, 0x3bd65422bdfef9d8U,
  0xbdd3f1f2bd43ad53U, 0xbc2e0f51be15676fU, 0xbe0c14bb3dca4e9eU, 0xbd780a25bc58faf5U,
  0x3d86ca01bd865a6fU, 0x3cbc413dbe6170d6U, 0x3cfec029bd2e8b9cU, 0xbc403b0dbd42a596U,
  0x3d5b81efbe0096b6U, 0xbd87af0fbdd46d0bU, 0xbd1613603d35921fU, 0x3d8387ca3d94a389U,
  0xbd84524abd9438b2U, 0xbd0f2c193da10ff5U, 0x3c6bba8ebd065b3fU, 0xbe89d0e7be0cc071U,
  0xbe88b1f6bdaf77dbU, 0x3d29677bbde4c0e4U, 0xbc931bd53dda3db8U, 0xbe1f10e5bd9933aeU,
  0x3d03086fbdc858ecU, 0x3e02cd1abe2b1523U, 0x3b391f7fbd073c44U, 0xbaa7c479bd5747cdU,
  0x3d3fa7ea3d2883cfU, 0xbe2235fbbdac26e5U, 0xbd22d364bcb80f2aU, 0x3e0dca423dc0309eU,
  0xbddd2f043e4e57a7U, 0x3b4083e1bd7f887cU, 0xbd962531bc2222d5U, 0xbdb274383e1ee92aU,
  0xbd231b36bd617585U, 0xbd6aec4fbc0a347cU, 0x3e03bf6f3c9df6b5U, 0xbd9bb4fbbe018dbfU,
  0x3d2237e7bd8edb4cU, 0x3d4b0105bd68c67dU, 0xbda49dceb871defcU, 0x3c537e7a3de947e7U,
  0x3e422c163e505444U, 0xbd8b45143d74d26dU, 0x3c20426b3d076e7dU, 0xbd99cd813dada503U,
  0xbd690db53ddecba4U, 0xbe520e043c881e61U, 0xbe213a9e3cc848adU, 0xbd8c4a2bbe007fd0U,
  0xbdb81e38bd27a960U, 0xbe3ffbc2bd250b72U, 0x3d953ccfbdcd6d14U, 0xbd380758bcfba8e9U,
  0x3c3ae8d0bd91bccdU, 0xbc9aaeb7be5cf1aaU, 0xbd1934ea3d186b67U, 0x3e118c223d38cf2cU,
  0x3e07edf63daf8af6U, 0xbdb9aaa2bcfb7f00U, 0xbe0770863d943192U, 0x3e35036a3ce1e2d7U,
  0x3dd8ca5abda93b53U, 0x3b68f6073ccce35fU, 0xbe5561cd3e0a9252U, 0x3d8c30f5be6cc12bU,
  0xbd18fbde3d84e705U, 0x3d668f1fbe1c8e60U, 0xbe08e2cdbe4310e0U, 0xbd84a0243d52e56aU,
  0xbd6309153cbb2761U, 0xbdbc20d4bd3e36e7U, 0x3d8a717bbcab3ce4U, 0x3df0ce2dbde4976aU,
  0x3d899e493d6b5d5dU, 0xbce40cc9bda3f61eU, 0x3e1125ba3c74fc65U, 0x3e08a6b5bdfdc501U,
  0xbd596680bcb239baU, 0x3d79a7e53e4dd044U, 0x3c9fb8dd3d70927cU, 0x3a854554be6a4889U,
  0xbeb17fc6be2b1ed9U, 0xbe4a019e3ce7b7edU, 0x3e58ad993daf3b00U, 0xbd44e548bc8d3c2cU,
  0x3e472733bdc6fba3U, 0x3e586869bee84191U, 0xbd7efec4bdb02ef7U, 0x3d06ddbfbe029c3dU,
  0x3dfb5196bf054fabU, 0xbe274a1ebd3fea36U, 0xbe08a8e2be22a76fU, 0x3e6559843e34f5c2U,
  0xbe3a673abd129e4fU, 0xbee2cd19bdccb0d0U, 0xbcede219bc69c0abU, 0x3eb3e597bdfdcb61U,
  0x3e7d25153db7aafdU, 0x3e9d57d2bd23a65bU, 0x3d2dcf1d3df325cbU, 0xbe3fc449bd72680dU,
  0xbda4b72d3d0caa2dU, 0xbd98f2d5beff9ffcU, 0xbf279d08bb8105e9U, 0x3d2b3ab53e0c12afU,
  0x3da086e9be24dedaU, 0x3e4592ba3d268628U, 0xbdd7a2b93d86e4aeU, 0x3e140130bd41fd38U,
  0xbe3e0cda3d20e407U, 0xbf1a7395beb97a01U, 0x3ca35e59be009ab0U, 0x3e2bc65a3e6ebf3fU,
  0x3eb07bd53cdc79ebU, 0x3e9ad74d3e8aacaaU, 0xbddae0d3be00130cU, 0xbe2b6430be1bbb53U,
  0xbe3d6a5f3dcb6ce7U, 0xbec2d3e0be58fae8U, 0xbeac70c9be8eb1ccU, 0xbdf79e3e3e61e333U,
  0xbf020139b92bf8a1U, 0x3ec3915bbdc8b172U, 0x3d17d2bc3e6ff44fU, 0xbe671985be074a5aU,
  0x3ea9c372bdc9a911U, 0xbd8d9b56beac3dceU, 0xbe626f1d3eafa91eU, 0x3f290792be8e677dU,
  0x3e7d40da3f3b54fdU, 0xbe033215bec866feU, 0xbe9ecc52be042aaeU, 0xbd8d1b823f3d7125U,
  0xbe7bd0133ecd7bdeU, 0xbe95875abdbce973U, 0x3db6eb7a3eccfab5U, 0x3b8f96a33e5d0217U,
  0xbd43cf50bd57674fU, 0x3e919863bf091a94U, 0xbc93d1e9bcbcec1fU, 0xbe4f7e48bde9a452U,
  0xbc812c92bd9fb464U, 0xbda3b90dbe0979f6U, 0xbea0df4b3ea9182cU, 0x3e15cba2be68d23dU,
  0xbd4b14bf3e0348b3U, 0xbebf4132bf1030b0U, 0xbe0810abbe80e6f0U, 0xbe302f143e4a0ee7U,
  0xbe1ecb69bc9b540cU, 0xbdaa1b98bea85e2aU, 0xbdad04d33ebd3e2dU, 0x3e0805613db13b0aU,
  0xbe90c37dbed52aeaU, 0xbe643eacbf448283U, 0xbe04b3843d726e69U, 0x3dc1a6abbe1808a7U,
  0xbe70e4a3be21057fU, 0x3e409360be4422bfU, 0xbe1b810abdd2e18cU, 0xbf23f4b1bdae0a59U,
  0xbe848dddbe7355c5U, 0xbf33a714bcfbe1e3U, 0x3d867155bd815d84U, 0xbdd18d6cbf2b5516U,
  0x3e052620bdf021d5U, 0x3d39ead23bd3082eU, 0xbdf483cfbe51bed0U, 0x3d874a2abe9df8caU,
  0xbd9a28f6be4afb25U, 0xbea692d8be0f0997U, 0xbd12c2723bf9370bU, 0xbd83a50dbe5077baU,
  0x3cb5a8c5be1702a5U, 0x3d1ec01dbe0c0a7cU, 0xbcc21a383bd86601U, 0x3aa780adbe43246fU,
  0xbc86acaf3e2045a4U, 0xbe9e2e70be222418U, 0xbec1b515bdcd3af9U, 0x3aa88ef23effa8f3U,
  0xbe64cef53e1a1778U, 0xbe11d598be300109U, 0x3e042dbc3ebf9055U, 0xbd78ded5bdb4440aU,
  0x3c02df9cbcb3299eU, 0x3db6c429beb09970U, 0xbea3c1fbbef3a784U, 0xbe5c4354be26fdb6U,
  0xbea6c3fb3e583b75U, 0xbe0e4191be800516U, 0x3c318740bde6f685U, 0x3e18fedc3dc8f786U,
  0x3df489923e97ac30U, 0xbdc11f853e9250dfU, 0xbd85fceb3c8fcdfbU, 0xbdae631a3ee2899cU,
  0xbe2a15483e453dffU, 0xbe35c8823db1ff7bU, 0x3d66618a3de7de55U, 0xbea8ab2abe1773ebU,
  0xbc5ba1a63eafbf25U, 0x3e4b65cfbc18be35U, 0xbe06152dbef17f43U, 0xbefc1aa1bd068ca6U,
  0xbea114393e1adcbeU, 0xbe295f5c3e05aee5U, 0x3e600cb3be35f987U, 0xbe9c2c55be8cfce6U,
  0x3ca4e3efbcb32567U, 0xbe4d13ca3e230701U, 0x3e2f64223e11c1e4U, 0xbe8cc1a4bd90c446U,
  0x3d4a39ccbda4a433U, 0x3c948e71bdd18560U, 0xbda9c526be82670bU, 0x3dd353943eda945cU,
  0xbe57342e3c7793ffU, 0xbd5650213e257290U, 0x3d942873bde43f3aU, 0x3ddf5fbcbd9f338aU,
  0x3cfe692bbe41edb8U, 0x3e0220813d4d1965U, 0x3d0bded2bc3943eeU, 0x3e9163e8be22e1b7U,
  0xbdad6f423e38fd4cU, 0x3e028fe3bc27926bU, 0x3da4543bbd853778U, 0xbd99f9dbbdb31a66U,
  0xbe5c7acbbe112be0U, 0xbdd4923dbd54be7cU, 0xbe4e720b3cd4a089U, 0x3d32f3033e3d658eU,
  0x3d8926073b5e5f8eU, 0xbdc4ac61bee25027U, 0xbd9bc0bd3e523f66U, 0x3c0e38c0be4f52dfU,
  0x3c41e46b3d03bc44U, 0xbebcdb4f3dc3f23aU, 0x3e0ec18fbdcb3775U, 0xbcaf7896bec5aa6fU,
  0xbe93a3b7bd01d8e2U, 0x3dfcc9653e67ab94U, 0x3e767f783dd5005dU, 0xbe2302723d726491U,
  0xbe33595f3e3fdfabU, 0xbe9ff138beb5dc1bU, 0x3c7f84b7bd659739U, 0x3e86ab743e17086aU,
  0xbedc2055be87b9bcU, 0xbcbbf79abd4cd179U, 0xbd51d2903db99b62U, 0x3d932416bdedc118U,
  0xbed997753cb7d232U, 0xbc5627b23e10d0d9U, 0x3e322f17bee5a430U, 0xbe85c292bed34e10U,
  0xbe9ee0dd3c887e27U, 0x3d78f65d3d8b706eU, 0x3ddef12b3e522089U, 0xbe08aecbbeabff75U,
  0xbc818f6dbdf76175U, 0xbe691b8cbe82bcdbU, 0x3db5178abe92f557U, 0xbbaa4a7dbdcf4254U,
  0xbf2484c3be8c2330U, 0xbe34ec9f3e1bde81U, 0x3e2a6983bd73764eU, 0xbd0ab400bc293418U,
  0xbe321dedbe526aafU, 0x3d16a58a3bc255a9U, 0x3d4cdec4be183bc9U, 0xbe63e73abeab1ffbU,
  0xbdbd8461be721c5eU, 0xbe2ebb34be3b0855U, 0xbdbb52de3e102ba7U, 0xbd6b715fbde81dbaU,
  0x3dd34202bcf26262U, 0x3d928974bd642f9aU, 0xbd99dd4bbd56e578U, 0x3c8e6d733d8d49a9U,
  0xbc778ceabd21f062U, 0xbdb8d0a4bc85e799U, 0xba157831bd889088U, 0x3d87be633d6b6211U,
  0x3b366c8bbe6efc45U, 0x3e487a923bb9288cU, 0x3ca5ac00bd0af64bU, 0xbe20c782be55e834U,
  0xbc3038bebd9c97c5U, 0xbe8e70a5be8025c1U, 0xbeb120813d557beeU, 0xbe2ef394bb8af3a7U,
  0xbd4f1226ba3b6b08U, 0x3d135607bdd9daf0U, 0xbe32d95abd8ee44dU, 0x3d2c0c73bd5d7e2fU,
  0x3d8b72b4be21f51aU, 0xbd83d77fbdc7563fU, 0x3c65fe92be0aa7c8U, 0xbcffe76f3d5bd347U,
  0x3dd77be9bdbfc502U, 0x3d648035be07fc81U, 0xbe2028b23a75d171U, 0x3dc99fa13e049a75U,
  0x3e4eca663e932a97U, 0xbd6d5b1a3cd6011cU, 0xbec67717bda047e3U, 0xbe5195bd3ddc84c4U,
  0xbe4305f33cc622faU, 0xbe6269bfbd940276U, 0xbe777247bcf24558U, 0xbcfbe81b3db7cc37U,
  0x3bc6cf2ebe7a8d69U, 0x3e0a14a1bea1abe5U, 0x3d59f379bc20e44fU, 0xbde45384bd51e413U,
  0x3d83f1173e888937U, 0xbee2bc96bde03a60U, 0xbd0eb684bd28aeefU, 0xbec13b81bdb7585eU,
  0x3e294768bd1f7079U, 0xbe04379f3de2b7e9U, 0x3e2214c93d3e5133U, 0xbd4bed38bcf817b5U,
  0xbdfd8a783ecf27f3U, 0xbe2a5b4bbf4a4327U, 0x3e0163e13e8ea978U, 0x3e860f2e3ecda8b5U,
  0xbe7e8b113e039bedU, 0xbde67a21beb71f39U, 0xbeadf26a3dcc4bc6U, 0xbe01f594be697e53U,
  0xbf19a68f3e865395U, 0xbf2cb1cdbe7bcd2dU, 0xbe1e3cc4be197b49U, 0xbc151f6f3d004b3dU,
  0x3e973b923dd74c50U, 0x3e520a0a3d99d970U, 0xb9f2b0c3be2252a5U, 0xbd4ab2fabea87257U,
  0xbe7dc04e3eb80f05U, 0xbe89cb72bebd6428U, 0x3d063919bc360955U, 0x3e2e5a7f3e5d25c9U,
  0xbe2c1e993d29f17bU, 0x3e19f827be6a6a3fU, 0xbd1adcdf3efa64e3U, 0xbe24107f3ac09765U,
  0xbe9b9d55be196737U, 0x3c9b6edb3cecfd16U, 0x3dd16ecfbe020964U, 0x3d9b4d893e20e6c4U,
  0xbc12238dbe954ec4U, 0x3e80213ebe00d614U, 0xbc8f8529ba93b76dU, 0xbe4390ccbf0a371bU,
  0xbb0308e0be5b6192U, 0x3d04c2e83cda7792U, 0xbe87aeb6be8ef1f7U, 0x3c140c073ddb6ba7U,
  0xbd3f341d3ddecdc3U, 0x3e63554bbd451a11U, 0x3ea52d92be22ae46U, 0x3e0b93cb3d8cbbc4U,
  0xbf50d63dbeb0fefeU, 0xbdf91d6f3e58c2a8U, 0x3e3c415bbf5b370bU, 0xbe6dee083de87b40U,
  0x3dbdb7373c19c03dU, 0x3ebb97b93d21bc37U, 0xbe3aa1083e3603e2U, 0xbe8b4c31bf1696c1U,
  0xbda584c7be3772deU, 0xbcff2f263e836330U, 0x3d64b32ebe8e3078U, 0xbe81c75dbee5c8a4U,
  0xbedecd15be4c0aacU, 0xbe76b9c33ddd9f1fU, 0x3ecddcc9bea95278U, 0x39fd4dd53e724ae4U,
  0xbde01fb2bd71aa07U, 0xbdf562a0bde786a1U, 0x3d38ed2bbe5ba58cU, 0x3e009a333ea14b50U,
  0x3ebefb2a3e1e2ec8U, 0x3e4ddc7cbcd4d446U, 0xbe301614bdc1fa25U, 0xbeab6e83bca4bf00U,
  0xbe7c38fd3dce3e8dU, 0xbe8246c83e97b044U, 0x3e58c1003e222850U, 0xbe6114e73dbd8fb0U,
  0xbeb47d19be195f88U, 0x3ea6073abe50323aU, 0x3d9eb31dbe15d663U, 0xbe94e26fbe6d63cfU,
  0x3ea8c0d5bd39081eU, 0xbe4af863be24b731U, 0x3cdef71d3e9ab526U, 0x3e9992283e2f1a6aU,
  0x3e861b403e6e8214U, 0xbe0c6b7a3d2f774bU, 0xbe5e392fbec35d85U, 0xbe1671923e8edbdcU,
  0xbe3506763e6a1be8U, 0xbeb2a5aa3e3f8b01U, 0xbe1ff7403ebe5b28U, 0x3dc7302a3dc874dbU,
  0x3d9a6135380430cbU, 0x3e2ef05bbee224e8U, 0xbe954720be50f634U, 0xbe53e600be83df93U,
  0xbd82958dbe83705fU, 0x3e137d2e3dee2317U, 0x3d536114bca7fc08U, 0xbebc4ea8be2b58c6U,
  0xbca90e67bf15e0beU, 0xbda1da5dbe3dde7cU, 0x3be766fdbcd4c2e7U, 0xbdcb8290bc1acb63U,
  0x3dd467ed3d283a60U, 0x3eb7f561bd5a0b1aU, 0x3efe79b6be9b80e4U, 0xbd86c769be999fb0U,
  0x3d08775bbe598a1aU, 0xbe2019fa3e4f01b5U, 0x3d96de8cbe6fc1e0U, 0xbd5f97eb3dc879f2U,
  0xbe3e0bbb3e80ed80U, 0x3d0243453ea329b6U, 0xbb623248be65d431U, 0x3e05d756bc9f5cabU,
  0x3e9f05733e73f3b1U, 0x3c3079debd69e0e4U, 0xbcd31bac3e4c2177U, 0xbe73d205be943da2U,
  0xbc85ec24bd9400d2U, 0x3e8adcdebc5be3a9U, 0xbf7cb459bdd12b8fU, 0xbd9b0d2fbdb7eab0U,
  0x3dc3bdf4bf05d3a4U, 0x3e0c3f1b3ec8b367U, 0x3cfa586e3e3f1b32U, 0x3e23bd28bcb618dcU,
  0x3d3f1a593ea6af08U, 0xbe987495beef90fdU, 0xbac0bb253da0a453U, 0x3ec390ddbddb5f5aU,
  0x3e775b7c3f5c30b6U, 0xbd4a83ecbd439fbeU, 0xbe45f4c93bd5b689U, 0xbe9820ec3ead2b4aU,
  0xbf014a533eaf5625U, 0xbedace09be65caceU, 0xbf7a2bd43f0c3f69U, 0x3dede4793ec91005U,
  0xbd7e644e3d9f3a2fU, 0x3e441492bf1c032cU, 0xbec5fe483e2a1f8fU, 0xbeacd3eebe349e87U,
  0x3ead10773f19f79dU, 0xbee18530be5e3b48U, 0xbe34aa793dcbbcd3U, 0x3cad4d8c3d19627dU,
  0x3f1aef55bde53d05U, 0xbd4e09ef3ed6ff4aU, 0x3e2ce183bf09e60aU, 0xbe156045bc06b032U,
  0xbe3bc5d83ed9a9efU, 0xbebb6cc4bd89fc14U, 0x3cc2b90abddff254U, 0x3ead005e3efa6f81U,
  0xbe0e44e4bdb0925bU, 0x3e8b51c3be84ef76U, 0xbe9713e53ee23913U, 0xbd54476ebe638450U,
  0x3dcee842bd67c553U, 0xbda0c8aabe5c626cU, 0x3e3e8c1d3d8ef9a6U, 0x3dee6a0c3e2d73f2U,
  0x3bab4e863d75f25fU, 0x3e4beaf13d910714U, 0xbf4f93bfbe2760c7U, 0x3bd80f3cbe2449cbU,
  0xbdf06da4be973a6bU, 0xbe0716183ebb56b0U, 0xbe2eca793c116e49U, 0xbef2d762be39d097U,
  0x3d12d9a1be42eb41U, 0x3dba410a3df064dbU, 0x3e0f2021be8a54dcU, 0xbeb4aababe5800deU,
  0xbec8133cbf02e020U, 0x3c4ee183bdc5f9d4U, 0x3da7e3a3bebffea8U, 0xbef34b4e3e90a77bU,
  0xbcb5756f3e175a68U, 0x3d3bf740be7218feU, 0xbe905f2e3e9eeb86U, 0xbdfaf68ebebf54a4U,
  0x3e77dcc0bdff8896U, 0x3d890eaa3ec54a5bU, 0xbe02b205bc55b209U, 0xbe155a50becaa11eU,
  0x3deff842bd9fa8e0U, 0xbcae8f47bd6e0c86U, 0x3e014933bf3c9776U, 0xbd6a9efa3e562cb7U,
  0x3c74248bbdded7c2U, 0x3df7dae03d86d3deU, 0xbdca67b43e0521d0U, 0xbe27cd5bbd99384aU,
  0xbecf0cbdbde28053U, 0x3e243e58be5c4cd2U, 0xbc9739f03d9b8cb3U, 0xbde2db5abdb4e5efU,
  0x3af55e99be3dab6eU, 0xbdbd7bdfbb013477U, 0xbdc27a2bbe0de7cbU, 0x3dcb3a2cbe02bd3fU,
  0x3d54f53cbde85656U, 0xbe9d371dbe3a8ba0U, 0x3e9625bfbde742afU, 0xbd1e88643bd62d9fU,
  0xbe3eb03cbc864125U, 0xbe8ab486bdc979f4U, 0xbd73f7c33d380b6fU, 0xbdf28561be57de0dU,
  0xbdc6cf3fbdf22f8bU, 0x3d332e4dbe7457e3U, 0x3d50ecaabc9b11d9U, 0xbdf44401be1fc82cU,
  0x3aa1c382bd94f3a3U, 0x3c4349f5be834c49U, 0xbe92ddf63e16e228U, 0x3e3f803a3e18a170U,
  0x3cfae7e7be563001U, 0xbdfec0fdbe2e01d1U, 0xbdd552763e87149dU, 0x3e0d136a3c9ab033U,
  0xbccec2b03ec5d728U, 0xbf05d646be8b34c9U, 0xbe8368ccbdf4fb73U, 0xbdc2dbff3d320c67U,
  0x3dcb7558bdc8bedfU, 0xbe48e8d4bdbfa17cU, 0x3e6568c43d368284U, 0xbdaf4a4fbe395c5fU,
  0xbd4e5478bd2e5e8dU, 0xbd3295e1be9d4ebeU, 0x3d8df4693dfe597eU, 0x3e8c980e3eb4ffaaU,
  0x3de9e202be416911U, 0xbcd1afdbbd99d824U, 0xbeefeb913e6a8477U, 0xbdf876443e05dc96U,
  0xbee5471dbe985ecbU, 0x3d9fba773deecad4U, 0xbd1003d2be764bbbU, 0xbc443be13cd194f6U,
  0xbeb1c603bda823a0U, 0xbdf20534be6a20baU, 0xbb9675653dfc87a9U, 0xbda8ca47bf140ae1U,
  0x3e89c1a3be8a485cU, 0x3e8da643bdcc2f18U, 0xbe9ad40abbf8bcbdU, 0xbdc56143bea21cf5U,
  0x3e7e56c7be884d08U, 0xbf0ac3233d573423U, 0x3c549022be629fd3U, 0xbd80ffa93e299236U,
  0xbe9fed763dbe8d84U, 0xbdd8906fbde699c3U, 0x3e545b3bbecc0293U, 0x3e335c77be021b06U,
  0x3ea070313db2cabdU, 0x3e3eec4f3cd30fd1U, 0xbe78bcca3e10c31aU, 0xbdd4bc05bdfecdfdU,
  0xbd4447e63e57da7eU, 0xbe2268c43df17ab3U, 0xbefbf99c3d8d782bU, 0xbed8b694bccba462U,
  0xbe493f15becec690U, 0x3e8adb663de85048U, 0x3e7f3c5d3d4623fdU, 0xbe5b0ce43dfac265U,
  0xbc01e1dc3e321152U, 0xbe52e189be7ca246U, 0xbceec280be19668cU, 0x3e7117523c55f6ecU,
  0x3eb34c67bc605877U, 0x3db9bfe83d271aaeU, 0x3aaa4f6b3c1d28d8U, 0xbea0619c3da1cc96U,
  0xbe2c635a3eb150c5U, 0xbeb5e4873e82f10cU, 0xbf0625bc3c55eca9U, 0x3bedc4443ebfe0dfU,
  0xbee687f1bd931287U, 0x3ee0da73be1c2109U, 0xbd2bb7afbd6345e4U, 0xbe51f1b2be379dbeU,
  0xbe5797693fdd5347U, 0x3cc11642be8494b3U, 0x3df534e0bec1df1bU, 0xbf0aabc03e9d80fdU,
  0x3fbf4f0ebf3996f6U, 0xbe6bf5bd3f20feddU, 0x3ea2b94e3de09f9aU, 0xbee91699bce79eb3U,
  0xbe2d42ee3fef9572U, 0xbd34461c3e4e48b7U, 0x3f367f46bc24327cU, 0xbcdc802b3f2dda95U,
  0xbe91a7753ce52656U, 0x3fa15158be2e937dU, 0xbe23932e3ea3bc3aU, 0x3cbc41d73e85850aU,
  0xbe55a51bbeb523a5U, 0xbe5086a0bdec27cbU, 0xbe970b31bc814085U, 0xbde11414beace692U,
  0x3e9d72cebee14dc6U, 0x3e3c127abe7f043cU, 0xbe3136353e429b84U, 0x3d82ab37be602914U,
  0x3daff999bf38e101U, 0xbde86eefbf36a489U, 0xbe34edc2be18c2bfU, 0xbeb4b52abd5c3d36U,
  0xbe50bba73e9f25afU, 0x3f2d92d93e5cbafeU, 0x3dfca3c0be995bc6U, 0x3e8dd59d3e3da20aU,
  0xbee63cb9bfefae1aU, 0xbf24baa0bf3a9974U, 0x3d8dfc583da59c43U, 0x3fbcd9abbd64cff0U,
  0x3f266b353fa2eaabU, 0xbddf7c28bec799a8U, 0x3ea1585abe51da38U, 0x3de4f4e13fa8a96eU,
  0xbedf5a20c01b646eU, 0xbd8e8b3fbf7e4e9aU, 0xbfeab1983f4f2ff3U, 0xbdeb9bb53e715716U,
  0xbe1992993ec8d0daU, 0x3fa1a724be9f3659U, 0xbf0f7c59bf715844U, 0xbe45c6733e034532U,
  0x3e6e4ebbbd06eab1U, 0x3dd10f7d3e854329U, 0xbc336be23dd470b2U, 0xbce472b8be6b4566U,
  0xbd9650be3dbf026bU, 0xbf165c2dbdaaf688U, 0x3c8d34913c0fdeb2U, 0xbdbe07443eb21984U,
  0x3e910f2a3d5f64ebU, 0x3e2e8ffebe9c33cbU, 0xbd9785903e1cee5dU, 0xbe856e203dce0313U,
  0x3e86d8b73df7a729U, 0x3cb3e9763e8015a0U, 0xbcb9a15ebe7eeba8U, 0x3da2c80a3e1e5755U,
  0x3d154fec3d6a5b11U, 0xbe0747a2be211ae7U, 0xbee252d1bd85bd8dU, 0x3db6db383c495617U,
  0x3e2d91753de96aafU, 0x3ea8f0d8bd935e4eU, 0xbe35c0a7be114e4bU, 0xbda7828a3d58af7fU,
  0xbddd84fbbc969bdaU, 0xbe605b4ebbbdd79fU, 0xbe75c5413d22c715U, 0xbe1ff59a3e581e7dU,
  0x3c8f773bbd737145U, 0x3e1737543c625f97U, 0xbd7e32a5be253119U, 0x3c496cf9be8ad7eeU,
  0xbe3158a73c62f984U, 0xbe7e3a97be7868baU, 0xbe523afdbe207266U, 0x3df9a09a3c08ef17U,
  0x3debc007bd2c77dcU, 0x3edb6a63bdb97936U, 0xbe59a4c5be9f4432U, 0xbdcc64dfbc8284dbU,
  0xbe87104d3d2ff94cU, 0xbeb107b6bd6c4886U, 0xbdbcb99abe4b5140U, 0xbe67aa953e02ab1aU,
  0xbee41b05bde86648U, 0x3e3bfa48be20d6cfU, 0x3d4067debe1b2b9aU, 0xbdba6105bec42e16U,
  0xbeafddf4bc3fe205U, 0xbe8f357fbd7bcbfeU, 0x3da1aad6be948962U, 0xbe9525d1bdccbf01U,
  0x3e249ab03d6e710dU, 0xbc8952c03d9b1a34U, 0xbdbc6cf33e418a34U, 0xbdca39dabdccb540U,
  0xbc5980da3d6624d7U, 0xbd065629be415960U, 0xbe4577c83e06b54aU, 0xbd2dfe51bdfc2e89U,
  0xbdb34f2dbe8f1ab6U, 0x3d73dd6c3d8de99dU, 0xbdb04d78bd74b672U, 0x3b9e9664bd3f57e5U,
  0xbe9111c23dbc4a47U, 0xbef2b432be2285a7U, 0x3d91a791beb68e60U, 0xbe8746f0be53d28cU,
  0x3e02ceebbcf4740bU, 0xbc417b09bce76677U, 0xbd468a813dad934bU, 0xbe1139e4be0f7c34U,
  0xbc929d243da0d9d1U, 0xbd28bc5f3a84bce4U, 0xbc0ebb693d1bc230U, 0xbe17ab4e3df4dcc4U,
  0xbe773a31be71279dU, 0x3de21ce9bce48fe4U, 0xbe4c4d34bd8499e9U, 0xbdfdb392bc2cabd3U,
  0xbe653b5d3e96cfdfU, 0xbeba7e06be6bdba9U, 0x3d0853f7bea0f3c0U, 0xbe3a1118bcc21041U,
  0x3da89b983e87e948U, 0xbe093b9b3e3f454bU, 0xba272830bdc4e969U, 0xbdf4cf04bd2f1232U,
  0xbe0e90373d30f332U, 0xbe929b61bbda7833U, 0xbe5d37b13c8ec965U, 0xbdd9a9b63e2d2a78U,
  0xbe5528e4be8f9320U, 0x3d6a25a3be49eb23U, 0xbe852214bc9045b5U, 0xbea2a720bd19f335U,
  0xbf4e4685bec20809U, 0xbe9bb287bee93474U, 0xbe89c363bdd44e28U, 0xbe9530ddbe83c1d1U,
  0x3e12f50dbdacee48U, 0x3ec40cfd3d9921f3U, 0xbf08d554bdaa20fbU, 0x3db6cdeabe3a7bdcU,
  0xbea6cd743f25983dU, 0xbecc97ffbeb615eeU, 0x3e93f89a3e64250dU, 0xbe4f37413e27ada7U,
  0xbe8ce55dbe2e75b3U, 0xbefac984be40866eU, 0xbee54e273d50fc8bU, 0xbe920133bf202702U,
  0x3f03c2fa3ff3b2e0U, 0x3e8da260bdeb0c0bU, 0x3e5a562b3e04e95eU, 0xbe163660bded890dU,
  0x3fa86658be4772f7U, 0xbed82c813e8e7077U, 0xbed21401bdb8520aU, 0xbe36504fbe2b7599U,
  0x3e0fcf9440308dbbU, 0xbe24f0cebe8be03dU, 0x3f06f0163ec431f8U, 0x3f147e7d3fb1bcfaU,
  0xbe79c2b7bf2034e2U, 0xbe12881bbf0b9e82U, 0xbe4055a43f8a0814U, 0x3d575595bd236189U,
  0x3e9b4848bfa45e27U, 0x3dbc764cbeb7bd87U, 0x3c3acb0f3e54b552U, 0x3ee3d0003e3c070aU,
  0xbf9753ee3f7faf33U, 0x3e7e2807bf1fa33fU, 0xbe8b9b8bbdad77edU, 0xbe891feb3cdf7837U,
  0x3e0d5805bfd9e4d1U, 0x3e0951bd3e8075d4U, 0xbe9df82fbcb24425U, 0xbf3fa5c8bf795b4bU,
  0x3e9e25443e27fea0U, 0xbebbaa293e0e07f2U, 0xbda5dcabbf287cd0U, 0x3e14c9e23ddd17e1U,
  0xbdf1270cbe66d9d5U, 0x3c5a7b77bd741565U, 0xbe0c9e733d41c222U, 0x3eb8bb7a3bd6a05eU,
  0xbbb97abb3e3227e2U, 0x3ecee073be636987U, 0xbefa56a5be0d546bU, 0x3c84f03fbdc59159U,
  0xbeb858c73dc77013U, 0xbe9405ad3e88e644U, 0xbe8080f5bdde6079U, 0xbdbbaaa4be30e6e3U,
  0xbe33211abe0eb07fU, 0xbd31d3b1be168ddcU, 0x3eb1767cbeb746f1U, 0xbe8e8cf2beab7c81U,
  0xbd5cb07d3e398779U, 0xbd5fd00bbe83e94fU, 0x3d7028be3ccd839bU, 0x3de6fd563ed6cdc3U,
  0x3e06d24b3e92bcefU, 0x3c90a3023dbe8fd5U, 0xbcd897d6be5f2c38U, 0xbd90f3a33d696bb1U,
  0xbe7539053e50db33U, 0x3b7e224c3e085d48U, 0xbdbb3dfbbcaf4efaU, 0xbe9c93fb3e43ad02U,
  0x3e1b89d63c03f16bU, 0xbcfa0f4ebdcf1fc3U, 0xbde99fa7be057f7eU, 0xbe9f12febe1a24a8U,
  0xbe520b3c3ed4737fU, 0xbe8a9b6fbe8294b0U, 0x3da5081dbdfc9772U, 0xbea634ba3f3818f7U,
  0xbe34dbabbdfbc067U, 0xbf071c333e5a5695U, 0x3e8e19fbbcaa0e01U, 0xbdb60cabbe08890cU,
  0x3e11a9a63cc200b0U, 0x3d149a9ebecd8567U, 0x3d188ad23e5a175cU, 0xbe52e0cb3ea4cefbU,
  0x3db0b8f03d3cb849U, 0xbe89b80b3e5ccef2U, 0xbf0b6388beac753aU, 0xbdc1e7bf3dd55602U,
  0x3cae24e0bcf678d5U, 0xbe2d5368be22e36aU, 0xbd51d72cbdbed30bU, 0x3ba5e612bd122fd9U,
  0x3d820c063cdba196U, 0xbb9c5aefbc910e31U, 0xbd1949e93d274633U, 0xbc84db483ce5409cU,
  0xbe1b5242bc148fe6U, 0xbdf57558bd778d3dU, 0xbd297b0f3df773b7U, 0xbb4375ca3def093bU,
  0xbdea8e693d8803d5U, 0xbc08fea6be40371fU, 0xbe1df0e9bd90f528U, 0xbe01377b3c86eb3cU,
  0xbd76d6bfbbdb8543U, 0xbe10039cbdc79185U, 0xbcbadeb5bd9a3528U, 0xbdafb6c8bd164282U,
  0x3cd61bca3e0d806dU, 0x3d2020babce85079U, 0xbd70eaa7bcf272ddU, 0xbbb243d6bd9eb8f3U,
  0xbe127f74bcd322d6U, 0xbdc2a3d5bd0bb7deU, 0xbd3a37df3dd6964eU, 0x3ba1462b3dcfbe37U,
  0xbe03ed44bd0a4ffbU, 0xbd88ee94bdb0ff2eU, 0xbe1839d63b49e928U, 0xbdeb2b04bd35cf52U,
  0x3dba2988bd54ffafU, 0x3d2a8e7e3da46dc1U, 0x3d2285803e1d3520U, 0xbc092f42bd3b8f2fU,
  0xbd6dae553e3a671eU, 0x3dcb2bd4bc6e94c2U, 0x3df30e34bd28dbc4U, 0x3be3231abc45ece7U,
  0xbdab5741bccd4eb8U, 0xbda3c69dbe1c8dfaU, 0xbd9a0e8b3d309da4U, 0x3dfa9f483da14dfaU,
  0x3cdb3d443cf84ce3U, 0xbdd80780bce8049fU, 0x3db5ce0c3df8aba9U, 0x3dabfc81bdb8ba63U,
  0xbe462bca3dc6e5cbU, 0x3dc669ac3e280e48U, 0x3d248dcf3dd6eea5U, 0xbe5763bcbdd62582U,
  0xbda50b1cbd44cf29U, 0xbef18ae4be37fb07U, 0xbe7593ca3e777e9cU, 0xbefd614cbe109978U,
  0xbdceb9a8bea1956dU, 0x3e8913b83dcb0758U, 0xbec71b5fbd121cf9U, 0x3db8c293be85ee85U,
  0x3e18ff34beaa4325U, 0xbe440174bdc38a11U, 0xbe7e6470be250556U, 0x3cf456cb3d969b2cU,
  0xbdab438c3e14efc9U, 0xbde7f743be2891edU, 0xbefd667dbe1355ffU, 0x3ec85b513e959781U,
  0x3d3578c7bc8719a4U, 0xbef53c9fbebd3f27U, 0xbec5b10dbc62df8aU, 0xbd5feeea3e62be67U,
  0xbe5becfdbd00162cU, 0xbd21cda0bd4baeb3U, 0xbf237bab3ecf379dU, 0xbb92a0a93ebc4713U,
  0x3d29274ebe95d86eU, 0xbdc470afbecd9c13U, 0xbe8558b63ee3a1f7U, 0xbeb4dd80bd378232U,
  0x3f224efb3f011f7cU, 0xbdfffe6fbe140c20U, 0xbe93645a3da73535U, 0x3ed790913dd078daU,
  0x3d440a533ddeee71U, 0xbee5ccd6bdf5508cU, 0xbdfd70163d9659ffU, 0xbdac4dcf3f1853beU,
  0xbe05c72c3ea8e6e2U, 0xbca27d33bdecdabdU, 0xbea89b583f1cd8a1U, 0xbc8599c43e82b7e6U,
  0xbdab70b4be45e210U, 0x3ca62067be8ccdf0U, 0xbd5058f13e0a6b10U, 0xbe34410d3df14aa6U,
  0xbec29968bd423b6bU, 0xbe60d3d0be44ec15U, 0x3d885bd3be88ffe0U, 0x3e88d8643ce49e19U,
  0x3efef48cbe0e8eaeU, 0x3df414acbe3b11dfU, 0xbdf24fe0be929fa0U, 0xbd01dc21be916d5bU,
  0xbec56b2d3dbf38ceU, 0xbe80402a3bffe6b4U, 0xbe6b07e6be437b07U, 0x3d9c86803ea53ba4U,
  0xbed6c9f3bd2b3df5U, 0x3ef17b8ebe60062dU, 0xbe3593ccbd34217bU, 0xbe3d0b66be9f3c75U,
  0xbefc0a65be98ceb1U, 0xbe8546ffbe9ab46cU, 0xbe28dc793d859a8aU, 0x3f084e573ed5ae42U,
  0x3f3b290ebedea3f7U, 0x3eb755b5be0b261bU, 0xbf126a15bf10ffd9U, 0xbd780a90be986167U,
  0xbead4723bd33d950U, 0xbea1cb023e1bb4abU, 0xbeb3a7f1becb053fU, 0xbe5f292d3c532e02U,
  0xbef1d430bf49dd93U, 0x3f2af9c4be891622U, 0x3da1fe1b3f055466U, 0xbde9832ebe426166U,
  0xbe08b1efbed0bfa3U, 0x3db7ff963c56c4fcU, 0xbda6d3973dc750deU, 0x3ea1bc5fbc553892U,
  0xbe62a00ebeffd536U, 0xbe1a0fe9be548a6aU, 0x3d13bc6fbd90593cU, 0xbee6726abe1eff35U,
  0xb91d74f63cf10ee7U, 0x3e97f7ecbe94563aU, 0xbe27b5fbbda5001bU, 0xbdef005dbecd3f01U,
  0x3df3c8a7bf15b74eU, 0xbdea90b4bea8206fU, 0xbde41c26be5775b6U, 0x3d55c279bcba78eaU,
  0x3d044951be8c98e0U, 0x3dbdc5393e73c93bU, 0x3def48be3de32f6fU, 0xbbda3e71bdfd9b32U,
  0x3d83e0e83c2fbd6cU, 0xbd6e690cbd2f476cU, 0xbd19d96a3b32a27eU, 0xbc78fb5c3d1859d1U,
  0xbcf3455bbd042f3fU, 0x3d0f37e03c1eb212U, 0xbe1031563d3ec7cbU, 0x3d08123ebd269d7fU,
  0x3e4dfa3fbda8ac14U, 0x3d614af73c8e6836U, 0xbc96fd2d3ce231dcU, 0x3e4369bbbcc6005dU,
  0xbe5bdd73bd870514U, 0x3a41c9f3be169f2bU, 0xbde8134cbd93e2ebU, 0x3d4264c23e48dfa0U,
  0x3e5cef01bdca0313U, 0x3e1bef433b108455U, 0xbe2c1d80bda3b274U, 0xbe8091b1be20a5d8U,
  0xbe500a123de1b362U, 0xbe0a06fa3e5de1c3U, 0xbdbb319ebe69b5eeU, 0xbebbec61bdf4984bU,
  0xbb682365be78cac4U, 0x3e7501e8bc94ee0dU, 0x3c87fbcfbe0e8742U, 0xbe861ef2be3946e1U,
  0xbf01e6c4be77b7ebU, 0xbe0c5812be35e45eU, 0xbbe973fdbebb3f08U, 0xbd89726b3ed766deU,
  0x3db70208bea4df60U, 0x3e1cd2a43dc15846U, 0x3bc84cc2bdd60320U, 0xbe064197bede475eU,
  0xbdf35e76be7600a3U, 0xbe4e1f0e3e8b2f26U, 0xbe072dfcbed25245U, 0xbe951a75bd4492ceU,
  0xbecc60efbd93984aU, 0x3d8963ec3da1dc89U, 0x3db7e0e0be0b89d1U, 0xbe622c45be1dcc02U,
  0x3cb6fb903e106fbbU, 0x3b640a50be965698U, 0xbc54a9d1bdbf2e6eU, 0x3ecfb4483e9bd600U,
  0x3ea2886e3e18f11bU, 0xbd6e66673de063d0U, 0x3d499019be19a0a7U, 0xbdec00d23ea14a38U,
  0x3c64ed503e873510U, 0xbe1016b73e84a175U, 0xbd335187bda59cc4U, 0xbebd51903ed9584bU,
  0xbdc6561f3e933809U, 0x3e8ce3efbdabcfcfU, 0xbdeab253be1bfa95U, 0xbeee63293dbb26aaU,
  0xbeb272cc3eab6e94U, 0xbf3339edbe267ad9U, 0x3dc3c94cbe7a8690U, 0xbeb2fe2d3bc714b4U,
  0xbb1ecc86be9e6201U, 0x3ca5f4f63e854832U, 0x3e87cfb83dca3817U, 0xbe26ad7cbdd4b1c9U,
  0x3d5bbcb73d6f1605U, 0x3e078b29beed691aU, 0xbd94aeed3e4f599cU, 0x3e3c40173ebcc5abU,
  0x3ccd1cdebda39f21U, 0x3d5503323da7fae3U, 0xbed46ec43c407fccU, 0x3c0533ea3e648e48U,
  0xbe01552ebd8e8f75U, 0xbead0febbcdc4c4bU, 0xbd503f90bdb4a4aeU, 0xbdaf896dbeb67cb0U,
  0xbee4355cbdbefe56U, 0x3e896371bdb78e81U, 0xbdacc678bc974856U, 0xbe6b7955be046fbbU,
  0x3d8aec86be9c5d10U, 0xbe6fbf87bf05104bU, 0xbbac4572bc19cc1aU, 0x3daf5e4cbe86df6bU,
  0x3d8d6aedbeea7092U, 0xbe98c404be1880bcU, 0x3c654f3f3dafaa65U, 0x3d90504abd097cddU,
  0x3e64e1753e339fefU, 0x3cf94b80be63ab60U, 0xbe56dc65bdecca09U, 0x3e2966f23e295e14U,
  0x3e2eeb433e80d429U, 0x3e502dbd3ec507caU, 0xbe1c2f9abe594724U, 0xbe2dcb7d3d8ede72U,
  0xbe98149e3d4c36daU, 0xbea816ba3deb69faU, 0x3b1dd8d7be03a1c8U, 0xbec216663de6bf98U,
  0xbe95fe853dc01a5cU, 0xbe102217bc289fabU, 0x3c701a1fbdd18ca8U, 0xbe62d8c7bed0003dU,
  0xbdf8fe16bee41c0aU, 0x3c80af2dbe0259b9U, 0xbe6473a3bd95e081U, 0x3e9111d9bc0887a1U,
  0xbcf0815f3dbd0d68U, 0xbe107abcbde23790U, 0xbeba6451be66993cU, 0xbe4974683e98f000U,
  0xbe8143c6be86f57eU, 0xbe19291f3d99a347U, 0xbe4cd4debe05943cU, 0xbeb6cd24bea91a1fU,
  0xbe7fb5aa3ddbd773U, 0x3d0a405cbe7a344dU, 0x3d6712e1bef605d7U, 0xbe4c32a4bef114e8U,
  0xbdc5679bbeb4fd19U, 0x3d32cbd53e050d12U, 0xbee91d5d3c78f136U, 0x3eb227d9be92f8e8U,
  0xbca65c9b3d6c0d47U, 0xbd98d7dc3d8f2682U, 0x3bfaf286beb16b3eU, 0xbcea07493eabd0c9U,
  0xbd85e8bfbecc54d1U, 0x3e10701fbe82e824U, 0xbdf7a14f3e42ec60U, 0x3e3e4ce4be21f613U,
  0x3bfefc233e1c52cfU, 0x3d9de556bd570dd4U, 0xbcaef020be6b0923U, 0x3e724b82be31ad00U,
  0xbd27c06c3c2c3ecaU, 0xbd221f62bc52ea44U, 0xbec237063d710f73U, 0x3d5a9b6a3d112297U,
  0xbce390d53e3c5ce7U, 0xbe196a47bd88297aU, 0xbe90a952be672a6cU, 0xbdac4410bdc64b19U,
  0xbc8fbe87beab3ad6U, 0xbd53227e3dac358cU, 0xbeaa374dbe2b7e2eU, 0xbdc3572dbd22254dU,
  0x3e049a6ebe293ed3U, 0xbd6906babd25a4f4U, 0xbe0da20e3e750df0U, 0x3b42511dbe1754daU,
  0x3e97ce00be5307cdU, 0xbc27481fbe4c60d2U, 0xbd7f1ef43e78f92bU, 0x3e8e72cdbe4e15dbU,
  0x3d1ee80a3ebd0938U, 0xbe83a4fabf017c5eU, 0xbf047e52be8f2de4U, 0xbcf26f473e407645U,
  0xbe79bf00bea86029U, 0xbeaa81d63d4129c6U, 0xbe85018b3df0a188U, 0xbdda352239f92f0bU,
  0x3c2d0b99bb9b14e4U, 0x3e3c3da6be7900e8U, 0xbe147b74bde72221U, 0xbdcf2d9ebe761fd6U,
  0xbe20fd19bd82140eU, 0x3d28657d3ddde9f5U, 0x3ddfc654be45eb08U, 0x3e040c5a3dd3f32bU,
  0x3c672bb2bec53904U, 0x3e6af3b43cd81975U, 0x3d2b4309bb7e2c0bU, 0xbe41ac743e0c8171U,
  0x3d42f142be067632U, 0x3e67faf8be03d050U, 0xbdc23b9bbe1eaac0U, 0xbdac796e3e8446f1U,
  0xbe6da4453f0ab11eU, 0xbceb42173e394dc8U, 0x3e3728febe1937cfU, 0x3c6e1f453dc22d0cU,
  0x3e29a2903de022d6U, 0xbd902a7ebdc03f58U, 0x3d179fe0be9ba154U, 0x3dc48b78bdb65807U,
  0x3e52bdd1be39860fU, 0xbde09181bb6a5269U, 0xbdb4a7f33e0f7ea3U, 0x3ddfaa0a3e80b509U,
  0xbe0ff97a3ed4bd13U, 0x3cc04c58bd9cc27cU, 0xbdec97623e9f862bU, 0x3d15f6233de69933U,
  0xbe0aa3a2bdc43904U, 0x3e02f77fbe9c1a30U, 0xbeb6fe59be04c820U, 0xbe0aec62bb17a18bU,
  0x3e105c0d3e162c3aU, 0xbe380e4bb98a6f24U, 0x3df0702dbea8069aU, 0x3dcd4b49bd769319U,
